#version: 0.2
Ġ t
i n
Ġ a
h e
r e
o n
e r
Ġ s
a t
Ġt he
e n
Ġ c
e s
Ġ o
in g
n d
i t
a l
Ġ w
o r
Ġ p
i s
Ġ f
o u
a n
e d
Ġ b
a r
Ġ in
i on
Ġa nd
i c
Ġo f
Ġ m
Ġ d
Ġt o
l e
o m
en t
Ġ e
c t
s t
Ġ h
Ġt h
Ġ re
r o
i l
Ġ l
v e
a s
l y
e t
Ġ n
at ion
o l
s e
i m
Ġ g
r a
c e
u r
i d
o w
Ġ u
i g
Ġ T
c h
u t
Ġb e
o t
v er
Ġs t
Ġ A
Ġ y
Ġf or
u l
i r
Ġ S
Ġ is
Ġc on
Ġ on
e l
a m
it h
a y
Ġ C
Ġ I
he r
Ġth at
- -
Ġy ou
i f
er s
i es
Ġw ith
Ġe x
a d
Ġa s
Ġp ro
Ġo r
is t
Ġw h
at e
es s
a g
m ent
Ġa n
o d
Ġc om
t er
re s
e ct
Ġa l
Ġ it
a b
â Ģ
it y
t h
e m
i v
Ġ M
Ġs u
i ve
Ġ he
q u
p p
Ġ v
Ġ P
u s
o p
a nd
o re
k e
t s
Ġd e
Ġ B
Ġa re
c i
Ġw e
Ġ (
a c
a in
ig h
il l
ĠT he
r om
Ġ W
o s
l d
Ġc h
r ou
Ġ en
u m
Ġ le
Ġ H
es t
ic al
u n
' s
r i
Ġ 1
ion s
u re
Ġ E
Ġs e
Ġb y
Ġn e
Ġ F
n t
p l
u d
Ġa t
Ġ D
an t
Ġ R
al l
a p
g h
Ġin t
or t
o g
Ġc an
Ġs p
Ġ r
Ġh a
ou t
Ġf rom
Ġa b
Ġs h
-- --
re d
i z
ar t
in e
ation s
Ġ im
Ġw or
g e
ou s
om e
Ġthe ir
Ġ L
Ġth is
ou r
Ġu s
igh t
u st
Ġyou r
Ġ N
ar d
Ġ G
Ġp l
o c
a ct
Ġa d
p er
t her
Ġw he
Ġcon t
a st
Ġw as
Ġcom p
ag e
a k
id e
i al
an ce
Ġre s
ou ld
an s
Ġ O
Ġha ve
Ġthe y
p t
f f
en d
Ġd is
at ed
Ġ 2
Ġn ot
u al
on g
ĠT h
i b
Ġs o
el l
o st
Ġin c
Ġ k
ab le
r u
d u
ic h
c c
ar y
a re
ul t
e re
or m
c es
i p
Ġu n
e p
Ġal l
i e
Ġ U
Ġab out
i ke
Ġ "
en ce
in d
ve l
at ing
k s
ig n
Ġt e
Ġm e
a ch
nd er
Ġim p
Ġa pp
res s
o od
e ar
Ġc l
Ġa r
ent s
ct ion
a v
Ġ J
0 0
Ġ j
ĠI n
Ġthe se
Ġe v
rou gh
Ġ âĢ
Ġint o
i le
s o
e c
T he
or s
Ġo ther
r y
Ġw ill
o se
Ġm an
Ġwh ich
Ġd o
re at
or y
it ion
Ġm ore
Ġcom m
Ġl ike
ic e
it ies
as s
on e
ver y
Ġthe m
Ġp er
ci al
f orm
a ce
âĢ Ļ
i a
Ġe m
ing s
u e
im e
il d
Ġo ut
Ġo ur
Ġh ow
en s
at er
Ġu nder
o o
Ġu p
ol og
n ow
an g
Ġb ut
ment s
Ġh as
Ġt ra
if ic
* *
Ġon e
Ġb et
ac k
a ke
b er
ou nd
Ġin d
r it
i re
---- ----
Ġs ome
r ic
Ġf e
i ous
Ġ qu
Ġp art
Ġp re
k ing
Ġit s
if f
Ġ ro
Ġp e
Ġwh o
Ġwhe n
am e
ĠS t
Ġc ol
or d
on s
Ġbe c
ur ing
Ġs y
as e
ar n
ay s
is h
Ġth rough
n e
l es
Ġcon s
Ġst ud
w e
Ġwe re
f ul
er v
ou gh
Ġsu ch
rou nd
u res
a u
l ow
le ct
Ġin ter
on d
Ġre l
at es
Ġh is
Ġd iff
Ġd es
m s
ou nt
a il
it e
p h
ĠTh is
Ġal so
p le
Ġthe re
re e
al ly
Ġk now
ver s
Ġt ime
u b
Ġm ay
) .
p ect
Ġo ver
Ġa g
ĠC h
Ġhe l
Ġa cc
Ġre c
ic s
op le
Ġt r
Ġ1 9
p e
Ġwh at
Ġex pl
i an
Ġg o
st and
l ic
Ġhel p
o ve
l ud
ra ct
c ess
l l
Ġ ra
Ġth an
Ġa ct
Ġa m
at ive
ro w
Ġ Y
Ġne w
al s
y s
o b
o v
il ity
al th
Ġin v
ri b
t ing
Ġof f
Ġre g
Ġc re
Ġe ff
Ġpe ople
Ġs c
Ġg en
ul ar
Ġ K
vel op
Ġs a
c ed
et h
Ġle arn
we en
t e
ch n
j ect
Ġin st
Ġre m
st em
ot h
ĠI t
Ġpro v
se l
Ġinc lud
Ġp r
Ġ -
Ġt w
Ġdiff ere
Ġa c
Ġc o
Ġbet ween
ir st
Ġre p
Ġp h
e f
m er
Ġex am
is e
Ġ V
Ġne ed
ur al
re n
t ain
Ġw ould
Ġ if
ation al
' t
I n
Ġan y
ent ial
i qu
Ġdis c
Ġd i
Ġex per
iv es
Ġbe en
g et
he d
Ġe very
Ġwhe re
ar k
he n
at h
Ġu se
Ġs ur
Ġh ad
Ġcomm un
Ġy ear
Ġde c
Ġp ers
Ġwor k
oo k
Ġv ar
ak ing
Ġ her
ow er
he s
Ġde velop
Ġad d
u es
ter n
Ġb l
ol d
t en
as ed
if e
Ġp os
âĢ Ŀ
ic t
x t
au se
) ,
Ġwh ile
is m
ut ion
Ġ 3
Ġte chn
Ġwor ld
Ġo b
Ġc ould
ic es
an ge
er n
Ġn o
Ġp o
Ġm od
ĠU n
Ġin s
u c
w n
Ġc all
Ġunder stand
e w
Ġsp ec
Ġsy stem
ib le
Ġst r
Ġat t
Ġs m
Ġs ign
Ġs im
Ġpro du
ist s
Ġtw o
Ġman y
o y
n ess
pp ort
it s
il y
c y
Ġtr ans
g an
er g
Ġev en
ĠâĢ ĵ
h ip
ĠA s
w ard
v ent
e ver
in es
Ġd uring
Ġwith in
Ġf irst
Ġv al
at ure
Ġsu b
Ġh ist
Ġb u
Ġhe alth
Ġdiffere nt
f ter
ra m
Ġin f
Ġm ost
Ġar t
id ent
ow n
Ġex p
ect ion
er m
Ġh um
olog y
ur n
in t
Ġre f
res ent
Ġp ol
iv id
Ġth ose
b le
Ġus ed
and s
f ore
Ġf l
Ġfor m
n g
Ġe ach
o ol
iz e
ro s
Ġj ust
Ġimp ort
Ġon ly
Ġcomp le
in k
Ġus ing
at a
Ġs om
ĠâĢ ľ
is s
ot her
ical ly
e g
er ing
ar ch
Ġsp e
Ġs et
Ġp at
v ing
Ġ ke
Ġin form
Ġm ight
Ġm ed
en g
ĠW h
iz ed
p s
Ġd ist
l ed
ĠH e
. .
Ġf un
ar m
im es
ad e
Ġh igh
ag es
Ġc ult
Ġt y
Ġse e
ĠB y
ru ct
Ġp ract
Ġn um
v es
i en
d ition
a w
Ġpro cess
u ch
Ġle ad
f t
Ġg ra
Ġf am
Ġre se
i ed
Ġd et
ĠC on
Ġw ell
Ġ ed
ĠF or
Ġch ild
in s
ic k
ir on
Ġl oc
Ġb oth
Ġs k
ar ly
Ġf ol
Ġ ent
Ġm y
Ġgen er
ivid ual
c l
Ġpart ic
an ts
Ġle t
c ing
Ġs he
it ed
mer ic
ce pt
p or
ch ool
Ġ2 0
al ity
Ġpro g
et y
ual ly
at her
Ġind ividual
Ġc ent
Ġg row
. "
Ġw ater
Ġf ound
Ġg et
Ġl ife
ĠW e
in ing
or ies
Ġpers on
Ġcall ed
Ġf ind
ĠH ow
Ġre qu
n ing
Ġre ad
ĠThe se
Ġex t
Ġb ack
Ġeff ect
Ġ2 00
Ġthe n
ĠThe y
Ġapp ro
Ġch ar
d s
Ġg rou
Ġo wn
ĠC om
ie w
Ġw ay
ĠA meric
Ġse c
Ġa round
Ġ 4
Ġdes ign
o ver
ĠA l
Ġen g
Ġm ake
r on
Ġpl ay
Ġc ap
ion al
Ġinc re
Ġl ong
Ġall ow
c on
Ġa ut
igh ts
Ġas s
v iron
g g
sel f
Ġc ur
ros s
it ions
Ġyear s
Ġp ower
Ġfol low
Ġbe fore
Ġm ain
Ġs ci
Ġc or
-------- --------
Ġres p
Ġl it
iv ing
Ġp ar
ĠP ro
Ġc ount
Ġc are
Ġad v
Ġs ol
Ġv is
Ġg l
a ve
Ġc ar
Ġf act
Ġch all
Ġd ata
Ġbec ause
# #
Ġbe ing
Ġprov id
Ġof ten
ut e
Ġsh ould
Ġs erv
us s
v ed
Ġcont in
Ġ 5
Ġinform ation
Ġexam ple
or ing
t le
i ent
Ġvar ious
Ġp ot
Ġbe l
Ġd el
Ġe qu
âĢ Ķ
Ġinv ol
Ġcon f
ak es
Ġb r
Ġa fter
T h
Ġto o
Ġm em
n ect
e x
Ġp rom
Ġg u
n ce
or k
Ġor gan
a red
ĠS o
Ġdo es
Ġm at
id er
t ed
our ces
iqu e
as es
e ad
c k
Ġth ough
it al
Ġp op
Ġsign ific
Ġd own
Ġf ood
Ġpro t
t y
Ġde f
iz ation
d ay
Ġl ar
i el
al e
a x
Ġde p
ri end
Ġg reat
im ate
ĠA n
ar s
ou n
Ġhum an
ĠA d
Ġsm all
re ad
Ġa v
Ġbu ild
i ence
Ġ ident
ate g
Ġm uch
Ġstud y
ub lic
, "
c om
Ġen viron
iv ity
a ir
Ġsh ow
e red
Ġre al
u nd
el s
ang u
Ġm on
od y
Ġcon c
Ġd ay
Ġw rit
Ġimport ant
` `
Ġs chool
ab ility
ro du
t he
i er
Ġm ade
Ġen s
pl es
in ed
Ġag ain
Ġst art
Ġcl ass
Ġen d
in al
Ġbe h
Ġsa id
Ġm in
Ġl ess
Ġsu pport
ag ine
ĠA r
Ġle vel
Ġcre ate
ĠE x
i vers
Ġc he
Ġto get
Ġtoget her
Ġo p
Ġstud ents
Ġpro ble
an y
ra ph
Ġpos s
Ġqu est
if y
or ts
Ġam ong
ĠB ut
in ation
em ber
i x
Ġd em
eth ing
Ġlearn ing
ap ter
Ġpro f
Ġh im
erg y
an ces
v en
Ġ ess
ĠY ou
l ess
et s
Ġinclud ing
a h
ent ly
Ġexpl ore
Ġf riend
ere st
Ġt ake
Ġa w
ro l
Ġsom ething
Ġs ame
Ġn ow
. ,
Ġ very
om en
Ġd id
Ġunderstand ing
i o
Ġchar act
Ġ1 8
Ġother s
Ġ ide
Ġm ust
l and
Ġchall eng
l ing
ĠR e
er tain
Ġed uc
Ġbet ter
it ive
Ġcomple x
Ġfe el
Ġ est
Ġis s
us ion
Ġcon st
ire ct
Ġr is
oc us
Ġg ood
Ġan other
ĠI nd
Ġf ac
Ġa ff
l ine
Ġso cial
iz ing
b e
eth od
ater ial
in ce
cc ess
Ġre du
p ar
Ġpot ential
i red
Ġcon nect
Ġan al
Ġty p
Ġc rit
Ġhist ory
is hed
Ġpl an
Ġ **
Ġc le
Ġl angu
Ġs er
re nt
ĠI f
Ġrese arch
her s
Ġen c
b ers
Ġo cc
Ġe le
Ġ `
Ġr ight
Ġso ci
ĠS p
ĠA nd
our se
in ess
Ġimp ro
Ġp res
Ġw ant
Ġfun ction
Ġsignific ant
Ġenviron ment
Ġ20 1
Ġto ward
olog ical
Ġ 6
re t
ill s
Ġint erest
ur ther
iv en
l u
Ġbel ie
ain s
Ġknow n
r al
ver se
Ġse ver
Ġ '
Ġexper ien
om s
ol ution
ĠN ew
Ġchild ren
Ġm us
Ġc a
Ġth ree
en se
og n
ent al
Ġm ethod
is ion
Ġme an
Ġcomm on
Ġha pp
Ġac ross
Ġbec ome
iv ed
Ġsa f
Ġst ate
og raph
so ci
o h
Ġ =
Ġp ass
r ies
Ġth ings
Ġcont rib
Ġd ue
d itions
Ġwith out
a z
ab or
u p
Ġf ocus
Ġc reat
Ġgo ver
Ġm aterial
Ġt reat
ĠI s
Ġe lect
Ġch ang
A s
n er
Ġo pt
Ġh and
W h
ĠHow ever
ic ation
Ġt re
oc k
Ġun ique
S t
os s
Ġb ased
Ġph ys
ul ation
el f
Ġsever al
r ation
Ġess ential
Ġch ange
ag ing
ro p
Ġdevelop ment
ol s
at ural
ĠI m
Ġs it
ur y
l ish
ra in
Ġsh ap
Ġm ove
Ġdisc uss
Ġal ong
c ent
Ġm aking
Ġpl ace
age ment
t o
i od
C h
i or
m b
ent ion
Ġan im
Ġspe cial
Ġm et
Ġb o
g er
Ġst and
Ġop en
ul ts
ou ra
Ġcons ider
Ġb re
Ġper form
Ġgrou p
ul l
Ġim m
1 9
r at
as h
ĠW hen
Ġb en
Ġ ve
Ġen ergy
Ġke ep
Ġp ur
ĠTh at
or n
Ġf in
ive ly
Ġst ill
Ġp resent
Ġsystem s
ut ure
Ġrel ations
Ġinclud e
Ġb ody
ĠAmeric an
Ġm ar
Ġl ight
Ġm ult
il ities
Ġle g
Ġo per
i ents
w ays
i ans
Ġnum ber
Ġth ink
Ġd on
Ġl ook
Ġgover n
Ġup on
iel d
Ġt urn
Ġp ublic
Ġro le
Ġfam ily
Ġsu ccess
p r
Ġpartic ular
ĠE n
Ġaut h
ag n
Ġt al
Ġl aw
Ġt em
p y
b s
Ġrep resent
ar ing
re en
Ġagain st
ard s
Ġre t
ou se
Ġhist or
Ġindividual s
Ġacc ess
Ġres ult
Ġwh y
Ġme ans
Ġspec ific
Ġsu pp
Ġ &
ĠT o
Ġ1 0
g in
Ġs l
Ġstr ateg
Ġch o
Ġst ruct
ject s
con om
ord ing
Ġcomp ut
Ġb us
Ġd r
Ġt est
it ing
ar th
r ist
Ġprov ide
Ġimp act
Ġu nt
iqu es
ĠR es
et imes
Ġlar ge
Ġloc al
ut ions
er t
en cy
Ġd irect
Ġadd ress
Ġe ver
id s
Ġdis e
ist ic
il ar
Ġresp ons
Ġtra dition
ivers ity
Ġ 7
ĠE ng
Ġh ome
Ġm ark
r an
ir c
t on
d e
ot e
Ġpro per
a pp
Ġe l
as c
ĠD e
Ġme as
Ġcom b
Ġhe re
Ġde v
Ġvar i
Ġca us
Ġc ell
sel ves
Ġsci ent
v iew
Ġc ertain
d er
as on
Ġl ist
led ge
Ġto p
Ġinf lu
Ġprodu ct
Ġb ro
he re
c er
Ġres ources
Ġlangu age
ra y
' re
Ġp ain
ĠS h
Ġse em
00 0
u ro
Ġdes c
as ing
ot s
Ġf uture
Ġcont rol
ĠS e
Ġor ig
at s
Ġd ra
ac es
Ġe arly
Ġ .
Ġt er
Ġem b
Ġl im
os ed
Ġj our
Ġcommun ity
N ow
cl usion
Ġtoward s
Ġpr in
ict ion
ĠA t
ĠP l
ress ion
Ġthrough out
Ġmain tain
ne y
Th is
ib r
Ġapp lic
Ġprog ram
pport un
| |
p ut
Ġre le
ĠThe re
end ing
Ġas pect
ou th
Ġn atural
Ġspec ies
Ġre st
Ġe as
Ġb est
Ġb i
Ġchalleng es
Ġp ress
Ġl and
Ġare a
id ence
Ġcom e
Ġto day
Ġstr ong
hip s
a j
Ġf ore
Ġb as
Ġas soci
ĠO ne
our ce
Ġfe w
Ġare as
Ġ ill
Ġcharact er
am es
Ġw ays
Ġst ory
pl oy
e xt
oo ks
Ġ es
Ġ 8
b r
m e
Ġiss ues
Ġpol it
s y
Ġn on
Ġaff ect
ĠW ith
p ort
Ġfollow ing
Ġt ry
Ġm il
Ġne cess
Ġben ef
Ġh y
Ġprot ect
Ġst ories
Ġs elf
Ġact iv
Ġo pportun
ar c
Ġex ist
Ġinter n
Ġper iod
Ġe conom
id d
id es
Ġsim ilar
Ġav ail
ib ility
Ġob s
ĠCom m
Ġfriend s
Ġinv est
Ġunt il
in ating
Ġst ep
. âĢĿ
Ġt imes
od e
Ġke y
m an
i um
Ġw omen
Ġmod ern
Ġocc ur
Ġsk ills
le ction
t ers
iss ion
Ġsec ond
Ġconc ern
Ġbeh av
Ġexperien ces
if ied
s ide
Ġrel ig
Ġo ld
Ġan t
ĠCh rist
w ork
en ces
Ġc al
ain ed
g es
Ġcol lect
Ġyou ng
a ut
Ġf re
Ġwor ks
op h
Ġlit er
Ġcol l
os p
Ġpol ic
Ġsome one
Ġcommun ities
Ġtechn iques
Ġa ir
Ġs ince
Ġs ound
or ld
pt ion
nder stand
Ġsp ace
Ġbus iness
Ġtechn ology
Ġevery one
Ġprof ess
Ġgl ob
Ġpat tern
Ġe t
th ing
ĠO r
ĠC an
op e
l ished
ab les
Ġ $
ĠWh at
Ġval u
Ġv iew
.. .
m at
Ġm ov
f or
Ġde ep
ap s
Ġexper ience
Ġp ast
ĠC ol
at ures
ate ly
Ġf ost
Ġc ourse
k ed
Ġin n
y n
er al
Ġl ast
Ġknow ledge
Ġ19 9
Ġgrow th
Ġrec ogn
2 0
por ary
Ġris k
I I
ly ing
Ġk ind
Ġest ab
Ġ 9
ac y
Ġperson al
Ġm ind
Ġres pect
ful ly
b y
Ġin it
ap t
Ġ er
Ġcon ditions
Ġexpl oring
Ġreg ard
c ome
Ġl ow
Ġlit tle
S ection
in ary
an ced
Ġ Q
ĠTh rough
: **
am p
Ġha ving
Ġquest ions
Ġc ase
ci ent
T o
pe cial
Ġdet erm
Ġty pe
Ġpo int
Ġc r
ĠC l
or th
Ġal ways
Ġsu gg
Ġt ri
Ġeduc ation
ĠUn ited
Ġpract ices
Ġf urther
ĠT e
o id
Ġt ru
Ġs ay
Ġf ar
Ġprin ci
Ġn ature
Ġne xt
Ġn ame
Ġpre vent
Ġcontin u
th ough
f ace
le ment
om es
Ġbl ood
re am
Ġavail able
Ġh ard
re ci
ĠS ome
Ġtyp es
Ġc ru
Ġcult ural
ĠP h
at ors
Ġ [
Ġr un
Ġhe art
in king
Ġrep ort
on es
Ġre ce
Ġp red
Ġapp ear
Ġgrou ps
ore d
Ġbe gin
o le
Ġind ust
Ġlevel s
Ġposs ible
`` `
Ġens ure
Ġhistor ical
i res
o f
Ġv ol
uro pe
ill ed
ĠB e
on st
Ġm ill
Ġtradition al
Ġc irc
ic ult
ell ing
u g
p ts
Ġint eg
Ġsom etimes
at ch
ul es
Ġdise ase
Ġem ot
Ġwor king
Ġ 0
es ts
ĠA f
Ġpro p
' ll
Ġapp reci
Ġne ar
Ġl ine
Ġinst ance
er y
Ġsh are
c hes
r ing
Ġc ost
is c
se qu
ul ations
Ġb ir
Ġwor ds
Ġenc oura
Ġun it
ab ly
u se
Ġf asc
Ġinter act
1 0
an k
Ġem erg
pl ic
nderstand ing
c ap
n ces
or por
ut es
Ġwhe ther
ĠIn st
A l
ar l
ĠG od
Ġpr im
ac hes
Ġproble ms
Ġf und
Ġm akes
Ġhe ad
oo king
ar ies
em porary
Ġs ing
Ġm ot
Ġvalu able
Ġs w
Ġd ig
Ġen h
ĠL et
Ġg r
Ġfam il
Ġh ig
ĠE urope
ch ie
Ġadd ition
end ed
Ġpartic ip
Ġaw ay
f ort
th s
et ic
ĠUn iversity
Ġs ays
Ġto ols
i k
Ġcrit ical
Ġl iving
Ġhelp s
om m
Ġneed s
Ġem p
Ġf ree
v al
Ġn et
Ġp ie
er c
Ġcur rent
) :
Ch apter
Ġg iven
Ġte am
Ġcre ating
Ġsci ence
an e
Ġinn ov
Ġins p
aj or
in ts
Ġl ives
our s
Ġper cent
it her
Ġcl ose
en ing
Ġf low
Ġchang es
is ing
Ġallow s
g en
av es
Ġmus ic
Ġh old
g ing
are n
Ġimpro ve
A n
av or
Ġra d
ĠSt ates
s p
Ġpract ice
rodu ction
i ver
o x
Ġinst ead
## #
Ġassoci ated
Ġpl ant
ys is
Ġthough t
Ġmaterial s
th on
Ġw ar
ĠO n
is ed
j oy
Ġb ook
ap er
Ġsim ple
p ite
Ġcom es
Ġs ens
Ġev ents
Ġp ost
Ġcons um
Ġcru cial
al es
Ġg round
Ġb ig
Ġdi verse
Ġme et
i pp
Ġem ploy
Ġsh ort
I m
Ġactiv ities
Ġrese arc
Ġcount ry
Ġcent ury
Ġbuild ing
at or
Ġgovern ment
Ġproble m
Ġf our
ch an
ĠI nt
Ġval ue
Ġauth or
Ġf il
St ep
Ġfact ors
sy ch
Ġ Z
al ing
Ġsur round
in a
Ġe y
Ġthem selves
Ġrem ember
Ġl ater
Ġgo ing
Ġsit u
Ġrequ ire
Ġa ge
Ġsy m
on t
Ġmod el
Ġval ues
ol l
Ġen ough
Ġmethod s
us h
Ġr ather
ast er
Ġp ut
ific ation
Ġbec ame
ra ms
Ġy et
Ġmem bers
Ġa chie
Ġex c
Ġa im
Ġw ind
ic ient
ĠC ent
ĠM ed
Ġres ults
y ond
ĠA ll
Ġon line
Ġcomp on
Ġele ments
ĠA pp
Ġpro ject
in ist
Ġsoci ety
Ġphys ical
, âĢĿ
Ġc ause
Ġfasc inating
Ġl ay
l ight
oc u
Ġjour ney
Ġman agement
Ġf ig
w h
Ġw ond
Ġglob al
Ġar g
Ġm en
en ed
av ig
one y
Ġanim als
Ġyour self
Ġtreat ment
Ġ1 5
a f
Ġdet ail
g o
l t
Ġen joy
Ġref lect
le t
Ġsu st
Ġpop ular
imate ly
e e
Ġm ajor
Ġcon cept
ĠWh ile
ove red
Ġstrateg ies
w are
pecial ly
ir it
Ġcommun ication
oh n
Ġob ject
Ġab le
is es
O ne
Ġl ands
Ġopportun ities
Ġgu id
Ġph ot
Ġcoll abor
Ġg ive
Ġcult ure
n ot
Ġch apter
Ġcount ries
** :
Ġrec ord
Ġf ield
Ġl o
I t
Ġsu per
Ġmean ing
Ġdesc rib
Ġstud ies
Ġcont ain
Ġdiff icult
g ed
m it
at ory
i os
du ct
Ġm ach
ure d
o res
Ġh arm
Ġc ust
Ġincre asing
ĠA m
Ġv ir
Ġpattern s
Ġbe aut
ĠM ay
at ic
Ġwe e
Ġf ull
Ġn orm
Ġle ft
ach ing
1 2
er ous
Ġb al
Ġ1 7
ĠAf ric
Ġoff er
Ġar ch
ren g
Ġcap t
w w
Ġaspect s
Ġinc orpor
ĠâĢ Ķ
ere nce
le x
Ġserv ices
Ġj o
ĠD es
Ġs ide
Ġor der
Ġobs erv
ol ic
an n
Ġar r
Ġexp ress
Ġresearc hers
Ġn ar
Ġtem per
ĠS he
Ġdo ct
Ġne ver
ĠU nderstanding
ip s
ĠSt ud
l ike
her n
Ġpl ants
Ġ z
ĠM ore
v ious
Ġanal y
Ġes pecially
Ġsu m
Ġus ually
Ġret urn
is ions
iz ations
Wh at
r ate
ĠS y
Ġ1 2
Ġcont emporary
ĠW orld
it es
ct ions
ĠS c
Ġacc ording
Ġpar ts
Ġsu re
Ġimp lement
1 8
Ġe th
Ġsur face
Ġpolit ical
re l
Ġex pect
iv il
ru ction
Ġhow ever
ic le
Ġquest ion
ĠE m
Ġl ove
Ġon ce
Ġtrans form
at ives
ĠH ist
Ġprovid es
Ġbe yond
o on
Ġev ent
ĠHe alth
ur b
Ġnecess ary
Ġm ess
ĠN ational
au gh
Ġpos itive
m a
Ġpers pect
Ġenvironment al
Ġa ction
Ġqu ick
ĠCon t
Ġst reng
Ġbro ad
Ġd om
Ġte xt
Ġbehav ior
on y
Ġcomple te
un e
Ġfor ms
m ing
Ġsugg est
he t
ed i
olog ies
m y
Ġcell s
Ġd am
ĠW ar
o ot
Ġdem onst
Ġover all
Ġc ame
Ġm om
Ġeng ine
Ġhig her
c le
Ġso ft
Ġmult ip
W e
Ġb ar
Ġimport ance
ric t
Ġcontin ue
Ġsust ain
Ġeff orts
r im
Ġb rain
Ġqu ality
Ġprom ot
ic ial
Ġsu n
Ġsing le
Ġr ange
Ġcol or
Ġf a
Ġlead ing
Ġcont ext
p ro
Ġr ights
z e
ak en
Ġg e
Ġcons ist
Ġsc en
Ġc y
Ġrem ain
al f
Ġd ays
Ġ1 6
Ġdist rib
Ġfre qu
Ġcre ated
en n
m ore
Ġdra w
c ies
s h
Ġmin im
i ation
ĠM an
ear ch
av ing
Ġneed ed
Ġne g
in ally
Ġc ut
Ġt erm
om an
Ġme chan
n ers
Ġl ive
od ay
er ve
ĠJ ohn
Ġco ol
Ġt ell
Ġappro ach
iv al
il t
ĠE arth
end er
Ġp ort
a im
Ġthe ra
H ow
Ġc ra
ast e
Ġins ights
em s
ĠC ons
Ġrelations hips
e y
p os
im ent
Ġb at
ĠW ell
Ġprodu ction
h old
Ġc e
it ud
Ġre d
ed s
ĠS im
le y
ĠG en
ro ll
Ġst at
Ġmed ical
Ġpress ure
Ġ --
ep end
F or
Ġvis ual
Ġcomput er
Ġa ud
ig en
Ġab ove
aren ts
f act
Ġident ify
ar get
Ġbe gan
Im agine
Ġent ire
Ġcontrib ute
Ġev idence
Ġbre ak
Ġide a
Ġsaf e
s w
Ġsub st
ĠA fter
g round
or ks
Ġcomp et
S o
ĠB l
Ġeffect s
i ol
an cing
i et
Ġ vers
Ġab s
Ġtra vel
Ġp ath
Ġconnect ions
ic ate
Ġte ac
ir ing
Ġbr ing
Ġs at
yn am
l er
Ġd ocu
Ġt aking
âĢ ľ
Ġbeh ind
B y
Ġpat ients
Ġse en
Ġinvol ves
f ect
end s
is on
am ed
Ġsym pt
Ġprinci ples
ĠB rit
Ġatt ention
Ġmed ic
b ased
e per
Ġs ense
Ġn ut
id ed
Ġst y
Ġcon ce
c are
am ple
Ġregard ing
l ands
Ġon es
Ġu t
Ġmark et
Ġn avig
f s
ph as
ĠM e
Ġe c
Ġf em
Ġmultip le
k now
dition ally
5 0
Ġd ive
Ġst ay
C on
Ġanal ysis
Ġp sych
Ġcle ar
Ġc ity
Ġm or
ur s
Ġex erc
Ġal tern
el come
ĠU S
oun ter
r ated
v olution
ur ity
le ep
Ġstart ed
is ms
Ġfe atures
Ġm ental
Ġhum ans
Ġdesign ed
Ġh ouse
il it
Ġmat ter
Ġincre ased
Ġide as
in ct
Ġsm o
Ġche m
m ost
ist ance
Ġsh ared
ne w
idd le
Ġo il
Ġprog rams
ograph y
Ġs ources
Ġst ru
ir d
Ġsu ff
ĠY our
Ġm ass
Ġn ational
Ġhe av
Ġacc ount
al u
Ġe ither
Ġincre ase
B ut
Ġwho le
Ġeffect ive
ail y
Ġthe ory
Ġpr iv
p ly
ul ate
Ġpop ulation
ow s
ĠS u
em ember
ag ed
ĠAmeric a
Ġparticular ly
an cial
Ġde eper
ver age
ĠM ar
Ġrelig ious
E x
Ġc ases
ic ro
os ing
Ġpower ful
et er
ĠJ ust
p ri
Ġim agine
Ġdisc over
h ood
Ġad m
l o
p id
Ġh ab
Ġp aper
Ġm oney
Ġc ode
Ġreg ular
Ġpolic y
Ġcl imate
Ġl oss
Ġf avor
un g
Ġprocess es
ot t
Ġde ath
Ġse lect
Ġcomm it
Ġp ict
Ġde b
Ġpre f
h ing
ist ics
Ġoff ers
hen s
t t
Ġl ed
Ġse par
Ġevery thing
Ġth inking
Ġw a
Ġse x
Ġb ooks
Ġpro b
Ġp ub
if ically
ru g
Ġopt im
ĠG erm
Ġ ver
ĠG u
Ġcan cer
ri ed
Ġex act
ci ence
Ġgreat er
Ġtru e
u ra
Ġt arget
as k
Ġprovid ing
Ġl ower
ĠR ep
r ig
ur ch
ĠT ra
Ġre ally
s c
Ġf ace
ĠC al
Ġint rodu
Ġdo ing
Ġ19 8
read y
u le
' ve
ĠL e
vent ion
Ġg reen
Ġsaf ety
Ġrele v
Ġde g
Ġab ility
ri pt
h ib
p es
Ġgener al
ĠEng lish
Ġb ra
Ġbenef its
Ġtra ining
ous ly
Ġdec ision
Ġperform ance
Ġf arm
st er
Ġwor d
Ġtoo k
p re
Ġf all
Ġact ivity
pl ay
Ġread ing
Ġdig ital
Ġo pp
Ġan cient
ĠD r
Ġscient ists
el t
Ġmill ion
il os
ut h
Ġproduct s
Ġlands cap
Ġlearn ed
Ġext ra
i ar
Ġad apt
Ġst ates
Ġreg ion
Ġs ource
Ġan n
Ġd est
Ġre act
Ġl ab
Ġsp irit
re g
The re
Ġle ast
Ġter ms
d om
are nt
Ġappro pri
Ġinvol ved
Ġapplic ations
Ġlike ly
Ġsympt oms
Ġout side
Ġlead ers
Ġd ynam
Ġrequ ires
Ġ X
Ġg ain
n al
Ġp ay
Ġprovid ed
Ġeconom ic
u el
Ġprodu ce
Ġins ide
Ġaw are
ĠA ct
Ġfl u
ĠG e
a e
Ġcharact ers
Ġgrow ing
Ġit self
---------------- ----------------
Ġinit ial
Ġal ready
Ġt akes
Ġav oid
Ġprog ress
ol es
Ã ©
Ġsoci et
Ġd aily
erv ation
Ġmed ia
ac ks
ov ed
Ġt aken
Ġd iv
Ġl ibr
Ġhe at
op s
ĠAd ditionally
Ġcompon ents
Ġad vent
Ġschool s
ut ed
ĠO ver
ĠIn tern
Ġre ve
L et
Ġb ound
ra st
Ġshap e
Ġst e
Ġem phas
ar ily
Ġredu ce
_ _
ac hed
Ġhealth y
I f
ron t
c hed
m ed
Ġre pl
od ies
ĠC o
Ġs al
Ġrec ent
Ġm ag
Ġw ide
Ġf ail
b or
o int
nd s
Ġfamil ies
ĠF rom
Ġf ram
ĠCan ad
Ġarg u
Ġre ef
ac ed
Ġre ason
Ġcust om
Ġw al
Ġrem ains
Ġconce pts
? "
Ġdevelop ed
Ġsurround ing
Ġw ild
Ġp arents
re ct
Ġs ize
Ġallow ing
r ans
he l
Ġrel ated
Ġset t
if ul
ĠD ep
ult ural
ri or
rough t
Ġstruct ure
Ġsy mb
l am
Ġf ive
Ġev alu
Ġr ate
ĠJ ew
Ġdevelop ing
Ġpo ints
Ġstruct ures
Ġce le
igen ous
e ed
Ġw arm
Ġbec omes
Ġcon vers
y ing
Ġnum bers
W hen
Ġan sw
ĠP re
Ġr ich
ĠIm agine
Ġfin ancial
en ge
es tern
Ġst ress
ĠR eg
Ġliter ature
Ġ x
on se
it le
Ġdis ord
Ġstep s
ve re
Ġconf lic
Ġens uring
w ay
Ġstru gg
ĠT oday
Ġsh aring
Ġmove ment
Ġr ules
Ġass ess
um b
Ġcomp re
ib er
Ġdi agn
Ġ |
ĠN o
om ing
Ġpos ition
or ation
Ġpl at
Ġh alf
b re
o es
ĠM any
Ġtal k
ĠS ec
ter m
ĠP e
art ment
ad em
o ber
Ġ rou
if t
Ġinflu ence
Ġact ually
Ġun c
Ġe arl
Ġconcern s
Ġ *
Ġintern ational
Ġf ish
oun ts
Ġs leep
Ġl ate
Ġsim ply
Ġf ire
res h
Ġno vel
Ġrespons ible
Ġindust ry
Ġ19 7
1 1
ĠF urther
am ples
Ġcle an
Ġinvest ig
ĠH is
ĠâĢ ĺ
Ġth reat
il s
Ġinst it
b on
2 00
Ġident ity
Ġim age
Ġvis it
Ġmeas ure
Ġrequ ired
o very
Ġs qu
Ġcon duct
Ġv iol
ĠN ow
Ġc at
ci ous
m on
Ġ ri
Ġpre vious
row n
d en
Ġg ame
Ġcon clusion
Ġ1 4
ĠRes earch
iel ds
Ġn amed
Ġse a
W elcome
Ġs ent
Ġc ross
Ġsp read
Ġpre p
Ġeng aging
Ġdel ve
Ġorgan izations
Ġis n
Ġestab lish
ic les
Ġshow s
Ġser ve
Ġachie ve
Ġth r
Ġdoes n
Ġscient ific
it ect
j ust
Ġbl ack
Ġdist inct
Ġs low
ĠP er
ĠR ec
A S
Ġcan not
Ġsignificant ly
Ġh ours
ast ic
Ġnum erous
in y
t al
Ġwrit ten
Ġorig inal
. )
a i
Ġl og
ef ore
Ġquick ly
Ġprim ary
w ide
r or
Ġwh ite
os is
ĠE ach
uc k
i am
Ġam ount
ide red
m ber
3 0
our t
Ġc it
Ġel se
an ks
iz es
Ġserv ice
Ġj ob
ath y
Ġd rug
Ġsuccess ful
b o
ĠS outh
Ġmon it
Ġob jects
Ġbeaut iful
du c
Ġpro te
Ġto wn
l ife
w here
Ġas ked
Ġus es
Ġind epend
ĠN orth
ic ien
e qu
Ġsur v
Ġu lt
Ġhe ard
Ġcomp an
Ġper fect
ens ive
h aps
he mat
Ġf illed
Ġinst all
Ġbas ic
Ġc ore
Ġre view
ap an
Ġinclud es
Ġchall enge
n ection
in ated
vers ity
Ġemb ra
t ies
it ch
Ġw in
Ġb reat
Ġ ing
Ġd one
Ġev olution
Ġtr ust
Ġcult ures
Al ice
Ġl a
ĠA b
ĠH ar
Ġcons idered
I V
Ġw ood
Ġb ur
Ġcontinu ed
Ġs ite
âĢ ĵ
Ġc ivil
ĠP r
Ġac cept
Ġsk in
Ġcomp ared
ra d
Ġve get
Ġl ines
I nt
ch ol
ĠP art
Ġag o
l s
Ġg as
Ġfe ed
Ġpre c
Ġ3 0
Ġdec isions
Ġbu ilt
ĠH er
Ġbelie ve
ens ion
ĠU s
Ġtry ing
Ġdec ided
Ġill ust
es e
Ġpl ays
Ġe arth
ad es
Ġv ide
r s
Ġfost ering
ell ow
s u
ĠCom p
Ġmach ine
/ /
Ġu nd
Ġcon dition
Ġcol le
ĠTe chn
ĠA cc
Ġwrit ing
um e
Ġact ive
Ġwee k
ĠMore over
Ġinc l
r ating
he ad
Ġf air
Ġexact ly
Ġro b
Ġrel ative
ĠAr t
1 5
= =
Ġf iction
Ġart ists
Ġprom ote
ill ing
Ġk ids
Ġdiffere nces
it able
N A
il arly
Ġget ting
1 7
Ġth ing
ĠS chool
Ġne igh
Ġpro jects
act er
it ary
Ġcont act
Ġmaintain ing
en cies
ve y
Ġstand ard
Ġplat form
ron ic
h y
Ġmon ths
p ret
Ġad op
Ġcal c
it ation
ĠFurther more
Ġh ands
Ġbe low
Ġwe bs
ĠUn it
Ġchalleng ing
um p
all s
ĠN e
Ġestab lished
Ġref ers
Ġcl aim
Ġf it
Ġal most
Ġrec omm
ĠSt ate
Ġresp onse
ĠChrist ian
go ing
E R
Ġv o
Ġsol utions
1 6
ĠA g
ĠJ apan
Ġperspect ives
1 3
Ġread ers
Ġf ru
Ġrelations hip
a ff
er ation
ĠC ar
Ġph ilos
Ġa st
Ġapp l
B ob
al y
il le
ĠThe ir
et ry
or g
Ġm ix
Ġtra ditions
Ġless ons
Ġeas y
ĠY ork
Ġeng age
w ise
Ġc amp
Ġwe ight
Ġ1 3
Ġauth ors
ĠW all
ĠR emember
Ġinvol ve
Ġra pid
Ġcele br
v est
Ġs ection
Ġact ions
Ġspec ifically
Ġbal ance
Ġim ag
Ġev ol
Ġeffect ively
Ġtemper ature
Ġim ages
Ġhealth care
Ġref er
ĠIn ter
ren ch
in c
Ġ +
ĠP y
Ġl ooking
ers on
ur ies
Ġdi et
re me
Ġf ul
Ġl at
ĠQ u
plic ations
r ight
Ġcom fort
Ġappro aches
Ġn ight
ĠS cience
Ġco ast
icien cy
Ġmod els
Ġco ver
Ġdisc overed
Ġcaus ed
Ġappreci ate
Ġappropri ate
Ġiss ue
Ġpat ient
Ġto ol
pp ing
Ġarch itect
ur t
pp ed
Ġmem ory
com es
ĠDe velop
Ġsoft ware
Ġm agn
Ġexam ples
Ġser ies
Ġchem ical
Ġpromot ing
Ġst ra
Ġgener ations
rat ives
ĠBrit ish
Ġf resh
Ġh ope
ac c
Ġcomp any
Ġtechn ologies
u fact
Ġshap ing
Ġpred ict
Ġaddition al
Ġfavor ite
Ġearl ier
p ose
pp er
ough t
Ġp ack
Ġstud ent
eng th
Ġleg al
Ġpub lished
Ġoff icial
Ġc op
Ġche ck
Ġprofess ion
Y ou
Ġopt ions
Ġint ric
Ġlaw s
Ġpie ce
Ġeff icient
Ġris ks
s et
ere nces
Ġdam age
d ing
e b
Ġre ach
Ġind ic
az ing
el ines
E S
Ġm ount
Ġl if
id ge
Ġor d
Ġse ason
Ġfun ctions
re w
ed eral
itud e
A t
Ġqu ite
Ġanim al
ash ing
Ġc am
it ute
Ġex ce
Ġso il
res ents
: //
ĠN ot
Ġlar ger
A C
ad s
Ġqu ant
H ave
ing u
Ġpol l
Ġd ed
Ġrelev ant
Ġm ention
Ġdet ect
ĠAl though
Ġdocu ment
Ġpl aces
Ġspe ak
Ġlong er
Ġdoct or
Ġh or
ĠM od
ĠEx pl
Ġconst ruct
Ġfore st
t ime
ĠEurope an
Ġm is
Ġfor ward
uc le
Ġadv ance
c he
py thon
o k
o or
Ġwh ose
ĠK e
Ġequ ip
b it
Ġ i
Ġl ink
ell ig
Ġsustain able
Ġas k
ĠA ust
ĠD is
Ġa p
Ġpro ced
Ġfe et
Ġapplic ation
Ġnet work
ab ilities
Ġv ital
ci pl
Ġfood s
Ġelect ric
ĠComm un
Ġso on
Ġfund am
Ġp rior
Con clusion
u ff
Ġrep resents
Ġimm edi
C ourse
Ġinc red
Ġexam ining
Ġlim ited
Ġout comes
Ġdes pite
Ġwant ed
Ġr ates
Ġres il
Ġs ix
ĠF l
Ġte ach
Ġey es
Ġinterest ing
Ġs ect
ment al
Ġag ree
Ġt ax
Ġb rought
ul ated
Ġplay ing
Ġnar ratives
Ġapp e
g y
Ġl ived
Ġh on
Ġs il
Ġp le
ĠD uring
Ġpolic ies
Ġnorm al
Ġdev ices
Ġb odies
Ġg ender
Ġcit iz
Ġcol on
Ġ ir
in ate
Ġsignific ance
Ġadm inist
z ing
Ġfa ith
Ġdistrib ution
m ar
ce an
Ġfor ce
Ġtrans port
Ġcor rect
Ġvir t
g ar
os ure
ĠF rench
Ġcont ent
Ġback ground
Ġsound s
Ġd ial
Ġro om
Ġsa w
" .
in ks
ri al
it er
Ġcon sequ
Ġthem es
Ġatt em
Ġfeel ings
o ly
Ġit ems
Ġse arch
Ġlangu ages
Ġdetail s
Ġst ri
Ġpar am
Ġfac ilit
Ġtyp ically
if orn
Ġan g
ĠO ur
ie f
Ġcon nection
Ġa verage
Ġart icle
Ġcompre hens
Ġc ateg
Ġd at
Ġth us
ac ity
Ġmeas ures
Ġinit i
Ġal g
Ġacc ur
re ed
tt p
Ġst ar
Ġres id
Ġgra ph
A R
Ġh ot
Ġexam ine
Ġfind ing
Ġs n
Ġth ous
as ks
im ens
ĠC O
Ġex cept
Ġloc ation
Ġmat hemat
Ġf at
Ġf ra
ĠE duc
Ġprot ection
Ġw atch
m aking
Ġs ac
Ġfac ed
Ġto tal
Ġadv anced
Ġcaus es
Ġet c
at t
Ġinter pret
Ġthough ts
Ġincreasing ly
Ġincorpor ating
ult ure
Ġexpl ain
Ġgener ally
ou d
ab et
ĠE ast
Ġe p
as ons
Ġon going
ĠP res
Ġacc om
Ġcho ose
Ġt able
Ġn ation
Ġg ot
Ġcreat ive
Ġin put
Ġag ric
Ġinvol ving
Ġman ufact
Ġdi versity
Ġs chol
Ġsec urity
iforn ia
il es
Ġ1 1
Ġ19 6
ĠG l
ang ing
Ġtra de
Ġexp and
Ġgra d
Ġexerc ise
Ġex ch
Ġdid n
Ġin j
Ġmil itary
h a
Ġse qu
Ġinclud ed
ĠCent er
Ġaltern ative
A nd
Ġd ang
Ġc ard
Ġh ar
Ġexist ing
Ġcollabor ation
Ġb ase
Ġv ia
Ġgo als
Ġresp ond
c ks
Ġg ames
Ġsol id
Ġbelie fs
Ġprofess ional
Ġw ent
Ġdiffere nce
r ong
Ġadv oc
Ġbusiness es
Ġpie ces
u ild
Ġf ile
ound s
Ġhelp ing
ios ity
ĠAfric an
y l
Ġf oot
Ġl ot
Ġgo al
Ġcar bon
over n
Ġtop ics
Ġ19 4
ĠC ur
Ġwe ather
um an
Ġad ults
ib ilities
Ġing red
Ġadd ed
s on
Ġf ight
Ġcent ral
ax im
Ġfor ces
ag er
Ġtre es
ole c
b ack
Ġ1 00
Ġworld wide
Ġenh ance
Ġp hen
Ġh ost
Ġut il
Ġg ard
Ġhe ld
ĠW ill
Ġp an
Ġf ear
Ġf elt
Ġe at
ĠP ar
os ition
Ġpart ners
Ġ5 0
Ġmove ments
w orks
Ġus ers
ify ing
ĠHist ory
i ance
Ġsee king
Ġcent er
ĠF irst
Ġaware ness
2 5
Ġt ree
le v
se ct
Ġgu ide
O nce
z z
ĠS m
Ġcar ry
Ġemot ional
ĠSy stem
Ġmom ent
Ġm ut
ir m
Ġcompan ies
! "
1 4
Ġd ou
Ġg ather
ĠC ath
ch ing
ĠF r
Ġadv ant
Ġeas ily
Ġhab it
ĠCal ifornia
Ġb ill
Ġdeterm ine
Ġsitu ation
Ġset ting
Ġd og
ĠDep artment
Ġp age
Ġfe ature
Ġaddress ing
Ġsub ject
e v
Ġcult iv
Ġ2 5
g est
Ġf ields
ĠF ran
Ġbar ri
ĠSim ilarly
c il
Ġcl in
Ġprodu ced
Ġeduc ational
Ġteac hers
ed ing
Ġdef in
Ġinnov ative
Ġsur pr
ĠPro g
ĠWall ace
on om
ra p
ur g
Ġstudy ing
iven ess
Ġcare fully
it age
ar ian
Ġm icro
Ġdem and
r ition
be ing
Ġlibr ary
Ġposs ess
Ġfem ale
id ing
ĠM y
Ġsol ar
Ġf uel
Ġour selves
Ġplan ning
Ġsitu ations
x ts
Ġh osp
Ġ /
Ġatt ack
or ith
Ġcl os
Ġper haps
Ġac qu
Ġd er
Ġequ al
Ġpop ulations
c les
ort hern
Ġcol lection
Ġdirect ly
augh t
Ġequip ment
ĠO f
Ġj ud
Ġfost er
Ġspirit ual
an cy
ĠE ven
Ġhim self
Ġemot ions
Ġlandscap e
Ġhe ar
Ġbroad er
Ġprofession als
I N
Ġo x
ro om
ĠI I
ĠG reat
Ġnew s
Ġ200 8
Ġmin utes
Ġexp ression
Ġwrit e
ic ed
Ġsmall er
I D
ĠM us
or ial
Ġapp ly
Ġhigh light
Ġvide o
Ġb it
Ġd ry
Ġd ark
Ġth ird
Ġex ec
h ab
m ission
Ġl ack
Ġse vere
Ġam azing
ĠInst ead
Ġmov ing
Ġwond er
ĠCanad a
ĠD on
oc ks
Ġpict ure
c oh
Ġwor ry
Ġres ource
Ġser ious
Ġal though
Ġinf ect
Ġsit es
et her
e ff
al ities
Ġf ront
ĠH ave
iss ions
Ġext reme
l im
he m
Ġc ro
Ġmay be
ĠCh ina
Ġoper ations
ĠR el
in o
Ġw is
( )
Ġfam ous
Ġcost s
w ater
ot ic
Ġex hib
Ġpres erv
ĠPy thon
Ġc ry
Ġcont roll
Ġredu cing
An other
out hern
ight ly
Ġbec oming
Ġac adem
Ġhapp ens
Ġlim it
Ġt ail
ĠT w
Ġro les
Ġreg ions
ashing ton
Ġl abor
Ġt ou
Ġad just
Ġcol ors
Ġbel ong
Ġsh own
Ġfind ings
Ġstand ards
Ġfig ure
Ġint ellig
Ġey e
Ġrou t
Ġre v
ĠS erv
ex ic
Ġcho ices
Ġst age
ĠR ed
Ġcomm er
Ġest im
Ġplan et
Ġbir ds
Ġfundam ental
Ġphen omen
et ers
Ġon to
Ġvari ety
use um
I S
Ġs we
ri ption
Ġte xts
ines e
Ġinflu en
nd om
ĠC ount
ĠM on
Ġneg ative
Ġthera py
Ġinterest s
Ġprob ably
t ical
Ġplay ed
und red
ĠInd ian
Ġcreat ivity
idd en
u ge
m osp
ĠA c
us ed
Ġaut om
Ġfeel ing
Ġappreci ation
Ġphilos oph
e ch
it ution
Ġpo or
Ġenviron ments
Ġre ality
ĠP ress
Ġpre par
Ġjust ice
Ġrece ive
ut ing
ĠW est
pect ed
Ġform ed
Ġencoura ge
y m
ic ated
Ġal one
ĠThe n
ĠO ther
form ation
Ġro ck
Ġchang ing
O n
Ġcon ver
ĠI d
ric es
Ġany thing
n ed
Ġc red
ĠE d
ĠCh ar
Ġcap ital
Ġw at
an a
Ġexper iment
Ġsp aces
Ġresil ience
Ġcitiz ens
Ġse lection
Ġmil es
Ġt en
Ġd en
Ġsp orts
i ers
ul a
Ġv ast
ĠJ u
Ġtechn ique
Ġinform ed
Ġproper ties
al le
or ical
us ive
Ġpe ace
app y
Ġhelp ed
Ġrem ind
Ġbenef it
Ġdis play
ond s
Ġt iss
re et
us es
os y
Ġoff ering
Ġemp athy
Ġm axim
Ġgen etic
Ġloc ated
urb an
Ġt ap
ĠO ff
Ġincred ible
Ġt ests
Ġf inal
Ġm iddle
Ġte aching
for ce
Ġm other
Ġdiscuss ions
f er
ĠE l
Ġ2 4
Ġinst ru
Ġcap acity
Ġ201 1
Ġproper ty
Ġt asks
om etimes
ra el
Ġorgan ization
Ġresult ing
Ġclose ly
Ġl ength
ĠAfric a
Ġn ucle
ĠT rans
ĠM r
tern al
Ġ200 9
air s
Ġaim ed
Ġsett ings
Ġw aste
ru pt
Ġwork ed
Ġexp osure
Ġcap able
Ġdescrib ed
Ġv ict
Ġt im
Ġ201 2
know n
Ġalg orith
H e
ant ly
Ġc ounter
A T
Ġle aves
Ġrec ently
Ġturn ed
ĠW ashington
Ġm olec
res p
Ġsh all
U n
i able
Ġgo es
Ġcor al
Ġimpro ved
Ġsociet al
ĠG ree
Ġe gg
ri ef
Ġget s
Ġredu ced
Ġreport ed
Ġscen ar
ĠA lex
ĠJ our
Ġcur iosity
Int roduction
Ġt end
Ġh ous
ra ft
Ġeff ort
Ġ201 0
Ġmedic ine
Ġsex ual
Ġp en
am b
The se
Ġfram ew
i ra
ic ip
ĠG ra
Ġreg ional
Ġsmo oth
ĠM exic
Ġe ating
ĠIn c
ĠSo ci
oura ge
Ġf ast
ĠCon f
Ġhy p
ĠGerm an
Ġadvent ure
Ġintric ate
Ġare n
ud d
Ġseem s
ĠJew ish
Ġr ise
ĠAmeric ans
ro te
Ġcharacter istics
ĠM at
k y
Ġst ore
Ġ ice
Ġj u
Ġserv es
Ġrece ived
Ġpriv ate
Ġto ld
Ġre ci
Ġdev ice
Ġrelig ion
on ic
am in
olog ists
ĠCh inese
Ġfig ures
Ġmention ed
ing ly
Ġm id
am il
ib ly
Ġcirc um
abet es
Ġb ad
Ġl ost
ĠI ts
ĠL ear
Ġhy d
Ġansw er
l ation
ĠTh ink
Ġun f
Ġup d
od es
Ġcaus ing
Ġde ad
Ġens ures
Wh ile
Ġtest ing
r ical
Ġdise ases
ward s
ĠIs rael
ĠP ol
ĠO nce
Ġob tain
Ġfollow ed
Ġaffect ed
Ġbehav i
Ġh undred
ak ers
ĠAust ral
O N
Ġbo x
Ġs old
Ġus er
Ġpl ot
Ġcomm and
Ġfre ed
r ative
Ġat mosp
Ġmess age
Ġman age
Ġra in
Ġcre ation
Ġexper t
ĠR uss
og ue
Ġdist ance
ger y
Ġh om
Ġen ab
ĠJ es
Ġexperien ced
or ough
Ġm ere
vent ions
Ġnavig ate
ĠPe ople
B efore
Ġc ou
Ġtra ck
ĠInd ia
ĠCath olic
H ere
Ġp ow
Ġany one
Ġsupp ly
Ġrequire ments
Ġb ott
Ġra ce
Ġconc ent
Ġve h
ww w
Ġread y
Ġpass ed
c an
ĠIntern ational
W ith
a ul
b al
ĠO ct
Ġpur pose
Ġopportun ity
I C
Ġc ook
an ish
Ġg iving
ĠD o
Ġout put
an u
Ġbegin ning
Ġingred ients
c o
Ġen able
ĠK ing
Ġinstit utions
Ġconsequ ences
ĠS ar
Ġfocus ed
Ġfrequ ently
gy pt
A N
Ġv ary
ĠCh urch
Ġtr uth
ĠAcc ording
re es
Ġplatform s
Â °
Ġr ule
Ġent er
ĠAr ch
Ġold er
Ġinnov ation
Ġ iron
ic ious
ec ause
Ġsty le
Ġex cess
se c
Ġv ibr
Ġcont ains
Ġrecord s
Ġuse ful
Ġcare ful
ĠCons ider
at ur
Ġpract ical
com p
Ġh ol
Ġne arly
Ġappro x
Ġbound aries
Ġw on
og ether
Ġbir th
Ġd ream
ĠEduc ation
w in
Ġconnect ed
Ġc and
ĠC re
Ġknow s
Ġexpl oration
Ġ4 0
Ġeth ical
el lect
-- -
Ġsc reen
Ġkeep ing
Ġs and
Ġp u
om b
ro g
Ġl ies
Ġv ill
Ġsol ution
n a
Ġb ab
Ġb orn
ĠP at
est ic
Ġbl ue
F irst
i us
Ġs outh
ul ating
Ġnot hing
r ates
Ġ urban
ri x
Ġspe ed
Ġstart ing
os es
ast s
ĠAs soci
Ġprocess ing
Ġwebs ite
n am
ĠP ract
Ġsp ect
Ġro ot
Ġdec re
Ġill ness
Ġult imately
coh ol
os a
ĠH ere
ĠEng land
Ġcollect ive
ir ation
Ġan x
ain t
ens ity
Ġsign s
ĠE gypt
Ġpl ans
Ġcol d
ĠCh ild
Ġst ream
est y
Ġass um
os en
Ġdisc rim
Ġguid ance
Ġhe ight
Ġc ourt
ĠB oth
ĠH igh
Ġallow ed
Ġeas ier
Ġful ly
i ant
ĠH appy
pl ace
i as
Ġs ou
Ġw rong
Ġun ivers
Ġhigh ly
Ġstreng t
b l
Ġatt rib
sequ ently
Ġstreng th
Ġreve al
Ġthous ands
r is
Ġt iny
Ġdep ending
Ġsepar ate
" ,
ĠD ef
ĠR iver
Ġadd ing
Ġfamil iar
in ent
Ġf ederal
ic ing
Ġh ttp
Ġthere fore
Ġrespons ibility
Ġsum mer
Ġappl ied
b all
Ġb acter
am m
ogn itive
Ġre pe
Ġatt ract
Ġrepresent ation
Ġsat is
Ġdynam ics
Ġh omes
ab ric
te red
ĠUn ion
Ġcontin ues
Ġbelie ved
Ġtre nds
Ġprote in
Ġg ir
Ġst op
Ġsu gar
Ġrecogn ize
se e
Ġeng agement
ri e
er o
Ġf ather
ĠInst itute
Ġguid elines
ĠJes us
Ġp ray
as p
Ġle ave
ĠPro t
Ġmon th
Ġpotential ly
k en
Ġe ast
Ġres istance
Ġmot ion
osy stem
ant ic
ĠR ead
Ġevent ually
ĠKe ep
Ġn ative
ĠV ir
ĠWill iam
m en
ce ed
ĠU se
ĠWh o
Ġhapp en
Ġengine ering
ĠM ost
Ġcont rast
Ġsc ale
Ġsa ve
Ġco ord
Ġrun ning
ĠInt roduction
Ġre asons
Ġwor th
Ġra re
Ġdiscuss ion
Ġmeet ing
p an
ĠA nt
ess on
Ġcom ing
Ġwe ak
Ġb urn
Ġmem ber
Ġg old
Ġwas n
Ġun ex
Th rough
Ġteac her
Ġcommer cial
A d
Ġl oved
ĠA re
Ġass ign
Ġw rote
Ġrem ark
Ġclos er
g ment
Ġn orth
uild ing
ĠEn viron
Ġattem pt
Ġat oll
Ġpo ly
ic ians
Ġh idden
Ġind igenous
Ġam id
Ġnet works
bo ard
i verse
in ations
ĠS ur
ĠD isc
Ġpr int
Ġexper im
Ġpresent ed
Ġlook ed
Ġfore ign
ter y
ĠW rit
Ġen ables
ĠR ef
ĠL at
Ġman aging
o e
u ed
he rent
Ġm ale
ĠW estern
ord s
Ġm ig
Ġal ign
Ġem ail
Ġset s
Ġoccur s
Ġt rib
Ġf ant
Ġpur ch
Ġtru ly
er a
ur ance
Ġpart y
Ġprim arily
ĠG overn
Ġcomp ar
ruct ure
Ġcent uries
Ġintern al
Ġf lex
Ġinst ruct
a res
ed ia
ren ce
Ġsee k
Ġdep end
Ġstat us
a ign
Ġle aving
ĠD ec
Ġcont ract
Ġass ist
Ġstrateg y
Ġreef s
) ;
Ġperiod s
Ġdraw ing
Ġcircum st
d ed
e es
Ġsh if
Ġrad iation
u k
le g
Ġk n
Ġra ndom
Ġmess ages
Ġconflic t
il ed
ress ive
Ġgl ass
ĠSoci ety
g n
Ġre in
Ġres olution
Ġdec l
Ġgener ate
wh ile
Ġschol ars
Ġd ivid
Ġg ained
Ġro t
Ġbu y
t a
ĠL aw
het ic
ĠD av
Ġexpl ained
Ġmeaning ful
Ġwis dom
as ion
ĠS ol
Ġpart ies
ĠG o
Ġalong side
Ġcomput ers
Ġappear s
Ġexc iting
Ġwee ks
Ġabs or
h ouse
Ġm iss
Ġn ames
ĠS am
Ġdef ined
Ġheav y
Ġc ooking
ĠA ug
ĠB ar
un ch
Ġcomplete ly
ent y
Ġk new
Ġno ise
Ġdem oc
r ich
ĠB i
og en
Ġcons ervation
he nt
il ing
Ġcur ious
Ġimpact s
e an
ent h
Ġch ance
Ġcapt iv
r ant
et ric
Ġint ellect
ĠUs ing
F inally
Ġn p
Ġro ll
Ġimpro ving
Ġs ess
Ġp ul
Ġb all
Ġbe g
Ġbl ock
Ġreal m
Ġsupp l
P A
ĠTh us
Ġvis ion
ĠSe e
ire ction
Ġconsum ption
How ever
Ġembra cing
Ġm ission
Ġl iqu
Ġbuild ings
Ġs ong
ĠS ince
Ġsec ure
Ġec osystem
4 0
ist er
Ġcreat ures
Ġliter ary
mit ted
c est
ĠT y
ot hes
ĠS w
Ġv ul
ĠB ra
Ġact ual
row s
Ġsupport ing
Ġconst ruction
Ġpro s
Ġal ike
Ġpr ice
Ġsugg ests
Ġmechan isms
y ear
Ġc ities
Ġd ram
Ġg ives
Ġis land
ĠD ay
Ġacadem ic
2 2
Ġwe b
Ġop in
Ġocc up
Ġdisord ers
O R
Ġf abric
Ġfor mer
ac ing
Ġcons id
Ġwork ers
19 9
ĠEn c
ra w
am s
Ġdeep ly
rel ated
in n
ic ism
Ġlet ters
i ety
ar a
ĠT im
Ġknow ing
ĠPro f
Ġbr an
rat ic
Ġinteract ions
Ġparticip ants
a id
o ke
Ġm er
Ġis lands
Ġch ann
pr il
Ġemerg ing
Ġprep ared
Ġdis cipl
Ġnot e
Ġcl oth
Ġac know
vent ional
Ġgra nd
Ġw oman
Ġh un
Ġter rit
Ġinsp ired
Ġcut ting
D es
Ġim plications
ĠId ent
II I
E D
ĠS ometimes
am a
Ġpl aced
Ġlet ter
Ġcor resp
ĠMed ic
P h
Ġs av
ol ute
ĠA ng
ast ing
Ġher itage
Ġcould n
Ġhapp ened
Ġpain t
Ġrecomm end
Ġexch ange
ent ed
se mb
ult ane
ish ing
Ġdisord er
Ġunex pected
Ġn u
ist ry
ĠM ark
anu ary
ĠC ong
ag o
un ately
Ġext ract
ĠAd d
Ġcho ice
. '
u ing
ot y
ĠP al
Ġfound ation
Ġident ified
Ġnut rition
Ġo cean
ĠS an
ĠC ity
Ġdi abetes
ĠAs s
Ġgener ation
ĠSe pt
ĠAm ong
Ġfreed om
M L
or ge
ĠS uch
ĠM arch
Ġsl ightly
Ġpolit ics
Ġp et
Ġis ol
ass ion
Ġeff iciency
Ġsec ret
Ġdesign s
Ġmat ters
Ġlay er
Ġb ud
Ġro ots
Ġshow ed
Ġm ob
Ġnot able
Ġserv ed
Ġchang ed
Ġ ...
Ġre volution
qu e
ac ific
ograph ic
Ġant i
' ,
c ers
Ġw it
ĠC or
Ġsur gery
ĠDes ign
Ġwin ter
Ġbehavi ors
f aces
Ġf ert
Ġd ate
ĠL ife
Ġrep orts
ipp ed
r ust
Ġ ur
Ġb ul
Ġar ray
ĠJ une
Ġman ip
Ġaccur ate
L esson
Ġt um
Ġprof ound
Ġcle arly
Ġencoura ges
Ġsty les
Ġexce ll
] ,
al t
Ġsp ent
Ġab ilities
Ġunder lying
Ġreal ized
Ġlay ers
ĠDes pite
Ġviol ence
Ġt our
Ġw aves
ĠWh y
Ġbeaut y
Ġri ver
c king
ĠP ublic
ove mber
Ġenh ancing
Ġintrodu ced
Ġnucle ar
t elling
Ġn ations
ĠWe b
Ġpres ence
oy al
Ġele ment
pos es
Ġm ap
Ġex ternal
ke y
Ġmet al
Ġpur su
Ġperspect ive
it or
Ġm ist
Ġded icated
Ġvul ner
b ook
n y
Ġth ick
ĠM c
Ġtr ig
te e
Ġsm art
Wh y
Ġmonit oring
ĠD irect
ĠU p
Ġele v
I T
o ff
Ġm o
Ġveget ables
f ord
Ġ \
al k
or age
Ġf ix
Ġe ight
ĠS er
ien ces
ĠOct ober
I s
ĠB o
Ġfact or
Ġprogram ming
lo ad
ĠPres ident
8 0
d den
ro gen
Ġ2 1
Ġco op
Ġspe ech
Ġ round
he st
Ġs em
Ġmot iv
Ġp ick
Ġth orough
ĠP ark
Ġobserv ed
Ġanaly ze
Ġintellig ence
Ġp ush
Ġform ation
Ġexpect ed
Ġvers ion
h us
Ġa id
Ġal cohol
ĠM iddle
Ġexper ts
Ġart istic
Ġemerg ed
Ġcompon ent
Ġpref er
Ġenab ling
Ġapprox imately
om as
Ġob st
Ġp rices
um n
Ġless on
Ġrele ase
Ġsymb ol
Ġprec ise
O U
as ure
Ġcom pl
Ġlead s
Ġfact s
d ef
al d
oc ol
Ġ6 0
Ġneigh bor
Ġcamp aign
A r
Ġd irection
Ġsu dden
Ġ2 2
ord er
Ġpass ion
Ġemb ark
ĠMan agement
Ġoptim al
Ġcircumst ances
Ġm ast
Ġar m
ĠSp ec
ĠBl ack
Ġv it
Ġme ant
er ate
ĠF ood
Ġsp ot
Ġa th
ol ving
ĠN um
Ġcommun icate
Ġdef ine
Ġfac ing
Ġstrong er
ĠGen eral
Ġl ens
el ine
ric k
Ġro ad
Ġreg ulations
Ġac id
Ġnear by
ĠW ater
Ġsub jects
ĠSo cial
Ġfarm ers
ce mber
ies t
ĠP acific
Ġshap es
Ġpref erences
ĠDevelop ment
Ġpreserv ing
Ġw et
Ġch urch
Ġad ult
Ġpers ist
Ġinf ection
Ġ200 7
Ġdynam ic
Ġindepend ent
Ġamid st
av ors
ov ing
Ġdeg ree
Ġas king
rou p
ĠR oman
Ġlab el
ĠJour nal
6 0
v ille
Ġa head
ĠS et
ĠR o
angu age
Ġorig in
Ġf ing
ra b
Ġshow c
ĠSp anish
ĠFr ance
Ġstrengt hen
p o
or ous
Ġdel iver
Ġcomprehens ive
se ction
Ġdis p
cept ion
Ġlist en
Ġc ognitive
ĠG reen
con t
Ġbas is
Ġproced ures
ĠProg ram
Ġvibr ant
ĠL eg
Ġwond ered
Ġcra ft
Ġsociet ies
th rop
Ġnot iced
Ġpre t
Ġtechn ological
Ġaut hent
Ġenc ounter
Ġt rou
Ġref erence
Ġclass es
Ġeconom y
h t
Ġd ri
Ġre new
Ġpre gn
Ġent hus
ĠInd igenous
ĠJapan ese
Ġvirt ual
E T
M ore
u ps
Ã ¡
ĠAl so
Ġorgan isms
Ġelectric ity
ĠAug ust
c ol
ol low
Ġch osen
Ġtal king
Ġmom ents
ĠAssoci ation
ĠS ch
Ġan cest
Ġoff ice
Ġcreat es
c op
Ġnot ice
ars h
Ġcomplex ity
ĠIs lam
Ġvo ice
ĠSar ah
re st
Ġe arn
am ent
ĠO b
ific ial
Ġspe aking
Ġimmedi ately
Ġclin ical
Ġconvers ations
Ġatmosp here
Ġint rig
Ġdep th
Ġcro ps
A fter
Ġm it
om y
Ġg ave
ĠB en
Ġdec ades
Ġtemper atures
Ġfru its
Ġstra ight
e al
p en
ĠT re
-------- ----
ĠAd v
Ġgood s
Ġcontain ing
Ġadvance ments
x ic
ar i
Ġam b
ura cy
Ġin herent
ĠM ary
ib l
ĠJ anuary
Ġwell being
Ġbo ard
Ġpur poses
Ġdoct ors
2 1
Ġp un
Ġcon v
Ġer a
Ġdial ogue
st e
ĠA D
âĢ ¢
Ġun iverse
Ġdes ired
ĠV is
Ġdisc overy
Ġexist ence
c rib
Ġf ine
ĠA pril
ĠSt ep
Ġown ers
ĠGree k
Ġremark able
Ġre ached
ĠD NA
Ġr ig
ĠN ovember
Ġtrans fer
ĠIs land
Ġimm ig
Ġrelative ly
k es
es sel
ĠA v
ĠF ound
oun cil
Ġmag ical
Ġbott om
ĠSept ember
2 9
Ġc overed
Ġp al
Ġha ir
Ġres on
Ġplay ers
Ġlar gest
Ġmov ed
u x
ff ect
Ġrapid ly
Ġiniti atives
z y
Ġp arent
Ġm al
ĠR et
Ġsim ultane
Ġpar alle
Ġ201 3
Ġfil m
Ġdocu ments
Ġpict ures
ĠCount y
Ġconsid ering
Ġde al
ang es
Ġmult i
Ġjour nal
Ġdiscrim ination
ou red
le ts
ur d
ĠT ime
ĠW ind
Ġcommon ly
Ġcomb ined
ĠJu ly
y gen
Ġs amples
ra py
ter ing
Ġleg is
Ġlist ening
$ $
' m
Ġm outh
em pl
Ġk ing
Ġprop osed
2 3
A ct
H E
b ing
Ġc ul
Ġst orm
Ġdiscuss ing
Ġsuggest ed
E C
ur ation
Ġsu s
ĠU N
ĠV al
Ġevery day
Ġseem ed
Ġvol un
Ġs ides
Ġv ent
Ġmill ions
Ġleaders hip
rast ructure
l in
ĠM ount
Ġhe aring
Ġexam ination
Ġtrans p
Ġmar g
Ġoper ating
Ġt ask
Ġf ellow
Ġg ar
ĠL ibr
Ġtrans l
Ġn orthern
Ġst aff
Ġas p
Ġins ight
ĠPl an
Ġindust rial
Ġdrug s
Ġneigh b
2 4
l or
r ors
if ies
un ction
ĠE very
Ġsh ar
Ġthere by
Ġfac ilities
Ġfin ally
Ġarchitect ure
P ro
Ġl ooks
ap h
ific ations
Ġcr is
== ==
as y
ag on
Ġcons ult
Ġincre ases
Ġposs ibilities
Ġdr ive
Ġnut ri
2 7
K ey
Ġrel ax
Ġsay ing
Ġcommit ment
Ġdeg rees
Ġmil k
Ġconflic ts
Ġb ed
ĠIn f
Ġval id
Ġimm une
Ġconsist ent
Ġdat ab
ĠD ata
Ġnot es
Ġam ounts
Ġsign als
Ġpartic les
Ġcolle ge
ĠH uman
Ġwrit ers
n ame
om a
Ġh op
ĠP ers
ĠF eb
Ġp ark
Ġb ow
ĠT ogether
ver t
th at
Ġv acc
ob al
ĠMay be
ĠEm p
Ġrob ust
S T
Ġ :
Ġn or
Ġst orage
ĠB r
Ġstrugg le
Ġintellect ual
A P
ĠB ob
Ġch ain
Ġdis app
Ġsub s
Ġsubst ant
Ġhab its
ĠRep ublic
Ġtiss ue
Ġm el
Ġcl im
Ġprom pt
ĠRe al
Ġoper ation
ĠCong ress
a ur
Ġst ro
Ġj oy
ĠK ey
Ġpract ition
ĠCon sequently
plic ated
ipp ing
w orld
Ġw arn
Ġw ave
ic it
Ġm aster
ĠF inally
ĠHist orical
Ġdemonst rate
Ġcaptiv ating
m ark
Ġs outhern
Ġc rop
ĠD ar
ĠJ ames
Ġ19 0
Ġgen es
Ġdec ide
Ġrecogn ition
Ġinsp ire
Ġfor t
ul f
Ġcomp assion
Ġar ts
Ġinter vention
Ġcare er
Ġbi ological
ĠStud y
Ġrepl ace
r ations
Ġsy nt
Ġag encies
ĠEn ergy
Ġdest ro
Ġgard en
Ġl ic
Ġse eds
ĠL ike
oc al
Ġinc ome
ĠEx amples
Ġwide ly
y d
Ġg od
ĠB udd
Ġrem ove
Ġtal es
Ġimplement ation
Ex ample
Ġhor iz
R es
pl ot
ten ance
Ġsign al
Ġtreat ments
Ġelect rical
app ing
r um
ĠH ol
Ġse ven
Ġpract icing
ĠCon st
Ġstory telling
Ġauthor ity
Ġjo in
Ġexpect ations
E N
ĠR ober
ĠO ut
Ġ2 3
Ġoff ered
Ġsol ve
ĠMed ical
Ġnavig ating
Ġcop y
Ġfacilit ate
Through out
m ic
m ary
Ġs ample
Ġth in
Ġr at
ff ic
Ġinteract ion
Ġincorpor ate
Ġfru it
Ġwat ers
Ġcorresp ond
Ġin sect
ĠD em
te xt
Th at
ven ile
Ġcurrent ly
Ġregular ly
Ġap art
ĠMexic o
st ood
ig ure
ĠC le
ĠU lt
ond on
ĠV ol
con nect
Ġpain ting
n ic
ar r
ord inary
Ġrem ained
Ġstand ing
Ġbir d
ĠIntern et
er ia
it is
Ġm ort
ĠC ap
Ġme als
Ġag g
Ġ200 6
Ġhapp y
Ġgovern ments
Ġemploy ed
Ġbill ion
Ġegg s
) )
i xt
t ion
Ġass istance
Ġaffect ing
Ġhold s
Ġb ank
ul atory
Ġad ap
Ġfe at
Ġsk ill
Ġ200 0
Ġmar ine
hold ers
A L
Ġa f
ic ian
ĠC he
Ġv essel
olog ist
Ġ200 5
Ġemerg ency
augh ter
a it
Ġt aste
Ġm ic
ĠH ouse
Ġexplore d
Ġcy cle
itud es
ĠGe orge
Ġassess ment
Ġrefer red
Ġb rief
Ġd ro
Ġwe alth
Ġcor por
Ġadv ice
ĠThere fore
Ġwa it
Ġfail ure
Ġdou b
S ome
al ysis
Ġp ages
Ġg ear
ĠS ub
ĠD i
Ġsy n
Ġconst it
Ġwa iting
Ġlandscap es
Ġhe aling
ass es
Ġph ase
Ġinf rastructure
Ġart icles
Ġfl at
ĠMod ern
ci p
Ġvari ables
Ġc ere
Ġinter view
Ġacc uracy
Ġ19 5
Ġopen ing
Ġlo ad
Ġt aught
ut ive
ĠC ivil
ĠP ower
Ġ2 6
Ġdi ed
Ġsuccess fully
ĠDe cember
ĠOr gan
Ġmach ines
m akers
it ting
Ġconcern ing
ct or
ail s
Ġsc ript
Ġrep rodu
Ġproper ly
Ġflow ers
Ġsymb ols
Ġox ygen
Ġphilosoph y
ĠS al
ri age
ĠD el
ap ers
Ġwhen ever
ĠSt r
Ġdist ingu
Ġmat rix
Ġarr ange
Ġhouse hold
Ġanx iety
at ically
if orm
Ġrepresent ed
Ġanaly zing
__ __
ĠCur rent
Ġs ought
or king
ress ed
Ġcommun ic
Ġtechn ical
Ġfocus es
Ġ ign
ĠT est
Ġst rict
Ġr ul
Ġmy ster
Ġagric ultural
M S
st ract
Ġst im
ind ing
Ġconst ant
Ġseem ingly
Ġview s
Ġemp ower
ĠStud ents
Ġcra f
Ġtou ch
Ġbacter ia
Ġst ake
ĠB ecause
ĠO h
Ġenc ount
Ġaccom pl
Ġs on
ĠW he
Ġso le
Ġserv ing
Ġdr iving
Ġmor ning
Ġann ual
Ġprevious ly
Ġtransport ation
Ġbarri ers
9 0
or row
Ġf aster
id a
Ġcon ventional
Ġhe ro
ĠF e
ĠD iv
ru ary
Ġrespons es
ĠCol le
Ġneg ot
Ġsal t
Ġprep are
ac les
Ġlead er
Ġrequ iring
Ġshow ing
Ġcontrib uting
ĠLat in
Ġmarg inal
Ġs pl
Ġy ield
ĠH IV
Ġ2 8
Ġspecial ized
ĠPh il
Ġexcell ent
C O
it ors
Ġl ots
Ġwh om
Ġinsp iration
Ġimprove ment
Ġaud iences
Ġselect ed
A ll
i ability
Ġf ib
ĠS ov
ĠE st
Ġres ist
Ġk id
Ġcall s
Ġfollow s
Ġbr ings
Ġel im
Ġkind s
Ġappear ance
Ġwal k
Ġw alls
ar ity
Ġg un
el ess
Ġr hy
act ive
ĠCh o
lic k
ov es
ĠK now
Ġhosp ital
us ing
rom e
Ġrecogn ized
ĠGerm any
Ġund ers
i i
t ra
he red
Ġs now
Ġf irm
Ġre form
ĠC are
Ġyou th
Ġwe ar
Ġman aged
Ġmin or
fort unately
Ġentire ly
Ġconvers ation
f rom
Ġother wise
Ġorgan ic
ĠSp ace
ograph ical
ĠPh ys
ĠExpl oring
Ġmut ual
Ġath let
ĠB as
Ġlearn ers
Ġcontinu ous
w est
Ġa x
Ġcons ists
Ġbr ight
Ġorgan ized
rol og
Ġextra ordinary
ĠM ich
Ġad equ
Ġprodu cing
Ġpoll ution
, '
2 6
P S
f l
h am
w ith
Ġ ic
st ream
Ġg ently
ĠT ur
Ġr ice
Ġgrow n
Ġsens itive
Ġarr ived
Ġthera p
ĠProf ess
in ter
ĠU t
ĠComm on
Ġrad io
Ġd im
ĠC am
Ġcons cious
Ġhuman ity
Ġdescrib e
Ġnorm s
Ġdang erous
c al
h and
Ġl ung
Ġhelp ful
Ġmathemat ical
Ġliqu id
Ġsubstant ial
Ġn an
ag ue
ĠP aul
pt ions
Ġmed ication
Ġmor al
ĠTw o
n orm
Ġw ise
et t
ĠM ake
ĠAn other
Ġfocus ing
Ġmix ed
w ell
Ġt ips
Ġm ent
ro ad
Ġbe ings
am ing
ĠI S
Ġsh ip
Ġmed ium
Ġparticip ate
Ġminim ize
Ġthreat s
Ġsqu are
Ġf iber
Ġg rew
Ġim pl
ĠO ld
Ġinst ances
less ly
i ology
z a
ic ks
and er
Ġimplement ing
Ġfrequ ency
Ġconduct ed
Ġprote ins
Ġsimultane ously
7 0
Ġst ret
Ġdevelop ments
Ġtre ated
Ġencoura ging
B T
g l
i ate
o ch
Ġse ed
ĠSt and
Ġinterest ed
Ġmark ed
Ġlink ed
Ġmanufact ure
m as
Ġt ens
Ġw all
Ġu pper
Ġrem ote
Ġform al
ĠIm p
Ġprotect ing
Ġwit ness
R E
Ġt it
he ast
Ġb read
ra cy
dition al
Ġed ge
Ġconf idence
Ġclass room
Ġconsum ers
in et
Ġind ex
Ġag reed
ĠRe volution
Ġcontrib utions
Ġtop ic
Ġhig hest
2 8
A D
g ra
Ġs hed
Ġunder stood
ĠEx per
Ġoccur red
wh ich
S D
h ist
r ants
Ġ ,
Ġm ath
Ġd ance
id ents
Ġen comp
Ġem issions
Ġcar ried
Ġtri ed
ĠStud ies
Ġsustain ability
s uch
u it
Ġin ner
ĠT ex
ord ers
ĠAs ia
Ġshe l
Ġrele ased
Ġer ror
Ġfil es
Ġmedic ations
Ġheav ily
Ġwal king
ĠLear ning
Ġauthent ic
w ood
Ġdis par
Ġsk y
Ġgu ess
Ġconsider ation
Ġadvant ages
ĠVir gin
* :
at ric
ĠM useum
ĠB el
Ġpat ience
Ġbelie f
Ġinflu ences
Ġaffect s
Ġneighbor hood
i j
el ing
am ily
Ġform ing
Ġconnect ing
Ġturn s
Ġbat tle
Ġbud get
re ts
Ġf oss
ar ge
ion e
Ġh uge
ĠM em
Ġwe ap
Ġinv ent
Ġident ities
Ġaff ord
Ġperform ed
Ġturn ing
Ġrecogn izing
Ġexerc ises
Ġstar ts
l ines
Ġc os
Ġre ly
ĠS k
Ġsim pl
Ġprom inent
Ġintern et
Ġexpert ise
ĠDav id
ĠM al
ĠM ain
Ġun its
Ġcomb ination
ĠMe an
Ġdeb ates
erson al
Ġpractition ers
ĠColle ge
Ġb one
Ġb io
ĠL ondon
Ġme at
Ġtra ffic
Ġshe ll
Ġargu ment
ĠSec ond
ĠTechn ology
Ġofficial s
C om
d o
all ed
Ġsp ring
Ġun ity
Ġmain tenance
sequ ent
Ġwild life
Ġagric ulture
ĠServ ice
l ights
u ous
ff ee
Ġsupport ed
Ġengine ers
Ġsurv ival
Ġsequ ence
Ġder ived
ic a
Ġcon vey
ĠN on
Ġdis hes
ful ness
Ġra ised
Ġatt end
Ġidentify ing
Ġcomfort able
atur ally
Ġ Â
le ase
Ġh our
em ic
ĠL iter
Ġharm ful
Ġtransform ation
Ġtail ored
Ġst ored
ĠA rab
Ġde aling
ant ed
Ġsh ift
Ġthan ks
Ġmind s
Ġaud ience
Ġreact ions
Ġinitial ly
ĠSov iet
S h
T itle
a ult
Ġ #
Ġin hab
im al
ce ler
Ġst ability
ag ues
ĠH all
Ġent ertain
Ġvol ume
ĠCent ral
connect ed
B e
Ġs ell
un k
ĠE mb
Ġint ended
ĠAt l
Ġhar vest
Ġadvant age
ag ers
Ġsu itable
ĠIn formation
Ġfl our
oun ced
Ġant ib
Ġindust ries
Ġansw ers
Ġst ages
Ġfor get
Ġdep ression
Ġdiscuss ed
Ġteam s
Ġexpress ions
Ġframew ork
m od
Ġh ob
ĠF in
ĠN ative
Ġcl ub
The y
Ġpo etry
Ġart ificial
Ġelect ronic
Ġargu ments
Ġclaim s
Ġcred it
Ġacknow led
ĠMedic ine
ot he
Ġab use
ub e
Ġcap abilities
Ġpres erve
Ġobject ives
Ġtell s
Ġmonit or
Ġinstruct ions
N ext
ress ing
Ġph one
m al
u els
al se
Ġw est
Ġd in
ĠS un
Ġv ot
Ġover l
Ġdel icious
Ġmaxim um
F rom
N D
n el
Ġt ro
Ġs ick
Ġb an
ra ys
Ġsp end
ast ly
Ġinter ventions
Ġchemical s
Ġmo ist
om in
Ġst ands
ĠC ouncil
um es
Ġtrans c
Ġlim its
Ġalgorith ms
P l
d is
h ma
ĠA ir
Ġex ists
ĠP ost
ĠL ou
ans ion
Ġind icate
Ġfe els
Ġexpl an
Ġpos itions
Ġmy st
Ġfunction al
Ġstate ment
Ġvari able
Ġdom in
ĠAustral ia
Ġd oll
Ġind eed
erv ed
Ġ19 3
Ġexp osed
Ġcomb ining
Ġarg ue
Ġcam era
Ġcolon ial
Ġmit ig
ac ies
Ġch ronic
Ġcount less
com ing
Ġmount ain
A M
Ġc atch
ĠS af
ĠH en
ak s
ak er
Ġinst ruction
Ġloc ations
Ġrequ est
Ġconc lud
Ġintrodu ce
ĠFran c
Ġrout ine
Ġfeat uring
d own
w rit
en e
an ia
Ġn erv
Ġro w
Ġact s
Ġide al
Ġcapt ure
Ġimmedi ate
Ġvict im
Ġbab y
Ġpret ty
b ed
ul s
ĠC ourt
oc ation
Ġnot ed
Ġper ce
Ġstr ing
Ġ200 3
omm od
Ġremain ing
Ġcand id
Ġbeg ins
un ning
Ġus age
Ġme al
Ġsee ing
ĠAl ice
Ġhand le
Ġfeed back
ĠFeb ruary
g u
p read
w hel
om ic
Ġr an
Ġorig ins
Ġscen e
Ġabs olute
Des pite
Ġthe ore
Ġc up
Ġen em
Ġsur ve
Ġcent ers
Ġhy per
Ġprinci ple
Ġmass ive
Ġsu sp
Ġapp lying
Ġhapp ening
Ġevalu ate
Ġslow ly
ĠGl obal
r in
Ġa est
Ġd imens
Ġre b
Ġke pt
iction ary
Ġcharacter ized
Ġcust oms
Ġscenar ios
O ur
m in
ĠH el
Ġdem ands
Ġregard less
Ġdeterm ined
ĠJew s
Ġcateg ories
Ġsac r
ĠGovern ment
C ont
b les
e enth
m p
Ġre tain
ost ic
Ġk it
Ġcar s
Ġeduc ators
c ast
d es
Ġim per
ĠTh omas
Ġredu ction
Ġflu id
Ġinstit ution
Ġlat est
Ġefficient ly
ĠEnviron mental
e ath
u is
u ine
re te
ĠS T
av a
Ġstr ange
Ġmem ories
Ġcrit ically
Ġshap ed
Ġsupp orts
ĠCont rol
Ġdestro y
b ra
l ers
Ġw ants
qu ality
Ġ2 7
Ġun s
Ġtrans ition
Ġprovid ers
Ġsuff icient
Ġparam eters
Ġgrad ually
Ġo d
ĠW omen
ĠN et
Ġmag ic
f it
Ġc ards
is hes
Ġ2 9
ang ed
Ġqu alities
ĠEx p
Ġmus cles
Ġswe et
esty le
S A
l ig
et erm
ag s
Ġinter connected
Ġph r
Ġsol ving
ar ant
Ġst ars
ĠSp irit
Ġmus cle
Ġcontrib utes
ĠComm it
Ġline ar
Ġdemonst rated
ĠBrit ain
Ġearth qu
Ġdat as
ĠStr ateg
p art
Ġfor th
ĠM icro
us ions
ĠE conom
ĠL a
Ġact ively
Ġmy th
ĠPro ject
ides pread
ĠComm ission
Ġparticip ation
Ġwind ow
Ġreturn s
Ġcompet ition
Act ivity
ĠDar win
E n
f ree
is her
ct u
Ġr ural
Ġab und
Ġcomp os
Ġdis s
arn ess
ash ion
Ġemot ion
Ġdiagn osis
Ġpu zz
nd rome
Ġman if
Ġtra in
Ġacc ounts
Ġsub sequent
cap e
Ġvo ices
Ġinterpret ation
ĠLibr ary
Ġcris is
ĠUlt imately
e en
f ound
Ġs ort
it als
Ġw estern
ĠF ore
ast y
Ġsc he
Ġform at
Ġmus ical
Ġinteg ration
Ġbreat hing
Ġfra g
Ġpow ers
p et
Ġs ed
it ical
Ġb ond
ot al
el es
op les
ĠB ay
Ġgen e
Ġsur vey
Ġfl o
Ġmajor ity
() `
Ġobst acles
Ġw id
Ġd iving
ro vers
ĠM iss
Ġapp arent
Ġqu al
Ġstud ied
Ġacc ident
ex ts
Ġmark ets
Ġsw itch
S p
or al
or ph
Ġcom ment
Ġpl astic
ne ys
Ġsur faces
Ġchar ge
Ġcur ric
Ġpass age
Ġnar row
Ġpriv acy
Ġunc ertain
s s
t est
ĠA ccess
ĠS cient
ĠE v
ber g
Ġag ency
Ġfl ood
Ġfl avor
Ġset tle
Ġhold ing
Ġcollabor ative
Ġevol ved
Ġphenomen a
Ġinfluen ced
ĠPract ice
Ġexperim ents
Ġstake holders
" )
N ew
a o
Ġp ip
Ġb anks
im port
Ġg ent
ad o
ĠB efore
ĠF orm
Ġr anging
ĠL and
Ġcont exts
Ġco ffee
Ġgreat est
Ġ8 0
Ġinteg rating
Ġfund ing
Ġnovel s
Ġs end
ĠC ub
ĠP ort
Ġch ick
rop ical
ox ide
Ġcustom ers
Ġestim ated
y a
Ġ rough
Ġs ales
Ġb onds
ad d
ĠE lect
ĠR ich
ens es
oss ible
Ġtri p
ĠApp lic
Ġvir us
ĠComp any
Ġple ase
7 5
r id
Ġthe r
ĠCon clusion
ĠRe view
Ġprevent ion
Ġw idespread
Ġn aturally
ĠM ac
Ġdec or
Ġdifferent ly
Ġdr ink
ĠCl ass
Ġreflect ing
Ġlimit ations
l ong
Ġthe ories
Ġp air
Ġcom plicated
Ġfriend ly
Ġrest rict
Ġfund s
Ġexc ite
Ġveh icles
Ġchann els
p oint
Ġ â
it ual
le ments
ĠA I
ĠG roup
Ġra cial
Ġra ise
Ġhand ling
Ġpsych ological
Ġdefin ition
ĠMus lim
Ġhous es
Ġunders c
ĠW ork
ĠL anguage
Ġun like
Ġpre v
Ġphys ics
Ġvari ations
Ġill um
Ġbreat h
Ġcelebr ate
Ġsac red
ĠChild ren
Ġvolun te
R I
a el
n es
Ġ rom
Ġs oph
it ivity
ĠC ase
Ġcertain ly
Ġdeterm ination
ĠCanad ian
Ġillust rate
Ġast ron
6 5
M any
en a
Ġte le
Ġacc ommod
Ġrec overy
Ġopt ion
Ġrepresent ing
Ġphot ograph
Ġlibr aries
Ġevol ving
Ġbarri er
r as
Ġt all
Ġv s
ĠP o
Ġart ist
Ġben eath
Ġcollect ed
Ġforest s
Ġcontroll ed
Ġmere ly
Ġcloth ing
A cc
R emember
p at
Ġp il
ar ter
Ġh it
ul um
ĠJ er
Ġobserv ations
Ġresid ents
Ġhighlight ing
Ġextreme ly
Ġmolec ules
ĠRober t
ĠTex as
Ġdimens ions
or a
Ġto w
Ġl ingu
ĠB at
Ġun us
Ġcre am
Ġdesign ing
Ġtyp ical
Ġdesc ription
Ġexc ited
Ġharm ony
Ġdou ble
Ġhabit at
force ment
Ġintrig uing
i ot
is p
et ics
Ġgener ated
Ġ7 0
Ġprofess or
Ġincl usive
Ġadop ted
C l
Ġb and
Ġfl oor
oun sel
Ġcomplex ities
Ġstrateg ic
Ġinvest ment
Ġgr asp
Ġinj ury
re m
Ġd ut
ĠT reat
ĠN av
Ġexpl o
Ġbre ast
Ġdra wn
E M
Ġb ones
ri an
Ġover whel
ĠY et
Ġwhere as
Ġequ ality
lev ision
Ġcry st
Ġsuppl ies
3 5
8 9
A meric
er ative
Ġf if
Ġf old
an es
ĠP sych
Ġ200 2
Ġ200 4
Ġnecess it
Ġer rors
Ġfight ing
Ġatoll s
D uring
v is
ro ph
ul pt
ĠM ag
Ġwould n
Ġcor ner
Ġconf ident
Ġaim s
enn y
sc ale
Ġcoast al
ĠT V
ĠT em
ut ic
ad ing
Ġenh anced
ĠCar ol
Ġhundred s
Ġdivid ed
R e
Ġt un
ate ver
ĠD ise
ĠN ature
Ġres ol
Ġmarket ing
Ġproced ure
rie ved
Ġecosystem s
Ġm aps
ĠC y
igh ter
ens us
Ġac celer
Ġcrit eria
ĠAt t
wh at
Ġreturn ed
p ie
v ity
Ġt ack
it z
ed ge
ĠT itle
Ġatt acks
Ġrelev ance
Ġindepend ence
Ġord inary
Ġsatis f
? **
Ġto xic
Ġn urs
Ġst one
Ġy ellow
ĠB et
ĠD ist
Ġun w
Ġar ise
Ġchild hood
Ġdetail ed
Ġdom estic
u h
Ġst o
act s
Ġman ner
Ġbut ter
ĠAd m
Ġpress ing
Ġstay ing
Ġwatch ing
amil iar
4 5
D r
V I
c hers
f low
Ġin equ
Ġas semb
Ġint ent
Ġcomp rom
Ġar ms
ec ess
Ġext ensive
Ġeng aged
Ġpres ident
AS A
Ġcultiv ate
Ġnutri ents
Ġexcite ment
` ,
as ive
et ime
Ġex cl
ĠE arly
ĠD ig
ost on
Ġcl oud
Ġtra its
Ġinvestig ation
ĠLou is
C C
U s
y e
Ġf ly
Ġgen uine
Ġeffect iveness
ĠPl us
ĠCol l
Ġcr im
onom ic
Ġprepar ation
Ġt itle
og rap
Ġcomp elling
Ġcol umn
cl ass
Ġmot or
Ġvill age
Ġcoop eration
ĠWind ows
d ata
Ġl ib
pl t
Ġab stract
Ġall erg
Ġdo or
Ġreg ist
Ġwrit er
Ġadvent ures
Ġevalu ation
Ġjob s
ĠOff ice
Ġstro ke
Ġadequ ate
Ġs am
ĠM in
Ġfl avors
Ġadv ances
ĠSe a
Ġfew er
Ġemploy ees
Ġdog s
3 2
w ing
Ġe ld
st one
Ġcl ients
Ġelect ron
Ġtem ple
Ġbro ken
Ġconsum er
Ġsubst ances
Ġdiv ine
Ġsold iers
Ġparalle l
Ġpro port
ĠP olic
pl ing
Ġcont rovers
Ġher self
Ġref lection
Ġcomput ing
Ġsubst ance
Ġinfect ions
Ġfib ers
e k
Ġor ient
ĠB uilding
ĠG old
Ġte en
ĠQ ue
Ġdifficult ies
Ġstrugg les
Ġcard i
Ġgir ls
Ġsess ions
s hip
he nd
Ġb iod
Ġd u
Ġg ro
ver ty
Ġfor ced
Ġpo verty
Ġperform ing
pr int
Ġdirect or
Ġprevent ing
Ġpositive ly
Ġdiscover ies
] .
re y
Ġst ere
ĠM et
os h
ĠL ord
oc king
Ġj ump
Ġra w
Ġrem oved
Ġbl ocks
ĠSp ain
Ġauthor ities
Ġeth nic
Ġsole ly
ĠVirgin ia
g al
Ġin her
id ay
Ġst em
Ġha z
Ġinc hes
ere nt
Ġperson ality
val u
Ġselect ing
Ġdeb ate
Ġscenar io
ĠEnc ourage
Ġm useum
Ġd ie
et te
ĠT er
ĠS um
Ġcon ven
Ġne uro
ĠR ights
Ġk illed
Ġte a
Ġgra b
Ġgra pp
ĠPro v
Ġopen ed
Ġjo int
Ġbat t
Ġcolle agues
Ġphenomen on
Ġju venile
C E
b orn
act ion
Ġatt itudes
Ġhigh lights
Ġexperien cing
Ġimm ers
Ġreact ion
ĠSec ret
Ġsect ions
Ġappe ared
Ġprepar ing
Ġrhy th
ĠMean while
Ġm amm
ur rent
ĠS en
ri a
Ġclass ic
ĠCont in
ĠEmb ra
g ers
it tle
al a
an ning
Ġl inks
ĠM art
Ġv ig
Ġtra um
Ġpre val
Ġrel iable
Ġins urance
Ġconsider ations
Ġmar riage
ĠAb out
Ġcomprehens ion
Ġinstru ments
Ġvary ing
Ġc ert
Ġn est
ot a
Ġsp ark
ĠL ong
Ġdist urb
Ġbr id
Ġinnov ations
Ġtarget ed
` .
c ription
m un
Ġ <
Ġt ur
Ġs od
Ġs ke
ic he
Ġl as
Ġne u
Ġout l
Ġtrans mission
Ġdep ends
Ġredu ces
Ġoper ate
Ġaccess ible
ĠInt eg
Ġsect or
Ġm ood
ĠE th
ĠL ook
Ġcomple ted
Ġz ero
Ġge om
ript ions
Ġembra ce
Ġenthus i
al ian
Ġp p
Ġh arness
ĠI ll
ĠH y
ĠR em
Ġext ended
ier arch
ĠNew s
Ġfem ales
ĠTim my
B N
O T
u a
Ġt act
ĠD iff
Ġcomp osition
ual ity
Ġun iform
Ġcl ick
Ġmost ly
Ġmain ly
Ġgover ning
Ġleg acy
Ġdr inking
asc ular
Ġvol can
Ġast hma
Ġappe al
Ġcarry ing
Ġflex ibility
' d
g ans
z il
in f
Ġc ats
Ġw ife
Ġf le
le vel
id ential
ĠI r
ĠM ass
Ġpre cious
Ġmem or
Ġclass ical
Ġachie ving
Ġwebs ites
Ġteach ings
i very
on ents
er ge
Ġl ik
ra q
ur is
ĠA ut
ĠS ci
Ġinter f
Ġrec y
Ġworld s
ever al
Ġplay er
Ġtre ating
Ġsecond ary
ours es
Ġgraph ic
Ġmanufact uring
ĠAc adem
ĠTre nds
Ġth read
ĠM ad
and a
Ġdel ves
Ġequ ally
Ġsum mary
Ġrecomm ended
Ġagree ment
Ġadminist ration
3 6
Q u
c raft
Ġs in
Ġdis h
Ġatt ached
Ġinf lam
Ġprom ise
Ġexpress ed
Ġcommit ted
ĠChar les
Ġdatab ase
ĠCommit tee
' .
Ġs en
Ġl ose
ist an
Ġsu c
Ġch a
ĠF ollow
Ġun known
ĠU nder
ber t
Ġ200 1
over ing
Ġvis iting
Ġbro ther
Ġsuff ering
ĠServ ices
ĠRuss ia
O S
r ons
Ġre aching
ĠB er
Ġch ief
ĠL ake
Ġexpl icit
Ġfol k
Ġocc asion
ĠFound ation
N o
Ġs an
Ġto ys
ĠB oston
Ġr itual
ĠO pen
Ġdis rupt
Ġsc at
Ġsc hed
Ġgen re
ĠWh ite
Ġinsp iring
Ġexhib it
m et
p al
at hered
Ġp ure
Ġre ven
ce ll
ist ical
ĠH aw
Ġint ense
ĠJ am
pe utic
ĠV iet
Al though
Ġvulner able
D A
U nderstanding
Ġc her
Ġal t
ĠB ook
Ġse am
ĠCon vention
ĠCol umb
Ġdescrib es
Ġscen es
Ġinstall ed
Ġquant um
Ġaccur ately
ĠCre ate
f ield
u gg
v ision
Ġ >
Ġt ension
Ġto ler
ol f
im er
Ġst uff
od ing
ter ies
qu is
ĠW ild
Ġsh o
Ġsh ore
Ġsc ulpt
ĠEng ine
ĠOr ig
Ġri vers
Ġtrou ble
S e
T e
c a
f all
Ġp ra
Ġd ust
Ġg all
ĠM D
ĠO F
Ġrep ut
ĠApp ro
Ġminim um
Ġminim izing
Ġport ion
Ġframew orks
ht m
3 7
d a
f ish
is k
Ġf est
ou ts
Ġb rown
ic king
Ġfor g
ĠI raq
Ġph arm
Ġext ent
Ġcomb at
Ġmov es
Ġaltern atives
ĠReg ular
ĠFl or
Ġinj uries
Ġf ell
ot ed
ĠP an
ĠB ank
ĠN atural
ĠG ood
ĠJ ud
Ġthem e
Ġper man
Ġvis ible
Ġche st
pr ing
Ġobs erve
Ġaccording ly
Ġhyp othes
Ġexcess ive
S ee
it ches
Ġbe ar
Ġpro ve
Ġcent ered
Ġdel icate
ĠIm port
Ġ199 0
Ġful f
Ġsurpr ise
Ġveh icle
Ġsudden ly
O C
R ec
Ġs ad
Ġc art
Ġst ores
am i
us iness
Ġcomp r
ish ment
Ġoff ic
cy cl
Ġnecess arily
ĠWhe ther
A A
in ity
Ġc our
Ġl ights
Ġle af
so ft
Ġem erge
lud ing
lish ing
Ġ9 0
Ġtri al
oty pes
S P
Ã Ń
re pre
or ter
Ġd a
il ation
as ures
ur ric
Ġv ac
Ġv oc
un t
ĠL ist
Ġpl ate
ĠAn alysis
Ġcontrib uted
Ġrece iving
Ġlif estyle
Ġgent le
repre ne
I nd
Ġf ashion
Ġh orm
Ġst ick
ĠF uture
ĠF amily
Ġpart ner
Ġsub tle
ĠCon nect
Ġmeas ured
Ġbi ology
Ġ199 9
Ġz one
Ġaud io
Ġemphas izing
Ġsurv ive
Ġmagn etic
Ġmathemat ics
Ġinstru ment
Ġmanif est
M y
Ġe ager
Ġhe ating
us c
ĠB ible
Ġfost ers
Ġcr ime
Ġunivers al
Ġs izes
ch o
Ġst re
Ġne ither
ap e
Ġad oles
Ġdis ag
ear s
Ġcl osed
ĠIn it
ĠCh all
Ġnew ly
Ġnew sp
Ġco al
Ġpers ons
Ġexp ansion
Ġgra du
Ġcor n
Ġcho osing
istic ated
Ġdistrib uted
Ġwonder ful
Ġmarginal ized
E L
or ic
Ġp aid
Ġm oon
Ġst ead
Ġal ive
ac he
Ġch art
ant a
og le
ĠN ations
Ġpe oples
Ġtw ice
Ġ3 5
Ġgra de
Ġbo ost
Ġinteract ive
Ġadapt ation
ĠChristian ity
Ġbackground s
ĠF ort
Ġcl ust
Ġwill ing
Ġins pect
the less
Ġrepe ated
ixt ure
D e
i hood
n s
ed ay
ir t
ill a
Ġint roduction
Ġsp ending
ĠN ever
Ġad j
ec k
Ġinter section
Ġreg ulatory
cept ions
ĠPro cess
Ġconcern ed
Ġlast ing
Ġtri als
Ġincl us
Ġcateg ory
Ġfoss il
ĠHen ry
Ġunus ual
h av
m ates
st ate
ot es
Ġan throp
Ġimp ossible
Ġsec rets
Ġpres ents
Ġjo ined
Ġimplement ed
I ON
t es
it ative
Ġp ump
Ġn one
ĠE qu
ĠO cean
ĠIn vest
Ġpe ak
ov en
ict ions
Ġdist rict
ĠSh are
Ġprop os
Ġgr ass
Ġreci pes
A b
in ates
se m
Ġst reet
ĠS pecial
rou d
ĠE ffect
ie val
Ġdesign ers
ĠAr my
Ġlight ing
Ġmov ies
aren cy
Ġsafe ly
Ġwarm ing
ĠTechn iques
P y
Ġc ast
Ġm ales
Ġcomp are
Ġequ ipped
ĠNew ton
Ġminim al
Ġpsych ology
Ġvisit ors
Ġcalc ulate
ĠEast ern
ĠSm ith
ĠSystem s
P D
n ut
r ity
ĠTh ose
ru e
Ġacc um
Ġsom eday
Ġ18 9
Ġbre aking
Ġobject ive
ĠSu pport
ĠPr in
Ġalgorith m
Ġsoph isticated
Acc ording
7 8
S S
c ons
Ġw el
ĠJ ose
ĠSt e
Ġpar ks
Ġgreat ly
Ġsoci o
Ġmeas uring
Ġmechan ical
ĠRuss ian
Ġshif ts
Ġopin ions
Ġtheore tical
n et
in ction
Ġc ounsel
ro oms
ĠS l
um in
ĠD oes
Ġun less
Ġag es
Ġob vious
cl ing
Ġyoung er
Ġcolor ful
Ġ198 0
Ġbra nd
Ġhon or
ocol ate
ĠFlor ida
) **
re p
re ens
Ġh ierarch
op y
ĠN ASA
Ġlarge ly
irc raft
Ġlat ter
Ġcorrect ly
Ġfant astic
Ġshar p
Ġinhab it
3 9
b and
Ġb le
ct ive
ĠT HE
Ġor al
ĠM ach
ĠB al
ĠUn fortunately
Ġess ence
Ġser ver
Ġimm un
Ġworks h
Ġec ological
b ody
in ning
or gan
ĠS ign
Ġor gans
ĠP eter
Ġr ub
ĠL abor
ust ain
Ġte levision
Ġrel ation
Ġhealth ier
Ġdel ivery
Ġconsider able
Ġindic ates
ĠFran k
Ġhous ing
Ġdream s
Ġsatis fact
4 8
z en
en ess
Ġf ill
Ġf av
Ġg athered
ĠM ax
um s
ĠIn s
Ġbr idge
Ġpresent ation
Ġprotect ed
sp ec
ID S
c ar
f riend
Ġm ir
om ach
et ies
ig ious
ĠB ro
ĠR ad
we ight
Ġover come
ĠY OU
Ġresult ed
Ġinflu ential
Ġdifficult y
Ġnar rative
Ġopp os
Ġestablish ing
Ġaccept ed
Ġreveal ed
Ġrecommend ations
Ġathlet es
Ġat oms
Ġk ill
Ġro of
Ġcol oured
Ġdes ire
Ġdevelop ers
Ġadd s
Ġ18 6
Ġinteg rated
isc o
Ġfarm ing
Ġfram e
Ġvessel s
i ated
at al
ĠP ot
Ġper m
Ġro cks
Ġrec re
Ġrec on
eg u
Ġve ter
Ġcontrol s
Ġavoid ing
ĠVis ual
S C
b i
e at
h ow
in du
at ial
Ġp roud
Ġst ation
ĠG al
Ġexp ensive
Ġequ ation
Ġposs ibly
Ġtre nd
Ġphot os
Ġsun light
Ġrenew able
ĠIslam ic
ĠEmp ire
Ġdoub t
k in
Ġt ut
in ch
Ġs elling
ct ure
ĠA ge
Ġy es
ter ol
ĠThe ory
Ġne ut
Ġbut ton
Ġpr ison
Ġed ges
Ġcur ren
Ġequ itable
Ġcomb ine
More over
ĠImp act
1 00
D E
c hen
k a
p red
Ġc aught
Ġm ining
ĠF act
Ġdo ors
Ġcons erv
Ġreg ulation
Ġgovern ance
Ġmov ie
Ġkind ness
Ġachie ved
Ġimag ination
Ġpartners hips
. |
d em
s pring
Ġt ang
Ġf urn
Ġin du
Ġd il
ĠP op
ĠB re
ĠF ind
Ġpre m
.. ..
ĠCom put
Ġgu arant
Ġmodel ing
Ġcompre hend
Ġcou ple
3 8
T oday
w ar
Ġt ough
ir ds
ab ul
ĠP C
ĠP ub
ĠF ocus
Ġreal ize
Ġorig inally
Ġrob ot
ĠCommun ity
Ġgir l
Ġopin ion
ste in
Ġcul inary
Ġmort ality
Ġp ione
ĠC rit
Ġsp ir
Ġqu iet
ĠPl ay
ĠCont emporary
Ġdeath s
Ġmount ains
Ġobtain ed
Ġdemoc racy
o ir
Ġb ust
id ity
Ġdis pl
ĠTh anks
Ġag ents
Ġtw enty
Ġent ities
Ġimprove ments
Ġla id
Ġeast ern
Ġsong s
Ġbran ches
uris d
t w
t op
v ol
Ġst ock
ĠM ont
ĠN orthern
Ġsy ndrome
ail ing
Ġsc ar
Ġfind s
Ġequ ations
Ġhapp iness
Ġrecord ed
Ġexplain ing
Ġhabit ats
Ġhosp itals
Ġcontroll ing
5 00
R T
Ġt on
ot ton
ĠS ing
iz er
act ions
Ġgu ard
Ġfar ms
Ġprop ag
ĠSu pp
bre aking
Ġnu anced
Ġinsect s
Ġweap ons
Ġmoist ure
ĠDise ase
Ġinclus ivity
4 4
L E
M ost
n ov
Ġt ale
Ġt urb
ĠN or
Ġapp oint
Ġmod e
Ġgra ins
Ġent ry
Ġparticip ating
Ġbring ing
Ġla un
ĠRet rieved
G BT
Ġd rop
st orm
ĠE xt
ĠD an
Ġdet ection
Ġmy self
Ġdown load
Ġglob e
Ġbig ger
Ġpopular ity
Ġtext ure
ĠJohn son
imens ional
k ins
Ġa ircraft
on a
st s
Ġre ct
Ġn urt
Ġout er
te en
Ġdi am
Ġsit ting
Ġcollect ing
mat ic
Ġreflect s
Ġobserv ation
Ġbat tery
oles terol
Ġpray er
n o
at o
Ġb oy
Ġst able
ul ates
ĠC ultural
ect s
Ġdis aster
Ġra c
Ġdec line
Ġgra ce
Ġsmo ke
ĠBra zil
Ġsuc ceed
H O
c ope
m ation
ot ion
ĠP u
um ps
Ġne ural
ĠD id
Ġsp ok
ĠO per
Ġrel ief
Ġris ing
Ġstruct ural
Ġpregn ancy
Ġancest ors
J ust
a ud
Ġ id
Ġa er
Ġc ourage
Ġth y
ĠC D
and on
ĠH ome
ĠE mer
Ġint ensity
Ġsp ort
ĠSt art
ĠAs ian
Ġdel ight
ĠInd ust
Ġpass ing
Ġhistor ic
Ġavail ability
oph y
ĠOn line
Ġthera peutic
Ġgreen house
' )
M e
b urg
g s
al ed
ut ch
ĠS il
ĠM o
Ġen rich
ĠR ome
Ġcre ations
air y
Ġfac es
Ġrun s
Ġsou l
ĠLiter ature
Americ an
ĠAdm inist
Ġbiod iversity
Ġs ight
Ġc ater
Ġw ww
Ġf alse
Ġl iver
ĠT ake
Ġpro of
ĠM ove
ĠR om
Ġpol ice
por ts
Ġcor rel
Ġconf ig
ĠRes ources
Ġemphas is
Ġmeasure ments
cycl op
4 9
w orking
Ġbe ach
Ġst omach
Ġcl ient
lect ing
Ġhum or
Ġconst itution
Ġmar ks
br idge
Ġtransp arency
Ġencomp ass
A pp
on ia
er b
Ġf ro
ac on
Ġem pt
ros cop
---------------- ------------
Ġdep os
ĠEx am
Ġsaf egu
ĠRes p
Ġant icip
Ġsat ell
Ġdiv ision
Ġaccept ance
. âĢĶ
C D
G u
M ed
n ight
ig ma
ĠT om
ist ed
ĠIt alian
Ġaddress es
Ġliter acy
Ġachieve ments
Ġexpand ing
Ġdisag ree
Ġoppos ite
H ist
b ox
Ġl ag
ra ction
ur ches
ĠS outhern
Ġwh atever
ple ment
Ġob lig
Ġstr ive
Ġfl ight
Ġ4 5
Ġcrit icism
Ġaccess ibility
Ġcal m
Ġcustom er
Ġadop t
Ġrein for
Ġcorrespond ing
ĠDig ital
Ġbatt les
3 1
Ġp ed
ou st
Ġre ject
et ing
Ġg one
ad a
ri er
ĠD raw
Ġk il
Ġun l
ĠSt ory
Ġrespons ibilities
ĠThrough out
Ġsurround ed
Ġdemonst rates
po ints
ĠProfess or
P R
h ost
i ations
j ud
Ġs aving
ĠB ack
ial ly
ĠTh ough
Ġdist ances
Ġread er
Ġbas ics
ĠCol or
Ġinteg rity
Ġmechan ics
Ġconver t
Ġassum ptions
Ġmig ration
? âĢĿ
O ver
a very
he rence
Ġs au
Ġin ject
Ġn it
ĠA p
ĠF reed
ell s
Ġimm ense
Ġrepresent ations
Ġencoura ged
Ġtransform ed
Ġdang er
Ġtap est
Ġconscious ness
uis ine
Ġlingu istic
e em
ic y
ĠA ND
Ġhe m
ĠUn like
Ġform ula
iss ance
Ġcomb ines
Ġinteg ral
Ġdig est
Ġstreng ths
Ġdom ain
Ġmechan ism
Ġport ray
Ġthr ive
Ġthr illing
Ġaccom pan
Ġterrit ory
7 6
B C
Ġc row
Ġm ixture
out heast
Ġbl og
Ġenjoy ing
Ġbal anced
Ġconsist ently
Ġ197 0
Ġattem pts
Ġgather ing
Ġcurric ulum
c alled
Ġm ac
Ġre ward
ĠF iction
ĠF ederal
ĠR oyal
Ġte eth
Ġev il
Ġper mission
ite ly
ĠCh ange
ĠY es
Ġhist ories
Ġemploy ment
Ġreve aling
ĠPart y
cipl inary
Ġpros pect
ĠCho ose
G en
l ib
he imer
Ġf ring
Ġb ibl
Ġl osing
ĠS pe
Ġex empl
Ġen ds
Ġ3 1
Ġatt ach
Ġcur ve
Ġclass ification
Ġconst antly
rain ts
Ġkeep s
Ġdeterm ining
Ġep is
ĠApplic ations
Y our
a ired
r ary
Ġc oc
Ġto y
pl ed
Ġsh ips
ĠU K
Ġtra ined
ĠSt at
Ġra il
ĠV ict
Ġdi pl
Ġcomple ment
Ġend less
Ġanal ys
ĠOn ly
Ġsurround ings
Ġestim ates
Ġf rust
ed y
Ġl ie
ĠM ult
ĠM inist
ĠL ily
Ġpe ers
ph a
eng es
Ġext end
Ġmat ch
Ġdef ense
az z
Ġillness es
Ġrig orous
at ile
Ġw ine
Ġit em
Ġ( "
Ġse g
Ġout d
row ing
Ġend uring
rop ri
ĠDe v
Ġvari eties
Ġbenef icial
Ġcy ber
Ġvers ions
ĠGu ide
Ġpay ing
ĠGe org
Ġtiss ues
Ġconcent ration
Ġdecre ase
Ġlegis lation
othe rapy
c ul
m es
z ed
ab el
ĠL GBT
ĠG et
Ġcont am
Ġout come
Ġbl ess
Ġpar ad
ĠPro p
Ġbre eding
Ġlist ed
Ġarch ae
umb led
Ġdomin ant
O ther
er ts
Ġe ar
Ġh oney
Ġle mon
Ġcomp osed
Ġact ors
Ġatt ending
Ġdel ay
Ġposs ibility
Ġest imate
Ġharm on
ĠPar is
Ġvit amin
Ġbust ling
n atural
am ps
Ġde als
Ġown er
Ġ5 00
ĠIs lands
Ġ199 8
ĠPh ot
Ġdemonst rating
t ic
t rans
z heimer
he alth
re f
Ġf ur
Ġcom plications
ĠG ard
av al
ph one
Ġact ing
Ġoff spring
Ġnum er
Ġent reprene
ĠCom b
Ġprom ising
Ġfin ished
Ġmar vel
Ġput ting
Ġpath s
Ġstri king
Ġattrib utes
Ġpurch ase
ĠGo ogle
ĠConst itution
Ġtens ions
abul ary
b ut
Ġe ase
ĠM or
os ion
ĠH oly
Ġad vert
Ġdis abilities
Ġnot ion
ru ption
ear ing
ear chers
erv es
Ġ3 00
Ġplan ned
edi atric
Ġrepl ied
ĠCo ast
Ġmob ile
Ġmist akes
ĠIS BN
Ġ vel
is ation
ro id
ol ar
ĠI de
Ġab andon
Ġcomp ounds
du le
Ġinter pre
ĠK ore
Ġmin i
Ġcool ing
Ġrepl aced
Ġutil ize
Ġroot ed
crib ed
3 3
it t
Ġb ol
ra g
Ġst unning
Ġimp air
Ġinter face
Ġart work
ĠAn n
Ġess ay
Ġprotect ive
Ġdistinct ive
Ġdiet ary
c ultural
d imensional
Â ®
Ġh us
Ġg ri
Ġg iant
ir ty
ab il
em b
ĠN avig
Ġdis put
Ġdis pos
Ġeven ing
Ġfound ed
## ##
Ġend e
ĠRe v
Ġtem por
Ġtest ed
Ġreport ing
Ġinterpret ations
Ġsurpr ising
Ġisol ated
Ġcrim inal
W ell
b an
o ons
er ies
Ġw ish
ic ting
Ġm and
Ġl iber
ut en
ĠA P
Ġwor ship
ard ing
Ġam pl
ov al
Ġconf usion
ĠAn aly
Ġhy br
Ġhard ware
Ġconsist ency
Ġstat istics
4 7
R ef
s olving
t age
Ġ ille
Ġa qu
re qu
Ġst ew
ĠO x
Ġdiff er
ex p
Ġevolution ary
Ġphilos op
Ġexperim ental
Ġtapest ry
Ġt elling
le arn
id ation
Ġus ual
Ġpl enty
ex ample
Ġconc rete
Ġsecond s
Ġfrequ ent
Ġinfect ed
Ġbelong ing
Ġfing er
Ġcraf ting
ecess ary
O f
Ġp apers
Ġb orders
Ġwor se
ĠTh ree
ĠJ o
Ġper pet
ĠCh ic
Ġra b
Ġstate ments
St ud
Ex pl
Ġver tical
Ġbra ve
Ġemphas ize
Ġdiscipl ine
Ġfert ile
Ġfix ed
ĠFranc isco
H D
] )
g a
i ological
Ġt one
an o
Ġch olesterol
Ġwhe at
ĠO l
Ġdis m
Ġcol our
Ġra ising
Ġmed ieval
ĠAl ways
rat ors
Ġsw im
Ġgr ant
Ġsens ors
Ġpromot es
ĠHar ry
Ġupd ated
ĠPal est
Ġcour ts
I P
a ah
Ġm ild
Ġd ensity
ol a
ĠT ry
ul in
ri pts
ĠL ow
ind er
Ġdi oxide
ĠAl zheimer
Ġdep art
ĠYou ng
Ġessential ly
Ġleg s
Ġmeet ings
Ġdam aged
Ġbab ies
Ġdiscipl ines
Ġadap ted
Ġexplan ation
Ġmyst ery
Ġperce ived
ĠSci ences
n p
Ġp and
Ġb ull
Ġg est
el ve
ĠM a
Ġde ploy
Ġch ocolate
ĠR ole
Ġun com
Ġgen res
Ġcomb inations
ĠWith in
Ġge ographical
Ġmolec ular
ĠAustral ian
norm al
ĠCarol ina
Ġstere otypes
r ine
it a
an z
Ġb rows
Ġn od
ĠC reat
ĠB eg
Ġsh ad
Ġdis ability
ell a
hes is
Ġref uge
Ġgra in
Ġident ification
Ġ18 5
Ġrespect ively
ĠGu id
Ġdest ruction
Ġvide os
Ġthorough ly
Ġpush ing
it ure
Ġb ub
Ġn ob
Ġcon g
Ġcom ments
Ġch ose
Ġen forcement
Ġout bre
ĠIt aly
Ġmet ric
Ġbreak s
Ġfail ed
Ġfish ing
Ġlabor atory
ĠDisc uss
ĠSpec ifically
Ġinflam mation
D o
Ġw ire
Ġb ot
Ġh arsh
ĠE volution
ĠF our
og y
ict ional
Ġsk illed
Ġappro ached
be an
Ġsuff er
ĠAg ric
Ġchick en
Ġinequ ality
friend ly
h or
on ial
ic ul
st ep
ĠT ips
Ġst ated
ĠS and
Ġch ances
ĠL o
ĠN ext
ang le
Ġequ ival
agn etic
Ġcapt ured
Ġobserv ing
Ġcompet itive
Ġvers us
Ġincl usion
Ġflex ible
ĠUt il
Ġnerv ous
Ġenem y
C T
O P
m ath
he ro
Ġh urt
se ver
ra c
ĠB usiness
ĠW here
rou s
Ġad verse
ian a
Ġdist ant
Ġaut onom
Ġconf ir
aterial s
Ġ7 5
Ġmusic ians
Ġsens itivity
Ġfil ms
Ġwind ows
Ġphot ography
Ġcy cles
Ġtarget s
Ġlab els
Ġinvestig ate
ĠOf ten
Ġjud gment
Ġweak ness
Ġvictim s
l ar
w ord
y le
Ġb omb
ill ance
Ġexpl ores
Ġco vers
oy age
Ġsupp lement
Ġcirc le
Ġagree ments
Ġrat io
ĠAtl antic
Ġphotograph s
Ġc m
ic ide
ol n
ĠI II
ĠD ou
Ġsh ot
Ġsh ares
Ġro ads
Ġpres ervation
Ġmet ab
Ġrelig ions
Ġphot o
ĠRep ort
Ġrou te
Ġuncertain ty
Ġb low
Ġd rain
ĠC apt
ĠI re
ĠM il
ĠM ethod
ĠF und
Ġexpl ains
Ġsc ores
Ġco verage
Ġpo em
Ġdirect ions
Ġdirect ory
Ġproduct ivity
Ġapplic able
Ġrest aur
ĠMay a
Ġfit ness
Ġang le
ha ust
Ġmiss ing
Ġstre ets
4 1
r us
Ġt ip
Ġc ourses
Ġd ates
Ġpro ceed
Ġv an
ĠW ood
ĠR ock
ak ed
ors es
Ġprov ed
tain ing
ret urn
Ġsaf er
Ġbas k
Ġargu ed
Ġlegis l
Ġwarn ing
R A
Ġc as
ĠM ill
ex ist
Ġconst raints
Ġstrong ly
Ġcollect ions
ony m
Ġsess ion
ĠColl abor
I A
M od
e ous
f e
i eth
ar ray
et he
Ġcont ained
ĠO pt
ov ascular
Ġent ered
Ġgener ating
ĠPl ace
Ġlo op
Ġaccount ability
Ġloss es
Ġprob ability
ĠSec urity
IN G
Ġpros per
ĠMich ael
R S
d ate
h i
o ys
on al
Ġh ole
ĠA h
ge on
Ġar my
Ġar bit
ĠJ ack
ec onomic
stand ing
Ġprodu ces
Ġmed itation
ĠCon text
Ġdr iven
Ġ199 7
Ġrespect ive
Ġadapt ability
Ġsmooth ly
Ġbran ch
Ġmast ering
0 4
c her
re al
Ġf ath
Ġb ath
ar ia
Ġg ram
ĠM ars
Ġsu it
ĠR ob
ap se
Ġha ven
Ġun n
Ġj urisd
Ġref ine
Ġequ ity
Ġ18 8
Ġbo ys
Ġprinci pal
Ġcontain er
Ġexpress ing
Ġfair ly
Ġowners hip
d r
f ast
s k
s ue
Ġ Ã
Ġp iv
Ġd ictionary
et ary
Ġst ood
ĠA st
Ġse at
Ġrel iability
Ġbre ed
Ġbi om
ĠChrist ians
Ġpolicy makers
Ġspread ing
Ġtrib es
Ġtro ops
ĠAcadem y
Ġsatisfact ion
M A
al o
Ġf er
ol ph
ure au
ĠD u
Ġr id
ĠL ittle
Ġun able
Ġdiagn ostic
Ġinfluen cing
Ġassign ed
plot lib
Ġcommunic ations
Ġmyster ies
Ġacknowled ging
ĠMicro soft
Ġtraum a
Ġperman ent
Ġspok en
: ||
P C
b ur
it an
Ġp ig
Ġf ract
ct ors
ĠT imes
ĠC amp
us al
ĠD et
Ġk m
ult y
ĠJ ac
ious ly
Ġelect ro
elf are
Ġve ctor
Ġaddress ed
Ġcirc uit
ocu ment
Ġsent ence
Ġperfect ly
Ġinvolve ment
Ġparam eter
ĠMus ic
ĠChe ck
ĠPolic y
hav ior
ĠJose ph
ĠLGBT Q
7 7
S c
U S
f are
h ttp
y al
in ting
Ġa ward
er als
ĠC arl
us hed
ĠB rown
Ġch rom
ĠE c
Ġun iversity
Ġnew found
Ġart if
---------------- --------
Ġbel oved
Ġgr id
ĠSu per
Ġdiscover ing
Ġevalu ating
Ġdemoc ratic
ĠAss ess
Ġhoriz ont
inet eenth
Ġanalys es
3 4
N ot
S he
b es
Ġc odes
Ġf lying
an ol
Ġn ine
ess ion
ĠM el
Ġhe s
ap ed
Ġcl othes
Ġrese mb
Ġvis ually
uss ian
Ġdep ict
Ġele ction
Ġfunction ing
Ġmet aph
19 8
Ġscient ist
Ġtravel ing
Ġlog ic
Ġquant ities
Ġhor se
Ġneighb ors
Ġvoc abulary
C omm
Ġp ose
ar ks
Ġ3 6
aw are
Ġext ension
ĠAn y
Ġfore ver
ik i
Ġpercent age
Ġded ication
ĠWrit e
Ġencount ered
ĠStrateg ies
ĠChall enges
0 1
0 5
Q L
u nder
Ġt ub
in i
en ced
Ġp it
et ed
Ġg ast
ĠT op
ĠL im
Ġev ident
Ġpe er
Ġmod es
ĠAs k
Ġmet ers
Ġtem porary
Ġsuper ior
Ġbra ins
Ġann ounced
Ġexcept ion
ĠSm all
Ġdram atic
Ġreson ate
ĠDem oc
Ġaf tern
Ġaccompl ish
ĠRich ard
se y
ĠC ode
un ting
Ġsp oke
ĠN ut
Ġper ception
Ġac ids
Ġexam ined
Ġdec ade
Ġexp ed
Ġflow s
Ġut ility
ask a
uth or
Ġcover ing
Ġasp iring
Ġcorpor ate
C an
L ife
g ence
Ġh oles
ce l
ĠF il
Ġim aging
Ġcl ar
Ġpre ced
ative ly
Ġbu ying
Ġocc as
Ġphys ically
Ġenjoy ed
ĠSc ot
Ġbehavior al
het ics
Ġfall s
Ġtown s
Ġthous and
Ġ196 0
Ġpaint ings
Ġdistingu ish
Ġarrange ments
Ġorient ation
Ġlag oon
S ince
o il
p ing
s m
it arian
Ġto m
Ġl ists
ow ers
um ber
Ġle ver
ĠF ram
Ġsh ut
Ġcomp ens
Ġunder t
Ġsome what
Ġpr on
Ġdisc ourse
Ġimag ery
Ġintric acies
Ġspeak ers
ĠMexic an
Ġentertain ment
Ġtack le
Ġfath oms
M ay
d isc
m ers
m ail
m ade
er ted
ci um
Ġwe aring
Ġr ing
ge bra
Ġman ual
Ġtra il
ĠAn cient
Ġsupport ive
ĠInd eed
Ġsl avery
Ġ199 6
Ġoptim ization
Ġcultiv ating
ĠGra nd
Ġhyd rogen
Ġcompar ison
ĠNum Py
==== ====
Ġlic ens
Ġlung s
cyclop edia
F igure
g iving
r ange
Ġb order
ct ic
ow ered
ĠT or
ĠS at
ĠC E
ĠP ope
ĠH um
og a
Ġgrow s
Ġend ed
az ine
Ġsupp osed
Ġeconom ics
Ġpred ators
Ġhead s
Ġste el
Ġdeliver ing
Ġbio f
Ġhypothes is
Ġdispl ays
l a
Ġb old
ĠC ro
her ic
ĠW orks
ell ed
ys ical
Ġbl end
Ġcall ing
Ġdet er
Ġent ering
Ġinvest ing
Ġfree ly
pos ition
Ġemphas izes
Ġunc over
ĠHer itage
Ġcalc ulated
Ġsam pling
htm l
Ġinhabit ants
Ġtut orial
ĠAdminist ration
O M
y ou
Ġd ress
Ġd aughter
Ġe pid
Ġst ones
ect ive
ĠM ah
Ġde ar
Ġch urches
Ġsp atial
ĠL ab
Ġher bs
Ġpo ison
Ġperson nel
Ġcar b
az on
ĠCl imate
Ġdispar ities
Ġdoll ars
Ġsed iment
Ġeld er
C ol
P art
m edi
r ison
Ġc el
om er
art ers
ĠL og
ĠO bs
ru it
Ġevery where
Ġdef ining
ĠAr ts
Ġelect ed
Ġvari ation
Ġevol ve
Ġtum ors
Ġconstit utes
Ġencount ers
C ons
P e
c ut
c ence
Ġf et
Ġm eth
ut her
th rough
ĠM er
Ġsh oot
Ġopt ical
Ġphys ician
Ġes cape
Ġeth ics
Ġsmo king
Ġestablish ment
ĠRec ogn
Ġelse where
Ġveget ation
Ġfeed ing
Ġutil izing
Ġexec ution
Ġphilosoph ical
Ġprecise ly
Ġpersist ent
Ġdatas et
ĠTem ple
Ġ Î
Ġt ight
Ġc uisine
Ġp in
Ġn iche
ch ant
ĠG a
ĠO k
end ers
Ġtra cking
Ġass ets
Ġsun ny
ĠPre vention
uck y
Ġord ers
Ġpartners hip
ĠEnviron ment
Ġcompl iance
Ġsus cept
Ġearthqu ake
Ġbrid ges
Ġlas er
Ġworksh ops
Ġdipl om
% )
P T
P er
b el
Ġt ables
Ġt ropical
Ġc otton
Ġp ace
ul ative
ĠC ook
ĠI N
Ġex haust
ĠP rom
ĠB ig
ort ed
Ġ3 2
Ġprovid er
par ts
ards hip
Ġfriends hip
ĠBe ing
Ġz ones
Ġstrugg ling
ĠQu est
ĠRead ing
Ġhun ting
Ġtum or
Ġcampaign s
l ist
m m
Ġd ating
ce ans
ĠE r
ĠF ree
oc ate
ere n
Ġvar ied
icult ural
Ġvir uses
Ġsepar ated
ĠAg ency
ĠCommun ication
Ġadvoc ating
Ar t
Ġdestroy ed
ena issance
Ġoutd oor
Ġaftern oon
f iction
g ent
g ien
s un
s ize
Ġl oud
ir ical
ĠF ather
ĠL ead
oc ols
ree fs
ange red
Ġnum py
Ġfound ational
ĠPro per
Ġpublic ation
Ġcollabor ate
inc luding
! )
. ).
P re
s en
Ġt or
Ġb inding
Ġd ense
ĠS ud
ĠW al
Ġch air
oc cer
Ġro se
Ġrel ate
ian ts
Ġsign ed
Ġconf erence
Ġprof it
Ġground breaking
Ġsuggest ing
Ġmeasure ment
Ġprint ed
ĠIdent ify
Ġhero es
Ġrestrict ions
Ġoccasion ally
ð Ł
an i
Ġto oth
il a
ol k
ol itical
Ġg ases
ĠC ard
if ice
all ow
Ġpl acing
Ġspec ified
Ġorgan iz
Ġorgan izing
Ġhistor ians
Ġprin ting
ĠNav y
Ġsto pped
ustain able
Ġempt y
ĠIre land
B l
H A
S im
c re
p ed
Ġp ill
Ġd rought
ent ieth
ch ar
Ġcon ve
ĠM ind
ive red
oc a
Ġcomp ound
Ġimp ressive
Ġar med
Ġcomm ission
ric ts
ĠSt ay
Ġmod erate
arm ing
Ġfac ility
Ġvol tage
Ġwond ering
Ġdiagn osed
Ġmanip ulation
Ġmotiv ation
ĠOh io
Ġrough ly
Ġsod ium
Ġexplicit ly
Ġaccompan ied
Ġdisput es
sever ance
Ġunn ecessary
( "
b ooks
n om
Ä ģ
in ism
Ġo v
Ġn ice
Ġg aps
ĠB enny
ĠH and
ĠR am
ort ion
Ġsh op
Ġqu e
old s
ros pect
Ġdesign ated
Ġche ese
cent ury
ĠCan cer
ĠCl in
mit ting
ĠCons ervation
Ġvict ory
Ġenter pr
Ġdri ver
Ġvacc ine
Ġmyster ious
ĠSaf ety
Ġtact ics
ĠJam ie
ĠNever theless
ĠGeorg ia
6 6
l v
er ie
it ter
Ġn ose
im a
ch ange
em a
ĠP et
Ġsc ore
ook ed
Ġbr ill
Ġprof ile
Ġdra ft
Ġenh ances
Ġdescrib ing
Ġstat istical
Ġmedic ines
ura ble
Ġreview s
Ġprec ision
Ġinterview s
ĠPhys ical
ĠEmbra cing
Ġrac ism
p rodu
al so
as ant
Ġg aming
ĠT r
ist ers
ĠP lease
Ġcl ock
Ġpre y
Ġfol ks
Ġchar ts
Ġcor als
Ġfunction ality
Ġassoci ation
Ġnorm ally
Ġpriv ile
Ġconduct ing
Ġveget able
Ġpredict ions
Ġexpand ed
Ġhol istic
Ġfing ers
Ġmanufacture rs
Ġo m
Ġst umbled
ĠC ross
ad y
ĠB ased
os ph
ĠE p
ĠE valu
Ġne ck
ĠL ew
ĠInd ians
Ġoper ational
Ġdesc riptions
osp el
Ġpoint ed
ĠMed ia
ĠEm ily
Ġcelebr ated
Ġpan els
Ġspect rum
ĠVal ley
ĠOrgan ization
Ġphr ase
Ġproport ion
Ġritual s
b ran
i h
u ity
Ġp ix
Ġd y
ro t
Ġg if
Ġcon cl
el ihood
Ġv en
Ġr ic
ĠL u
ast ers
ach us
ĠJ eff
Ġro yal
ĠSt reet
Ġrel at
eg a
Ġfin ance
Ġdeep en
Ġwond ers
ĠMar ia
Ġdeb t
Ġunivers ities
Ġsav ed
Ġimmig rants
ĠNet work
pie ce
Ġpiv otal
se ll
im ents
Ġr ational
ĠL in
ang el
ail ed
ian ces
âĢĿ .
Ġshe et
Ġext ens
Ġcar ries
Ġorgan ize
Ġwrit es
Ġmin ute
ĠSh ow
Ġfa cial
Ġindepend ently
Ġsequ ences
Ġfant asy
Ġterrit ories
Ġenthusi asts
d ep
Ġm es
Ġm ur
ĠS ir
ĠS elf
iv als
Ġde er
ci ples
ac her
Ġr anges
Ġcl ues
akes pe
Ġbat teries
Ġcat tle
Ġarchitect ural
Ġadvoc ate
Ġshowc asing
ĠAv oid
Ġkit chen
Ġâ Ĩ
6 7
Ġb its
ĠC at
iv a
ĠR enaissance
Ġsp ices
Ġcont ents
Ġinc ident
Ġbl ind
ty pe
Ġimportant ly
Ġexist ed
Ġlo ose
ĠEst ab
Ġcandid ates
Ġsche dule
Ġequival ent
I L
e h
Ġw ars
ĠS everal
Ġpro hib
ĠE nd
Ġse vent
Ġat omic
ĠU r
ps on
ruct ive
ĠEn ter
Ġfall ing
ĠAg ain
ĠMod el
Ġgard ens
Un it
ĠProt ection
ĠWrit ing
Ġpursu ing
Ġcopy right
akespe are
J ohn
b ar
ou nce
Ġin hib
Ġe ars
Ġl oyal
ot o
ir atory
ag raph
Ġcom ics
ĠB ooks
ĠH a
ĠH or
ĠF red
Ġso vere
ress ions
Ġrem oval
Ġrep air
ern el
ool s
Ġview ers
Ġthreat ened
Ġsearch ing
Ġadvoc acy
Ġpu pp
ĠCam bridge
ĠVict or
b acks
Ġt ric
Ġo vers
ic acy
ĠA ri
if ier
Ġas ide
Ġv ote
ĠP ay
ĠL ight
Ġpl ain
ide o
Ġpre jud
Ġsystem ic
Ġass ume
Ġdep artment
Ġcompet ing
ĠUS A
reg ular
Ġhear ts
Ġshif ting
Ġgod s
ĠChic ago
C L
S u
T ra
Ġh orses
ur u
Ġcon qu
ri ze
Ġad versity
ĠCom ple
ĠIm plement
Ġbi ases
Ġflow er
Ġcapt uring
ann ed
Ġsent ences
Ġcivil izations
Ġparam ount
Ġdecre ased
Ġchann el
Ġasp ir
Ġtit les
9 9
R eg
b ec
Ġc ash
Ġp ond
Ġf ought
Ġf uels
Ġb es
ro ck
ĠC ulture
op t
ĠF ace
Ġint ake
ell o
ip el
Ġun ion
Ġper severance
Ġdi ag
Ġdel ivered
Ġop ens
Ġdev ast
Ġcal end
Ġcontinu ing
ĠPh ilos
gen er
Ġsuff ered
Ġbound ary
ĠRel ations
Ġupd ates
ias m
ĠViet nam
Ġlaun ched
: *
B S
L ast
N ote
R ep
k i
Ã ¼
Ġm ouse
Ġn ineteenth
ch arge
ĠS ection
ment ia
Ġcom ic
ĠP enn
est ed
Ġte ens
ang er
ĠSt ories
Ġinter ior
Ġ19 50
Ġinf ant
Ġprot ocols
Ġest ate
Ġleg end
Ġinvest ments
Ġmind fulness
Ġer u
Ġvisual ize
Ġachieve ment
Ġfair ness
Ġfacilit ating
Ġpregn ant
Ġcraf ts
ĠDiv ision
Ġic onic
Ġdut y
E ven
L astly
T w
Ġp ec
et ts
Ġn erve
im p
ĠC hem
av ed
Ġsome where
Ġpar as
mat ory
Ġfil ter
Ġenjoy able
Ġtransform ative
reg ation
ĠPart icip
Ġacqu ired
Ġgun s
ĠIr ish
opy right
U N
g ov
Ġb aking
Ġl ip
ig ation
Ġal ter
ĠD utch
ĠN ov
Ġext ends
---------------- ----
Ġvis ited
ĠPl at
Ġsimilar ities
Ġdom ains
Ġstru ck
Ġheav en
ĠOver view
Ġcelebr ating
Ġdefin itions
Ġdepend ent
Ġadap ting
Ġkid ney
Ġinher it
ĠHaw ai
Ġhus band
gien e
7 9
E d
b ration
Ġs occer
st ers
Ġg ate
Ġpro long
Ġal tered
Ġv ivid
Ġr u
ign ed
Ġtw ist
Ġprocess ed
Ġass ert
Ġdel iber
Ġwrit ings
Ġperform ances
ĠPl ant
Ġport ra
Ġclean ing
Ġcounter parts
Us ing
Ġmemor able
Ġille gal
E F
H z
p ress
it ory
Ġm ile
Ġl ake
Ġg al
ri um
ĠD a
Ġwhe el
Ġpo ol
Ġed ition
Ġpartic le
Ġprot agon
Ġaff airs
Ġoccur ring
ĠChrist mas
Ġview ed
ĠApp lying
Ġ15 0
Ġguid ing
aim ed
Ġste am
Ġrout es
Ġstream s
Ġreprodu ctive
Ġspl it
rolog ical
ĠBet ween
Ġvel oc
7 3
t rain
u ction
er as
ic an
Ġn om
ĠA ction
ir y
am ous
ĠI P
Ġwe igh
iz z
end ment
Ġcons ent
Ġinv ention
Ġclass mates
Ġplan e
Ġbo at
Ġmult if
Ġbi as
Ġphot ograp
Ġfert il
Ġsacr ific
ĠSecret ary
Ġnewsp aper
4 6
C M
W orld
i ating
t ons
es ity
Ġw elfare
Ġb orrow
Ġl unch
ir rel
ĠL os
ĠG ulf
Ġun e
Ġar rays
Ġman ager
form ed
Ġag ing
ĠCh apter
Ġsc an
Ġmod ified
aw s
ĠIm pro
Ġvalu ed
ĠAm azon
Ġsett lers
ĠCO P
Ġhyd ro
Ġinstitution al
ĠEconom ic
Ġwid th
Ġreven ue
ĠColumb ia
Ġreput ation
ĠNavig ating
E P
c or
l en
m ax
Ġre lying
Ġst rain
Ġy e
Ġcon j
res hold
ĠP ersonal
Ġint r
oc ated
Ġcomp act
ile m
ne um
Ġdes ert
Ġover view
ĠV an
Ġmin erals
ock ed
Ġlaw y
Ġdr inks
Ġter ror
Ġemb ed
Ġsuggest ions
Ġport ions
ĠTra ining
Ġseason al
Ġacqu is
Ġtap e
Ġgold en
Ġdecl ared
Ġisol ation
Ġprefer red
Ġenthus iasm
ĠMart in
ethe less
5 5
R el
p ically
u gh
Ġ urg
es is
Ġf ictional
Ġh oly
ĠI ran
ab s
ĠP resent
ĠH indu
ĠL astly
ast es
ost er
Ġte aches
ors hip
Ġprodu cers
fore st
Ġgu it
Ġmar ried
app ed
Ġ$ $
Ġste ep
ĠPre p
ĠPer haps
Ġconstruct ed
Ġpan el
ĠLear n
Ġburn ing
ĠDirect or
Ġpil ot
7 1
r h
r ink
s pe
Ġt ick
Ġc ues
ol ves
ĠS ounds
ag le
ĠP ur
ĠH T
ĠH oo
ĠV er
Ġany where
Ġdi ets
Ġbl ending
Ġcount y
verse ly
Ġ199 5
Ġjo ining
ĠSc ott
epend ent
Ġec o
Ġchem istry
Ġtarget ing
Ġdeg rad
Ġdest ination
Ġwarm th
Ġmamm als
Ġlik elihood
Ġnurt uring
L ear
a ci
g on
i ative
i ography
Ġb ike
Ġre aches
ĠM ic
ĠB ill
ud e
ĠN az
ĠN ote
ip h
Ġcons p
ph ones
Ġrem oving
ern ess
Ġpo ems
Ġref erences
Ġloc ally
Ġchar ged
Ġadv ancing
Ġcrit ic
ograph ies
Ġtreat s
ĠSh ould
ĠSh akespeare
Ġplant ing
Ġcontain ers
Ġreve als
Ġearl iest
Ġnutrition al
Ġconv in
Ġabund ant
Ġsched ul
pred ict
0 9
p ower
Ġs our
en cing
Ġf ut
Ġf illing
st r
Ġbe ans
ĠD en
Ġcomp aring
ĠJ ul
Ġtrans lation
Ġsci ences
Ġcare ers
Ġpress ures
Ġconsum e
ĠBl ue
Ġsepar ation
Ġflu ctu
Ġreason ing
ĠRec ent
iam ent
Ġadop tion
inc oln
Ġwat ched
Ġreci pe
Ġcook ed
Ġsurve illance
Ġartif acts
0 7
_ {
in als
Ġc ups
Ġp ull
Ġf usion
Ġg rat
ig an
ĠA ff
Ġcon ventions
ad or
ĠM en
um er
Ġle an
ĠE ss
ĠR ather
so le
rit is
ĠY e
Ġsur g
Ġfl ash
Ġcal cium
Ġ199 3
Ġguid ed
Ġexec utive
ĠOther s
ĠRo ad
Ġax is
Ġcos m
Ġoverwhel ming
Ġhes it
s we
Ġt ies
Ġp airs
om eters
Ġde mentia
ac ent
ac eted
Ġch am
un a
Ġpl us
Ġper ceptions
Ġro oms
ree k
Ġdisc om
Ġmod ifications
Ġsk et
con f
Ġaut ism
Ġadv is
Ġident ical
Ġrepresent atives
fort able
Ġsuper hero
Ġult imate
Ġtrust ed
Ġclaim ed
Ġir rit
Ġstri ke
Ġfra ction
Ġautom atically
Ġtour ism
iot ics
achus etts
Y es
b ell
i at
u its
v as
Ġs le
Ġg ap
ad ed
ĠR us
Ġso y
Ġk ne
In st
âĢĿ ,
Ġsm iled
Ġsee ks
Ġfact ory
Ġiss ued
Ġele g
ock et
ĠAll aah
Ġintrodu cing
Ġprior ities
Ġfear s
ĠChar acter
Ġrare ly
Ġimmig ration
Ġelim inate
Ġshell s
dis ciplinary
Ġvig il
T S
s ub
Ġre nder
Ġbe ef
ĠM az
Ġhe nce
ac hers
Ġen orm
ĠF a
ĠF riend
Ġsp ots
ĠL ie
Ġunder p
ific ent
ail able
Ġrec all
Ġins ulin
eng er
Ġ4 00
ĠPro ble
Ġmaintain ed
Ġoptim ize
ĠTra ditional
Ġadop ting
hem es
Ġunf amiliar
Ġupd ate
Ġhol iday
Ġmob ility
ĠBudd hist
ĠHall ow
Ġmitig ate
Ġsurve ys
Ġcardi ovascular
Ġnumer ical
A m
R C
s es
u um
Ġp ale
Ġre cept
Ġre wards
Ġst ations
ĠS ound
ĠC ra
ist ant
ke ep
Ġint im
Ġwas h
ĠIn nov
Ġbl o
Ġgl uc
Ġconst itute
Ġreflect ed
Ġwood en
Ġappl ies
Ġsect ors
Ġmother s
Ġgar lic
ĠTest ament
ĠCub a
Ġoffic ers
O r
O s
k ind
v ant
w an
Ġ %
Ġw ound
Ġp y
ar io
Ġor th
ĠB ur
ĠR est
per or
ast ed
Ġtra ct
Ġrec onst
Ġgen us
Ġpol ar
Ġmain stream
Ġjour neys
Ġ199 4
Ġhard er
Ġcommit tee
Ġopp osition
Ġcivil ization
Ġdial og
ĠKing dom
Ġshowc ase
Ġhousehold s
Ġpuzz le
Ġbask et
V AC
b ul
v ard
ou l
se x
Ġst ems
ĠC a
Ġas c
Ġwh ales
ĠM es
ain ing
ĠW ord
Ġint ention
Ġres c
Ġtra ce
Ġrec ording
Ġpers u
ĠAl tern
Ġdel ving
Ġdirect ed
Ġwar fare
Ġmen u
Ġconsist ing
Ġabs ence
Ġwa vel
Ġlog ical
Ġtax es
Ġfeature d
Ġnu ances
Ġrelax ation
Ġbow l
Ġtoler ance
ĠFram ew
Ġdiscom fort
9 5
B ecause
b its
l ast
t able
Ġt ank
Ġc ran
Ġw ider
Ġp ap
ent ral
ĠL ine
ĠL uther
Ġcomp at
Ġapp s
Ġpe pper
Ġinter sect
Ġgra vity
ran ean
Ġ199 2
Ġmind ful
ĠAf gh
Ġsil ver
Ġhighlight ed
hab ilit
Ġdisplay ed
ĠConf erence
amil ton
Ġabsor b
Ġaest hetics
ĠDiff erent
Ġcha os
ĠImport ance
Ġdil ig
B ased
O L
S m
d f
f ile
r ance
ou ds
Ġb uck
ar ious
Ġh all
ĠA bs
ĠA uthor
ĠC lick
ĠB ir
Ġch ap
ical s
oc y
oc hem
Ġimp osed
Ġtra ding
Ġneed le
Ġdi ver
Ġtrans mitted
Ġappro ved
Ġreal istic
Ġbelie ves
Ġmet icul
Ġbus y
Ġassoci ate
Ġeconom ies
Ġfour th
ĠSu ccess
mar ks
Ġcateg or
Ġresid ential
Ġpeace ful
Ġconclud ed
Ġassemb ly
Ġpropos al
Ġspir its
Ġsatell ite
Ġhorizont al
Ġpec ul
4 2
6 8
B M
w orth
Ġp ets
om on
Ġn odes
ol ism
ig ion
ĠM os
ĠM aking
Ġde leg
ĠF un
ĠL incoln
ĠN ar
rib ution
vent ually
Ġconf irm
Ġav en
Ġsupp lements
Ġfriends hips
reg on
Ġcele bration
ĠPer form
Ġbur ied
ĠTy pes
Ġmanip ulate
Ġelev ated
ĠBo ard
ĠScient ists
ĠMass achusetts
oca ust
7 4
P s
S L
v a
w ords
re ction
Ġw elcome
is ons
ĠN orm
ĠN eg
Ġexp enses
ĠHe art
line ar
Ġpain ful
Ġemploy ing
Ġmagn ificent
Ġacknow ledge
Ġdri vers
Ġclub s
Ġrow s
ĠBat tle
Ġske pt
ĠLabor atory
Ġhybr id
ĠLew is
C re
D on
E ng
e or
h uman
v in
Ġs ending
Ġo ceans
Ġp ounds
Ġb ag
Ġto t
Ġy ields
pp ers
ĠE PA
Ġar rest
Ġunder go
Ġacc idents
Ġcomple ting
Ġown ed
Ġcap s
Ġphys ic
ĠEn cyclopedia
Ġtal ent
Ġglob ally
Ġ$ \
Ġplant ed
sh aped
ĠRef erence
Ġaest hetic
Ġsacr ifice
Ġcorrel ation
Ġentreprene urs
( '
b et
b uilding
e u
o a
o vers
z er
Ġc ounts
Ġo l
Ġd ict
st on
ĠT urn
ot ing
ĠS qu
ad der
ĠB C
ĠB ody
ĠF ire
Ġint u
Ġr ide
Ġsh orter
ous es
ia h
Ġ19 20
Ġsc ope
ĠK en
Ġpr ide
Ġdist ricts
ĠSp ring
az e
Ġtre asures
Ġdr ives
Ġcharacter istic
ĠWith out
Ġviol ent
Ġord ered
Ġexcept ional
Ġsav ings
ĠBudd h
Ġtherap ies
Ġdim in
Ġauthentic ity
Ġdin ner
Ġpreval ent
ĠEngine ering
Ġorganiz ational
4 3
7 2
D F
d ess
m ind
p ip
u an
Ġt ons
Ġs ister
Ġf ans
ol er
Ġpro x
op l
op er
Ġne ur
pl ant
Ġsh oes
Ġte ch
ress es
Ġqu ad
ons in
Ġreg ression
Ġprov en
Ġph on
Ġamong st
Ġprof iles
sy lv
Ġindic ated
eff icient
Ġcry pt
Ġmaxim ize
place ment
Ġdin osa
Ġsen ior
Ġbibl ical
ĠGuid elines
" "
+ +
I F
a ver
r int
Ã ¶
il ib
Ġl aughter
Ġu pl
ir ms
ay lor
Ġan ger
ab eth
Ġse asons
Ġinter play
Ġcre w
Ġpos es
Ġsub t
Ġinf ants
Ġform ats
Ġspe eds
Ġbr ush
Ġdef end
Ġmon u
Ġleg it
Ġcomput ational
ĠEng aging
Ġlim iting
Ġcirc les
isc onsin
Ġwind s
Ġthr iving
Ġir regular
Ġadminist rative
Ġscreen ing
Ġrot ation
ĠFore st
Ġrom antic
ĠMove ment
sylv ania
v it
Ġt ong
Ġw ra
ĠT ri
ĠA T
her ing
iv ate
art ed
ĠN ob
ĠY t
Ġreg ime
Ġread ings
ĠSe lect
Ġones elf
Ġbur den
acc o
Ġincred ibly
Ġjud ge
Ġrepe at
Ġbul lying
Ġwet lands
Ġprosper ity
8 5
B ack
R ead
p ass
t ics
in ition
Ġf isher
Ġb inary
Ġd ys
il ly
id ers
Ġal ien
ain ts
um ph
ĠE U
og s
ĠL ocal
ĠG iven
ĠJ ava
lud e
eng ths
aw ay
Ġmem bran
Ġpur sue
Ġprogram me
Ġrest ore
Ġarr ive
ĠMar x
-------------------------------- ------------
Ġsett led
Ġindic ating
Ġhon est
Ġpreserv ed
Ġrout ines
ira ble
Ġbox es
Ġtrig gers
ĠSer ver
____ ____
Ġvolunte ers
urric ane
Ġfurn iture
ĠOx ford
ĠPalest in
nom ial
Ġmultif aceted
d ers
it ize
Ġd ilem
Ġto mat
ĠM ess
Ġse gment
Ġwere n
Ġdes k
Ġsc ales
Ġtw elve
Ġac res
Ġread ily
ĠAl aska
Ġresp iratory
Ġgu ides
Ġcrit ics
ret t
Ġsever ity
Ġmean ings
Ġpass ive
Ġcreat ure
Ġobs c
roll ed
Ġpredict ed
Ġintellig ent
ĠOb ject
Ġther mal
Ġsho pping
Ġmir ror
Ġuncom fortable
ĠJac ob
ĠPenn sylvania
Ġpecul iar
T y
c os
r d
Ġt ube
Ġp itch
Ġf o
Ġg am
ĠF ield
ĠD own
ĠG ar
ĠO regon
ib n
Ġdi vers
Ġdist ress
oura ging
Ġsl aves
Ġcal ories
Ġname ly
Ġsens or
Ġsens ory
Ġbal ancing
ĠSy m
rict ion
Ġtravel s
Ġprogress ive
Ġreason able
Ġsymb olic
Ġassess ments
Ġdocument ation
Ġprior ity
Ġang les
Ġunf old
Ġattempt ing
Ġsus pect
Ġcalend ar
S M
b ow
f irst
h ot
o ids
s um
or ient
Ġf an
ic ular
ol is
id ays
ig er
ig ue
ul ent
ay er
ĠC ond
Ġal lev
ĠM id
ĠM ental
Ġv ow
est eem
iz abeth
ĠO wn
ater al
Ġcol ored
ĠY ear
ĠCon c
Ġfound ations
Ġpar agraph
ĠRe qu
Ġ6 5
Ġdevelopment al
ploy ment
Ġpersonal ized
Ġcr ust
Ġbig gest
rig ation
Ġwal ked
Ġsqu irrel
urt les
Ġcolon ies
Ġshall ow
ĠCre ating
Ġvill ages
ĠPers pect
Ġstim ul
Ġaccommod ate
Ġscat tered
Ġlemon ade
ĠAfgh an
6 3
L e
f unction
Ġc ab
Ġm old
ĠS und
if er
Ġor ange
ĠP ass
ĠF ar
Ġinc ent
Ġme ets
Ġrel atives
row th
Ġgen etics
ins on
ather s
Ġvis its
com mun
the w
Ġpresent ing
Ġpublic ations
Ġassoci ations
Ġtri umph
Ġinvestig ations
Ġmagn itude
Ġcop ies
ym ph
ĠEgypt ian
ĠAdd ressing
Ġtransp arent
Ġvolcan ic
Ġsurg ical
d i
m id
v o
Ġ {
Ġt u
ic ations
Ġm ice
Ġth reshold
iv ities
ĠH osp
ĠL uc
ip olar
ĠJ an
Ġpo et
Ġ4 8
io x
ĠEn s
Ġdiv ide
Ġla unch
ĠComp an
ĠExpl ore
Ġsn ipp
Ġsurpr ised
Ġtrig ger
ĠMary land
Ġstret ch
Ġcandid ate
Ġemotion ally
Ġrhyth m
Ġconfir med
Ġelder ly
Ġbrill iant
ĠFace book
ipel ago
Ġacquis ition
P ost
S ec
h ire
Ġt ied
Ġd airy
Ġre vel
Ġre now
im edia
Ġst itch
ĠM rs
ĠThe rapy
ĠR ight
ĠL y
ang ers
Ġinv asion
Ġany more
Ġob esity
ps y
Ġconf ront
Ġca ution
Ġrest oration
Ġinteg rate
Ġthought ful
Ġpost s
ĠCent ury
Ġnut s
Ġadapt ive
Ġpay ment
Ġdiv isions
Ġcam eras
Ġattract ive
ĠTreat ment
Ġlib eral
ĠSen ate
Ġstead y
D L
i ary
ĠT ip
ch ild
Ġcon d
ĠE nt
Ġad herence
Ġres erved
ib bean
Ġun pre
Ġem it
Ġrel ie
lic t
Ġinf in
Ġconf ron
Ġdef ault
Ġche cking
Ġbo ats
Ġfin ish
Ġel abor
Ġter rain
aut hor
Ġcirc ulation
Ġground s
ĠJust ice
Ġadapt ations
-------------------------------- ----
Ġlif etime
Ġappe aling
Ġfoot ball
He alth
ĠAlex ander
Ġelev ation
Ġlabel ed
Ġking dom
ĠKnow ledge
Ġfirm ly
ĠFollow ing
ĠWild life
spec ific
Pe ople
Ġembed ded
E very
S ub
m ans
n um
v als
y ard
z one
Ġm ine
Ġre ign
ra v
Ġbe at
Ġbe ll
ĠS on
am ins
Ġex ac
iv est
ĠP ap
ĠW isconsin
Ġsh ores
our ing
The n
Ġunder m
Ġqu arter
Ġag ent
Ġdist ract
ĠHe y
Ġed itor
Ġreal izing
Ġelect rons
Ġunt o
Ġhy giene
ane ous
ĠSc ript
ĠGen er
ĠRep resent
-------------------------------- --------
ino is
Ġheight ened
Ġdram a
ĠSpec ies
ĠMount ain
ĠHol ocaust
Ġapparent ly
Ġexac erb
\ _
a us
ic on
om pson
ĠC irc
ĠP en
ĠP rim
us hes
ĠB u
rom agnetic
ĠH VAC
ĠH amilton
ĠE ve
ĠF igure
Ġj azz
Ġman agers
olog ically
chn ology
Ġco zy
Ġph ases
Ġgener ator
Ġcontrib ution
Ġoper ators
Ġtal ents
Ġrece ives
Ġvol umes
Ġindic ators
Ġremind er
Ġpurch asing
iling ual
Ġdatab ases
Ġsettle ment
Ġcontrovers ial
ĠColor ado
ĠFreed man
Ġgif ts
. ;
6 4
R L
a fter
i king
p any
r ass
re ll
on ent
Ġw oven
as m
Ġg ains
ĠS up
Ġal gebra
th is
Ġhe al
oc c
act ly
Ġfe ver
Ġag ed
Ġpo ets
Ġsim ilarly
eng ers
Ġfun g
ĠAl low
ĠPro duct
br is
Ġlow est
Ġpath ways
ĠPre par
Ġwood s
Ġfat ty
Ġacqu ire
Ġpen al
ĠAng eles
Ġvulner ability
Ġsem i
Ġpassion ate
ĠCle an
ĠMich igan
ĠScot land
Ġconcl usions
( [
U p
Ġt ire
Ġc ope
Ġp neum
Ġd uration
ur se
Ġst ack
ĠS n
ag an
ci a
ill age
Ġse es
Ġat om
ĠR isk
Ġsp in
ĠN ic
oc ent
ans as
Ġall ocation
Ġcl ay
Ġinter bre
Ġra ises
ced ented
Ġrep et
ĠV en
iss ipp
Ġeng ines
Ġdef ects
ĠEx ec
Ġexplore rs
rat ulations
Ġrest ric
Ġmil est
Ġobs er
Ġcr imes
Ġcontinu ously
Ġemerg ence
iter ranean
Ġinput s
Ġadjust ments
ĠProt est
Ġalign ment
Ġabsor ption
Ġearn ed
Ġearthqu akes
Ġmyth ology
ropri ate
Ġpand emic
G S
R ed
U C
f ol
in er
Ġs ulf
Ġf ed
ro ts
ĠT own
th ood
ĠM ot
ĠP M
ĠP ain
op es
Ġle cture
Ġse af
all ing
ĠG ame
vel s
Ġout line
Ġinter val
Ġreg ulate
Ġsc rat
ĠK h
Ġpr ime
Ġdec ay
Ġgl ance
Ġorgan ism
Ġend angered
Ġchalleng ed
Ġplan ets
rat or
Ġver b
Ġemphas ized
Ġcop ing
Ġconstruct ive
ĠPract ices
Ġcontract s
Ġdatas ets
rep resent
Ġsau ce
Ġdepict ed
ĠâĨ ĳ
A G
k er
p ers
v y
Ġc ave
Ġin ev
ro at
ol ved
ab out
Ġde bris
ĠB oy
Ġch at
est inal
Ġinc idents
iff s
Ġcar ing
ĠSo ft
Ġsl ide
Ġel ig
yn asty
Ġsing ing
Ġsum mar
pro fit
sh ore
Ġvers atile
Ġann ually
Ġinstall ation
Ġconstruct ing
Ġingred ient
Ġexhib ition
Ġunf air
Ġbeg un
Ġabund ance
ilib rium
G et
N ET
m us
á ŀ
at ers
Ġp ine
Ġf ats
om et
ĠA R
ĠA ud
ĠS anta
em ia
ĠB a
ĠR and
olog ic
Ġbut tons
Ġval ley
Ġinf er
Ġphys icians
Ġanim ation
Ġmar gin
Ġproduct ive
Ġarr anged
Ġtransform ations
Ġengine er
Ġmor ality
hy d
Ġmic roscop
Ġdro pped
Ġprev ents
Ġhaz ard
Ġimmers ive
ĠIll inois
Ġperpet u
usal em
n on
r ut
Ġt ort
Ġc in
ing er
Ġf ancy
Ġg ran
ĠC ool
Ġal le
ĠF re
ort heast
ĠL ove
Ġtra cks
Ġdi arr
Ġtrans actions
erm an
Ġdist inction
Ġcare g
Ġanal og
Ġbro ke
ĠCol lect
ĠCl ub
Ġsuper natural
Ġquestion ing
Ġoil s
den ly
Ġattrib uted
Ġpray ers
Ġfrag ments
Ġsocio economic
Ġble eding
Ġweakness es
Ġlever aging
Ġs orts
or us
ed ed
Ġth row
Ġl augh
as hes
ra ge
ch ron
Ġex otic
ag g
Ġch amp
Ġapp le
Ġar ises
ĠCh arl
Ġeff icacy
Ġprov ision
Ġco ating
Ġsm ile
Ġfl ag
Ġcreat ors
Ġhand y
ik ip
ĠMar ine
Ġopp osed
Ġimag ined
Ġgrad es
ĠConf ed
ĠPol itical
Ġcook ies
Ġcoord inates
Ġdram atically
ht aking
Ġneighb oring
EN T
Ġcryst al
Ġpreval ence
Ġtom orrow
ĠHallow een
M an
Ġ ||
at ility
Ġin ch
Ġm issions
as hed
ĠT able
Ġv ine
Ġwe ights
Ġsh ots
Ġdis sem
Ġpre cip
ĠK enn
ues day
Ġ3 3
Ġsub mer
Ġloc ate
Ġopen ly
Ġresearc her
Ġincorpor ated
Ġsympt om
ĠMe chan
ilit ary
pre hens
Ġbreat htaking
Ġmix ing
Ġquant ity
Ġfundam ent
Ġadvoc ates
Ġcoord ination
Ġthick ness
ĠAD HD
Res earch
Ġagg ressive
ĠBas ic
ĠStand ard
Ġdispar ate
ĠMiss issipp
ĠGold en
Ġgradu ate
ĠAgric ulture
Ġgluc ose
iox id
Ġunpre cedented
ivest ock
b a
Ġt ends
Ġs ale
Ġp ou
le an
Ġh at
ir l
ĠS QL
od ox
ter ior
Ġr ank
ĠG rad
Ġman usc
Ġunder ground
Ġinv asive
ĠK ent
Ġvar ies
Ġsystem atic
Ġinvest ors
20 12
Ġwar rant
Ġconvers ion
Ġschol arly
Ġtim ing
Ġtim eless
Ġattrib ute
Ġpun ishment
Ġparalle ls
Ġcere mon
ĠJer usalem
Ġdut ies
Ġresol ve
oust ic
Ġrenow ned
C S
G e
p age
u ct
Ġc ited
ou nder
Ġm im
om ers
Ġh am
ur ally
ĠS us
ĠI V
ad el
ĠF air
Ġat tain
ĠTh ompson
Ġso ils
Ġind irect
Ġinter p
ob ia
Ġpos ed
Ġsim ulations
the y
ĠEx ample
Ġes cal
Ġnecess ity
ĠCent re
Ġcut s
Ġopp ression
ĠHar vard
Ġcitiz en
Ġir re
Ġur ine
Ġhop es
Ġconstit u
Ġunlike ly
Ġnit rogen
Ġnod ded
onym ous
Ġgram mar
Ġveloc ity
D isc
i ac
w estern
Ġt urtles
Ġthe ater
ic o
Ġm os
Ġd ental
Ġto b
om ed
ĠT ext
ĠM arsh
Ġhe ated
iz ers
Ġwor n
ĠL ess
Ġcl ouds
Ġ19 30
Ġbl ank
Ġext rem
Ġrespect ing
Ġground ed
ĠInt erest
Ġtransform ing
Ġinvestig ating
Ġsolid arity
Ġgard ening
Ġminor ity
Ġafford able
Ġtransc end
Ġflo ating
Ġconfident ly
Ġgro cer
Ġhaz ards
Ġforg ot
Ġpharm ac
emb ered
Ġdism iss
ikip edia
N e
T ime
j o
z ona
Ġc ub
Ġb ite
Ġb ars
Ġm erg
Ġd ried
Ġe cho
im ity
ce pts
Ġbe ars
ĠA IDS
ies el
ment ed
Ġal leg
ĠH ill
Ġsh ipping
ĠG all
ĠO ly
Ġk ernel
Ġapp les
Ġper mit
Ġpart ly
ĠSt ill
ict ure
Ġ3 8
ĠUn ivers
Ġent ails
Ġdef ines
Ġ201 6
oh yd
ran ch
Ġdesc end
Ġjour n
val ues
light en
Ġmass es
Ġatmosp heric
Ġrain fall
ĠDi agn
ĠMuslim s
Ab out
Ġfring ed
Ġchrom os
Ġenorm ous
Ġtob acco
0 3
E m
T M
T rans
f old
Ã ±
Ġt sun
Ġs or
at ab
im als
Ġy arn
ĠC orpor
ĠI F
qu es
ĠP ak
ĠE ll
ĠF amiliar
Ġwor ried
Ġcl arity
ĠIn sp
Ġstr ings
Ġart ic
Ġass im
Ġgl ue
Ġ5 5
ĠInd ividual
Ġrepresent ative
Ġcirc ular
ĠMed iterranean
Ġfa ult
epend ence
ĠTra de
Ġsurv iv
ucle ar
Ġspiritual ity
Ġcoord inate
ĠTy pe
Ġstrengthen ing
Ġsubs id
Ġcompos itions
Ġnecessit ates
Ġdiam eter
ĠPrep are
swe red
ĠMaz da
C ar
E E
n ames
p ace
Ã ¢
er am
Ġs lic
Ġw ings
Ġm apping
Ġd ign
Ġst ir
ĠC ult
ist le
iv ic
ĠP ast
Ġch lor
um my
ri ad
ĠE ventually
Ġr um
ĠL ee
ĠN O
Ġpl ots
Ġcont empl
Ġdis asters
du ction
Ġj ew
ish op
Ġrel ies
Ġrel ates
Ġpr iest
Ġwhere in
Ġdec iding
Ġgra y
Ġmet als
Ġappreci ating
Ġemp irical
Ġnet working
Ġanaly zed
Ġreturn ing
Ġcra ck
Ġprec a
Ġillust rated
Ġrespond ing
Ġutil ized
ĠIdent ifying
semb ly
rolog y
Ġshel ter
do ors
Ġunw anted
Ġconven ient
Ġgrapp le
Ġende avors
Ġoutbre ak
ĠFramew ork
habilit ation
mind ed
% .
I G
e le
o ked
Ġ rib
Ġc ow
or b
Ġp ediatric
Ġh o
Ġl ob
ur ring
ĠT aylor
ot ional
ĠS ong
Ġcon vention
ag ger
ĠB ern
ĠB CE
Ġse as
ĠF em
ĠR ams
og ens
Ġtra ject
ĠSt an
ĠV o
ues ts
Ġ3 9
Ġatt itude
Ġgener ates
Ġorig inated
Ġrest ing
Ġver bal
Ġassess ing
ĠSchool s
Ġdetect ed
Ġvirt ually
ĠEl izabeth
Ġrevolution ary
ĠLouis iana
Ġallerg ies
Ġmetric s
Ġprolong ed
Ġgrat itude
? !
C ong
E ach
I M
P L
T C
T H
w id
Ġp estic
Ġm m
Ġd ose
Ġh ide
Ġre verse
Ġg low
Ġwith d
Ġor bit
ĠM inn
ĠW orking
ĠN ame
Ġpl ates
Ġwas hing
Ġinter medi
Ġsc al
Ġsc hemes
Ġdisc l
Wh o
Ġtre m
Ġsupp ose
Ġsl ave
Ġdev oted
ĠX ML
Ġfat igue
Ġaccom pany
Ġju ice
ĠAdv anced
Ġreplace ment
Ġic on
Ġcomprom ise
Ġelectron ics
Ġvac uum
health y
ĠKore a
Ġswim ming
ĠBeg in
Ġautonom y
8 00
G l
U R
b ility
d y
Ġa rom
at i
Ġm ail
Ġm ature
Ġn ights
ra ine
ĠS M
ĠC r
Ġan swered
od ed
Ġal oud
ĠM aterials
un s
un icip
ĠD iet
Ġph ones
Ġph osph
Ġsur ge
Ġimport ed
Ġcent re
Ġ4 4
Ġpot ent
ĠAd am
Ġmon arch
ĠEx c
Ġche cks
Ġelect ions
Ġve ins
Ġsl ight
Ġ[ ...
plic ity
Ġemploy ee
Ġarr ival
Ġaccount ing
sc ill
Ġgain ing
Ġbreat he
Ġpack age
Ġgraph ics
Ġadjust ing
Ġenab led
ĠWilliam s
ĠSur vey
oty pe
Ġpick ed
ĠNum ber
Ġaccompl ished
Ġencomp asses
Ġsche me
ĠGa ussian
0 8
g red
in ery
al i
Ġb are
ar king
Ġh ip
Ġh ung
ro b
Ġg reet
ĠS E
ĠS em
Ġcon form
ĠC old
Ġas ks
ĠH old
ĠD O
ĠD omin
ĠD ocument
ĠN E
Ġup set
Ġinst ant
oth ing
Ġac ute
In ter
Ġbu ff
Ġpat ri
Ġext ending
ĠAn imal
ĠEng age
Ġcell ular
Ġview points
Ġpred omin
Ġprop he
Ġinteract ing
val ue
wh o
Ġappropri ately
Ġstrugg led
ĠPer iod
Ġpack aging
Ġsynt hetic
ĠTur k
ĠÂ ©
Ġphr ases
Ġther m
ĠDist rict
ĠInvest ig
" ?
a cial
f ly
f oot
s is
Ġt anks
ar ms
Ġm ira
ra nd
ĠS ustainable
ĠC ost
ĠC orn
ĠI T
ĠW ars
rou ps
ĠF AS
og ical
ip her
Ġ19 00
rib le
Ġrem embered
ĠCom par
Ġequ ilibrium
ax is
Ġcontinu ity
Ġconsum ing
ĠReg ional
Ġpow der
Ġtrib e
ĠBi ology
ĠLeg al
Ġdisapp oint
Ġarrange ment
Ġenem ies
Ġexplo itation
ĠBuddh ism
Ġsnipp et
ĠOly mp
lighten ment
" ;
L ike
b low
m ond
s im
Â ·
Ġs ch
it i
Ġp or
Ġl ying
Ġl ux
ĠB an
ĠB ab
ĠB rain
Ġch ains
ĠH aving
Ġsp ons
Ġr ival
ĠL ater
âĢĻ ,
lud ed
Ġoff ices
ĠK ids
uc id
Ġke ys
Ġshe ets
Ġvis ibility
read n
Ġide ologies
Ġhistor ian
ĠRes earchers
Ġer osion
ĠCl ark
pro cess
Ġ198 9
bre w
Ġdang ers
Ġnutri ent
Ġcompassion ate
Ġnegot iations
ĠStand ards
ĠHel p
ĠAppro ach
Ġfro zen
Ġattach ment
ĠMississipp i
i atric
k ay
s ues
Ġf ont
Ġb ills
Ġd ow
Ġst ays
ĠS aint
ag en
ĠM oses
ĠB acon
ac ular
ĠH ung
nt y
ĠD eterm
ĠN ap
pt oms
ĠU k
Ġcomm od
Ġunder water
Ġfe es
ph abet
Ġprov isions
tain s
Ġeven ly
aw a
Ġmy riad
Ġcount ing
Ġmat rices
Ġpres cribed
Ch rist
Ġhome work
ĠDe b
Ġrele asing
Ġrespect ful
Ġregard ed
ĠBe havior
Ġsust ained
Ġfram es
Ġpoll ut
Ġsexual ity
ĠInc re
Ġpul se
crib e
Ġneighborhood s
eles cope
Ġoverwhel med
Ġregist ered
Ġrecy cling
Ġadj acent
ĠAri zona
Ġdevast ating
Tw o
0 6
= '
A F
D P
I R
Ġ ðŁ
or rect
Ġf ires
Ġb ags
ar ians
Ġin k
Ġh ills
Ġg er
ĠS ens
Ġis lets
ĠH em
ĠE s
Ġne at
ĠD rug
Ġher b
ĠWh ich
Ġcontin ent
ĠAd vent
Ġconnect s
Ġ201 7
Ġold est
Ġrespect ed
Ġtri ps
Ġgr anted
Ġanaly tical
Ġcalc ulations
ĠDevelop ing
ĠEd ward
Ġrein force
ogen ic
Ġelement ary
Ġdisp ers
ĠVol ume
Ġimper ial
ĠDraw ing
Ġstew ardship
ĠNut rition
Ġsuscept ible
ĠLin ux
ĠSup reme
0 2
D id
W here
h igh
o ard
s he
in stein
es ota
ar ad
ar ry
Ġd ual
Ġre ass
Ġl oves
id al
ig nty
Ġal arm
ci ation
ill ion
ĠH arm
ĠF arm
ĠD ie
ĠL ands
du ate
Ġpart ial
Ġinter rupt
ond ay
Ġref rig
Ġtre asure
Ġbo ards
Ġoper ates
de velop
Ġfrequ encies
Ġdiagn ose
Ġremind ed
ĠIsrael i
ĠEnc ouraging
Ġnurs ing
Ġseam lessly
Ġdisagree ments
ĠCreat ive
$ ,
5 2
9 8
B A
P E
c asts
f ront
g ian
w as
in ence
Ġp el
is ible
Ġf ate
Ġm elt
Ġl oving
ra id
ra ndom
ect ed
ĠP oly
ĠB est
Ġen ric
og ram
Ġcan cers
Ġar ising
ĠJ ane
Ġcomm ands
au c
ob ile
Ġtw entieth
Ġhum idity
Ġcomple tion
ĠAl f
Ġclass ified
ĠInd ones
Ġpass es
Ġspecial ists
Ġtradition ally
20 10
Ġemp ire
Ġconsum ed
ĠApp le
Ġlay out
Ġreview ed
Ġwin ning
Ġir rigation
Ġiniti ative
Ġ194 0
Ġinfect ious
Ġsou p
Ġassist ant
Ġlic ense
Ġbrief ly
umin um
Ġscar ce
Ġconstitution al
Ġunl ock
Ġjurisd iction
Ġgal ax
. ),
M ean
b ies
g overn
l i
l ide
w l
w ich
at oes
it o
Ġp od
Ġp ric
ig ration
ĠC ast
ers hip
Ġal ert
ĠH op
ĠN eed
Ġimp aired
Ġcl osing
ĠSt ation
Ġra ces
Ġgen ius
Ġatt or
Ġfirst hand
Ġloc als
Ġprog ression
ĠAr men
Ġ= =
Ġphys iological
Ġtal ked
Ġreact or
Ġflu ids
ĠMat thew
itz er
Ġspark ed
Ġrecon cil
Ġneut ral
Ġsubmer ged
adel ph
C o
F C
f ire
Ġt rick
es ter
Ġf irms
Ġd ancing
om eter
Ġre nt
ig inal
ĠT ools
ĠS av
ĠS earch
el and
am an
ad vant
ĠM ath
Ġsu g
qu arters
ĠP rior
Ġen vision
ĠH ot
ap ore
Ġsh ru
Ġwor st
Ġso ap
Ġinc ons
Ġtime ly
Ġam ple
Ġco hes
Ġ3 7
Ġins uff
erg ies
ĠHe ad
ĠFor ce
Ġend ing
Ġfac ulty
Ġcle ver
Ġca ut
Ġret ail
Ġhistor ically
Ġpain ted
Ġneg lect
Ġple asure
ĠRef lect
ĠIdent ity
Ġstorm s
Ġdim ension
ĠEffect ive
Gu id
dep th
orient ed
D ep
H S
M ar
O D
c s
c ents
m etry
u ce
Ġt asty
Ġa ug
Ġc ough
it ics
Ġin qu
le te
ver ages
el ly
th ur
ĠM S
ĠM other
ĠP oint
ĠW as
ĠW ay
Ġr ush
Ġim bal
ĠG raph
pt ed
Ġun ited
ĠU nderstand
Ġtra ced
Ġinter faces
Ġreg ister
Ġ3 4
Ġ4 2
Ġmus h
Ġant ioxid
ug s
Ġfund ed
ĠZ eal
Ġsitu ated
ĠCent ers
Ġlif el
Ġgather ings
ĠRel igion
Ġcommer ce
ĠJour ney
ĠMat hemat
Ġconcent rations
Ġpoly nomial
Ġpursu it
Ġepis odes
Ġseg ments
adelph ia
A c
F ollow
c ount
u ation
Ġre vers
Ġl on
Ġl akes
Ġl ivestock
ol i
im en
Ġst er
Ġsu icide
ĠP ue
ĠP ath
ke ley
ĠB h
ac hel
Ġle ts
ĠR ay
Ġr ating
Ġyour s
ard less
au g
Ġexpl os
Ġmod ule
eng u
Ġperson ally
Ġshould n
Ġresearch ing
Ġelect romagnetic
Ġes cap
ĠTe ch
Ġbrain storm
Ġver t
ĠAct ivity
Ġcompan ions
Ġadminist rators
Ġvit amins
Ġamb ig
ĠJeff erson
ĠAfghan istan
ĠSund ay
gred ients
W all
W rit
b our
f ts
g reen
i y
in ator
at re
ch ain
am ine
Ġan est
ĠM IT
ĠH ait
ĠO p
Ġdes ires
Ġco ins
ef its
ĠV it
Ġspec ify
Ġed iting
Ġfollow ers
Ġconf used
Ġconf using
Th ink
Ġlist ened
ĠSh ort
Ġgr ants
ĠInt ellig
Ġoffer ings
Ġeth anol
Ġcy cl
Ġpub l
ĠLe ague
Ġmag azine
Ġfail ures
ĠPe ace
Ġillust rations
Ġweek ly
Ġspeak s
Ġang ry
Ġrespond ed
Ġserious ly
Ġcred ibility
Ġbacter ial
Ġrenew ed
ĠCap tain
Ġgeom etry
Ġreinfor cing
Ġtong ue
" :
2 000
D ec
m ay
u nderstand
Ġc oding
al g
Ġf ier
Ġf rog
Ġb eds
Ġth inks
Ġl ighter
ĠP as
ĠB ureau
Ġch ips
Ġr iding
ru p
Ġun con
Ġpre st
Ġrec over
Ġsc roll
Ġwork place
Ġtrans mit
Ġref ining
Ġbeh ave
Ġmin eral
Ġright eous
Ġthink ers
Ġprotect ions
man n
for ward
ĠSim ilar
200 9
Ġcolle ges
ĠCar ibbean
Ġfra gment
amb ling
Ġreci p
Ġassum ed
ĠDef ining
ĠMark et
ibl ings
Ġmulti pl
Ġhoriz ons
ĠArab ic
Ġfif th
Ġthread s
Ġguarant ee
Ġabandon ed
Ġtub es
Ġoccas ional
ĠHawai i
ĠPak istan
ĠMinn esota
. *
6 9
E ffect
N ational
O rig
Â ©
Ã ³
re c
Ġc rown
Ġo ven
Ġw ages
Ġb or
om al
ow a
ir al
ĠS chol
ith ra
ad ic
ad get
Ġv iable
Ġse arc
ĠR en
ĠG ather
Ġdis k
av en
âĢĻ .
Ġcons ensus
ob e
Ġinv iting
Ġ20 20
ĠAl ong
Ġconf idential
Ġprom ises
Ġprof iciency
Ġput s
Ġdraw ings
Ġtravel ed
Ġnavig ation
Ġpref erence
200 8
Ġmagn et
Ġdemand ing
Ġdark ness
Ġconver ted
Ġhol idays
ĠVir t
Ġvolun t
Ġnurs es
Ġcher ished
Ġhorm one
ĠComput er
ĠAssess ment
9 3
V ID
b lo
Ã ¨
Ġc ort
or i
le m
Ġh ur
il er
Ġn urse
im m
Ġg uests
ĠT anz
ĠT uesday
if s
ist ent
th al
ĠB ow
ĠF ac
Ġab road
ĠG h
Ġcomp ute
ib les
Ġper t
Ġup coming
Ġtra ins
ĠSt ar
ne x
ĠY ears
ob s
Ġinv ite
Ġinv ented
Ġdec om
Ġcor ruption
Ġtreat y
ĠIm age
Ġrele ases
Ġkey board
ĠAf ro
Ġmot ions
Ġlo ans
Ġste pping
bor ne
ils on
Ġrob ots
Ġstandard ized
Ġimag in
Ġattempt ed
Ġroll ing
Ġstrict ly
Ġrul ed
gl as
Ġweap on
Ġcos mic
Ġsimpl er
ĠNon etheless
ĠFin ancial
Rec ent
Ġcurren ts
ĠSupp ose
Expl oring
Ġbrows er
ĠQuest ions
Ġdialog ues
ĠHosp ital
mans hip
ĠRams ar
F e
N S
U L
i w
i otic
t r
Ġt astes
es ome
or se
ou ri
Ġb ind
Ġm erc
ve ment
Ġn aval
im s
ĠS ure
od us
ĠP R
Ġ1 20
ĠE D
pl ane
Ġsp ray
ĠO tt
end a
Ġrep roduction
Ġsub sequently
Ġdifferent ial
Ġappro val
ody nam
ĠEx actly
ĠAnd rew
Ġ201 8
Ġfem inist
Ġunc ons
Ġpack ed
Ġmis con
ĠDis orders
Ġautom ated
ĠGree ce
Ġanx ious
ĠSol ar
ĠUp on
Ġcorpor ations
Ġempower ing
ĠPhil adelphia
Ġtherap ists
Ġundersc ores
Ġsched ules
Ġfulf ill
ĠFact ors
Ġconfig uration
Ġoblig ations
Ġdispos al
Ġtempor al
ĠZeal and
8 8
he res
re ated
it oring
or ious
Ġm art
Ġth irty
as is
ĠT al
ĠT our
ĠT rust
ĠC T
ĠC ru
iv ism
ĠH yd
ĠR h
ĠO cc
av y
ry ing
Ġinter disciplinary
Ġam ino
Ġinv ited
Ġsc rut
Ġ18 00
Ġele ph
Ġmark ers
Ġfore cast
Ġcollect ively
Ġliter ally
ĠInst it
Ġdig it
Ġemp owers
Ġsens es
ĠHealth wise
sh ow
sc rib
Ġintrodu ces
Ġsil ence
AR T
Ġbelong s
Ġexperiment ation
Ġvent ure
Ġsynt hesis
Ġmanufacture r
ĠSk ills
Ġrom ance
Ġseam less
ĠOrig ins
Ġcounsel ing
ĠIndust rial
Ġdepos its
Ġguit ar
6 1
E st
e ared
w ind
Ġ )
Ġt ag
on ut
or ically
Ġb in
Ġd ying
Ġth roat
Ġl es
ĠS outheast
Ġpro l
ĠM aster
ĠB ase
ĠB io
ĠG ospel
oc key
ib ration
Ġout doors
Ġrel ating
ple te
Ġspec imens
ĠCon versely
ĠAl ab
Ġfact ories
ĠAd apt
As s
Ġmult icultural
Ġemb ry
osp here
Ġview ing
Ġtext book
Ġ198 4
Ġdiv or
eed ing
Ġsleep ing
ĠPr ince
Ġaccept able
ĠExpl oration
Ġsou ls
Ġscholars hip
Ġabsor bed
Ġod d
ĠQue en
Ġclust ers
ĠDan iel
ĠSud denly
Ġom ega
Ġloyal ty
ĠPhilos ophy
Ġinherit ance
ĠYe ah
Ġelabor ate
D ata
H P
[ :
i op
p op
w ill
w elling
Ġc able
Ġo scill
Ġf riction
ar se
et ically
ol ly
Ġbe es
ul as
ay ing
ter day
Ġde ce
ĠH am
ĠL ib
ĠG uru
Ġcol ony
Ġinter vals
Ġra ys
ential ly
Ġcommun al
Ġed it
ĠAr ctic
Ġpass ions
Ġret ention
Ġpolit icians
Ġflow ing
ĠInt rodu
ĠSy mb
Ġarchitect s
Ġ194 5
Ġder iv
Ġremind ing
Ġtend ency
Ġcou pled
Ġpal m
ĠPlan ning
ĠPers ian
Ġgear s
ĠTur key
Ġtherap ist
ĠThanks giving
ĠSing apore
Ġparad ig
Ġsovere ignty
Ġol ive
ibn iz
ĠExec utive
ĠKent ucky
Ġinterp ersonal
arad erie
Mean while
l ore
p ath
Ġs iblings
ol ine
ra is
ra red
ur ations
ĠA z
ĠS pect
ĠC ust
ĠM ap
ĠH u
ĠF ord
ĠF ish
Ġsp ine
ĠN ile
Ġpl as
ĠO pportun
ĠTh ird
Ġco in
tern s
Ġref used
Ġbr ighter
Ġprot ocol
ograph ics
Ch ild
ĠEn h
Ġvari ability
Ġdra g
Ġdeterm ines
Ġcirc uits
Ġpost ed
Ġcat aly
Ġcam araderie
ĠSw ed
Ġvacc ines
Ġsubs idence
Ġcommunic ating
gra de
Ġantib iotics
mod ern
Ġundersc ore
Ġtele phone
isp ens
Ġethnic ity
oir s
Ġappoint ed
Ġdelight ful
Ġadvert ising
ĠHT ML
ĠHoo ke
Ġdegrad ation
Ġinsuff icient
V is
i ors
ã ģ
at ics
at tle
Ġc ord
Ġc ivic
Ġw ing
is y
Ġm aj
Ġl y
ra vel
em pt
ĠM s
Ġv on
ort ing
Ġsp anning
Ġun int
ang ular
Ġind oor
Ġdes cent
ĠCh ief
pe ople
Ġgen ome
te es
Ġpo inting
Ġent ers
Ġlet ting
por a
ĠCom prehens
Ġdep icting
ĠIs sues
Ġtem pl
Ġinteg er
Ġpost er
ĠApp ly
ĠEm peror
Ġvisual ization
Ġstress ed
Ġcat ast
ĠNorth west
Ġembra ced
Ġdocument ed
Ġutil ization
Ġmist ake
Ġtransl ated
Ġaf raid
ĠPhil ipp
ĠProfess ional
writ ing
Ġexcl us
Ġoutl ined
Ġinterf erence
Ġconserv ative
Ġthy roid
Ġkil ometers
dr iven
Ġexped ition
Ġcarb ohyd
ĠProtest ant
9 6
H is
b led
d rop
g ood
m ount
p ack
v i
it led
st ud
Ġre nd
Ġl ymph
Ġn ull
Ġg ut
ur ious
Ġbe am
Ġbe aches
Ġst atic
ĠA k
ir s
Ġcon sec
if ting
ĠM uch
op ing
ĠF A
ant um
ant ine
ĠL iving
Ġdis placement
Ġnot ing
Ġtra ils
Ġind ispens
Ġreg en
Ġdisc ern
Ġins ulation
ram e
ĠCon nection
Ġent rance
Ġrequ ests
Ġprot est
Ġoper ator
Ġ8 5
ĠQ uality
Ġglobal ization
Ġlo ads
Ġopp onents
Ġbeautiful ly
ĠFr iday
Ġexperiment ing
Ġhom eless
Ġtruth s
Ġimpl ies
Ġintent ions
Ġexcl usive
Ġneu ros
Ġneu rological
Ġfest ival
ĠFrank lin
Ġbless ings
Ġgest ures
Ġbiof uels
ĠClin ical
ugh t
8 3
C lick
O b
P ub
b age
c asting
v asive
Ġs ne
Ġs ail
Ġs outheast
Ġc av
al ach
Ġb er
Ġh uh
Ġl ift
im ated
Ġg adget
el ry
Ġit er
th ritis
ĠB or
ac le
ĠW il
Ġen cl
Ġint imate
Ġcan on
Ġad mitted
Ġres erv
ĠO ri
reat ment
Ġup ward
Ġdes erves
Ġover night
ĠV e
Ġpat ches
Ġprom ised
ĠSo on
Ġident ifies
ĠAr m
Ġtal ented
Ġtest im
ĠTe am
Ġpred iction
Ġmach inery
ura bility
ĠAcc ount
ĠArch itect
Ġgrand p
Ġpursu its
Ġtransl ate
ĠSal mon
Ġresist ant
Ġharvest ing
ĠPort ug
Ġdecor ative
Ġclust er
ĠMach ine
ĠResp ons
ĠMinist ry
Ġdepart ments
Ġrestaur ants
Ġaven ues
. :
O K
S ch
b ial
Ġ ion
he ld
at ter
Ġc ure
it ime
Ġm ant
Ġh iding
Ġn oun
ra de
ĠT alk
Ġst iff
Ġst itches
ĠA ges
ul ators
ag os
ĠP rize
os ures
um ing
est ial
ĠF unction
ĠR E
ap or
Ġint ens
iz able
Ġcont rary
ass ium
ĠCh i
Ġthan k
Ġsm ell
Ġsub gen
urn ing
Ġpat ch
Ġless er
Ġmethod ologies
Ġfin ancing
bs p
Ġsl ides
ĠSh aring
Ġ9 5
Ġemerg encies
Ġaltern ate
ĠPr ice
Ġfit ting
Ġrefer ring
Ġpack ages
Ġgrad ual
atur day
First ly
Ġcompar able
Ġdivid ing
ĠTy pically
Ġmer ch
Ġlisten ers
Ġrig id
Ġpuzz les
Ġvolunte er
Ġcontrovers y
ĠPop ular
Ġimpair ment
Ġlicens ed
Ġprox imity
ĠAlab ama
F ind
F urther
M r
N N
g ency
y an
it us
Ġf r
ic ine
st op
Ġl apt
Ġst uck
ĠA M
ĠC P
ĠM onday
ĠP ut
ĠH alo
ĠR ap
ĠN ear
act ivity
Ġinc orrect
Ġro d
Ġcons ol
Ġsc ary
Ġinf lation
ĠHe brew
Ġpract iced
Ġsocial ly
Ġ201 5
ĠOr th
ĠCol lection
Ġsw ift
Ġmembers hip
ĠAm endment
Ġanaly tics
Ġge ography
ĠInter action
Ġdetect ive
Ġhor ror
ĠDis order
urg ical
Ġstrengt hens
Ġcompar ative
Ġstro kes
Ġconclud e
pie ces
Ġcolumn s
Ġclar ify
Ġenterpr ise
Ġrelat able
Ġdiag ram
Ġpneum onia
Ġdign ity
Ġindispens able
! âĢĿ
) |
= "
S E
S ource
S everal
a wn
d it
t ail
in ology
Ġw ake
Ġb atch
ent er
Ġh ind
ol t
Ġv ocal
op en
ĠB ul
ĠW ales
ĠF ed
ĠG ames
Ġk illing
ign ant
ĠJ acks
Ġfe as
Ġra m
Ġam bit
Ġpr ies
Ġco pper
Ġco exist
hed ral
Ġmod ify
Ġchar ges
raph y
Ġ6 00
Ġbelie ving
Ġpass ages
ĠIs a
Ġplace ment
Ġconsider ably
ĠDe ep
plic ate
omm y
Ġteam work
Ġrequire ment
Ġcompet e
hel p
Ġfra ud
Ġbase ball
Ġnegative ly
amil ies
Ġbehavi our
sec urity
olute ly
ĠOb ama
Ġdistingu ished
Ġod ds
Ġaccident ally
Ġgeom etric
Ġharness ing
ĠSign ific
Ġfrust ration
Ġphilosop her
Ġphilosop hers
Ġcas ual
bur gh
disc overy
ĠUr ban
Ġfluctu ations
Ġdilem mas
ĠCompan ies
5 9
8 4
M us
T able
m ia
p erson
r un
z o
in it
Ġb ark
Ġb ands
Ġb alls
Ġb ipolar
Ġd ough
le ys
ation ally
se ud
Ġg host
Ġst ops
Ġst abil
Ġfor cing
ĠC ooking
Ġpro ce
ĠW alk
ĠW ilson
ĠE dition
nt il
ĠD ictionary
ĠR ab
ak a
Ġdis advant
Ġun for
Ġev oke
ace ut
Ġup hold
Ġtra ged
ĠSt ore
te enth
Ġinst antly
Ġprov in
In c
Ġadd iction
Ġtrans itions
Ġsec ular
Ġdef iciency
Ġimpro ves
Ġpass engers
Ġter rible
Ġ8 00
Ġnon fiction
Ġ199 1
Ġge ographic
ĠSim ply
Ġpath way
Ġmor ph
Ġalg ae
Ġmoment um
Ġmolec ule
Ġoccup ied
Ġcraft ed
Ġrul ing
Ġreform s
Ġwitness ed
Ġhob bies
Ġexplan ations
ĠEmbra ce
quis ition
Ġperm its
Ġcurren cy
Ġtang ible
ĠAh ura
Ġprejud ice
last name
Cong ratulations
c in
c led
e lect
Ġt ired
Ġthe ology
Ġc eram
es y
it ations
is hers
Ġd irt
im ation
ĠT en
ĠT rue
Ġst icks
ĠS ally
ĠS ex
ĠS leep
Ġex cer
em ade
ĠM ajor
Ġsu ited
ĠB ird
ĠW ould
ĠW HO
os ity
Ġch ron
Ġse al
ap ing
Ġcan vas
Ġsh ade
ast ical
Ġtra it
Ġtr ies
Ġwork er
Ġstr at
Ġcap ac
az a
Ġsw allow
erc ise
Ġwar mer
Ġemploy ers
Ġjo ints
rim ination
Ġnut rit
Ġsepar ately
lam matory
Ġcompan ion
Ġexch anges
Ġinj ured
Ġmut ations
Ġcro c
ĠArch ipelago
sec ution
Ġassign ments
Ġprompt ly
ĠExper iment
Ġvot ing
ĠScient ific
Ġsculpt ure
ĠRegular ly
ĠPub lishing
Ġton nes
ĠIndust ry
lar ation
Ġdrain age
Ġrestric ted
Ġseaf ood
Ġcareg ivers
wid th
ĠAlf red
8 6
P lease
S cient
b ound
g roup
i ro
m etric
s or
s ome
at omy
Ġc arn
Ġb ought
st yle
se en
ul ator
ĠI ce
Ġex agger
ad ow
Ġwh ale
iv ia
Ġhe ter
us ually
ĠW in
ri ors
ĠD ream
out ing
Ġab normal
ĠL ED
Ġcomp iled
Ġimp ression
ĠJ r
ĠK n
te br
Ġatt ended
Ġsmall est
Ġbuild s
the re
Ġprof its
Ġaw a
Ġeduc ated
Ġbo asts
Ġaccess ories
Ġsl ope
ĠOr der
isc al
Ġsw elling
ĠLe ibniz
ĠDep ending
Ġbur st
ĠCommun ist
IN Q
Ġobtain ing
AN D
ĠDef inition
ĠAre a
Ġfert ility
Ġhop ing
Ġinspect ion
Ġrecre ational
Ġproud ly
Ġpropag anda
Ġcompens ation
Ġgrocer y
ĠTanz ania
5 7
S ometimes
W ill
m other
u zz
at as
Ġo kay
Ġw age
Ġp ests
ic ts
Ġh orn
Ġth rown
ur ated
ĠA SP
ĠS ports
Ġal uminum
ĠM ur
ĠM ix
ĠP ent
ĠB ud
ĠH on
un cture
Ġ1 000
ĠD om
Ġsh ock
act ic
ĠO N
ĠO R
Ġ2 50
are t
Ġme ats
ĠJ ean
Ġrel iance
Ġsc reens
Ġco inc
ĠV oyage
Ġsur f
Ġsim ulation
ĠAs sembly
Ġsec uring
Ġche ap
Ġtem ples
Ġrespons ibly
Ġland ing
sp ace
Ġbreak through
Ġ197 5
duc ive
Ġconsequ ence
ĠCO VID
ev a
Ġexec uted
Ġexhib its
Ġencourage ment
ĠArch ae
ĠConsider ations
Ġpurch ased
ĠSer ies
Ġmotiv ations
Ġsymbol ism
Ġdisapp ear
Be yond
uls ion
Ġperce ive
Ġjump ing
Ġgrapp ling
ĠBal ancing
Ġcomplement ary
Ġcontam ination
Ġforgot ten
Ġsurviv ors
Wall ace
N C
b ury
f ood
g rim
g rad
j amin
or f
Ġd amp
Ġd rew
Ġh urd
ut ur
ĠS ab
ĠS ac
Ġcon ducive
Ġwh is
ĠP ear
ĠP aper
and al
Ġen chant
ĠH ig
ĠF ant
ĠF lu
Ġsp here
ĠL ast
ĠN i
ĠG r
Ġad orn
ĠJ im
Ġper mitted
Ġprov ince
ĠV iew
Ġinf o
ick ed
Ġpot atoes
Th ough
Ġaw esome
Ġpresent ations
Ġpublic ly
Ġel ucid
Ġcomb ust
Ġoccur rence
ĠBe h
Ġpost ure
Ġreflect ions
Ġvir al
Ġdoct rine
Ġcat al
Ġaccept ing
Ġcam ps
ĠProg rams
Ġpul led
Ġoccup ation
Ġreprodu ce
Ġtit led
Ġastron aut
Ġregist ration
Ġconven ience
Ġped ag
Ġepis ode
requ ency
Ġaccomplish ments
Ġdinosa urs
ĠNob el
T A
T P
d ist
h ou
l og
l av
t em
â ģ
Ġt ab
he at
Ġc ock
Ġp ushed
Ġm ad
Ġm unicip
Ġl in
Ġl uck
Ġbe e
ir us
ay a
ĠC all
ĠB ell
ĠH art
ĠH ence
est ion
Ġsh ops
ĠL inks
ĠG M
ĠG PS
Ġwas hed
Ġk ings
Ġun cle
Ġtrans f
Ġsub mar
Ġexp on
Ġindividual ly
Ġplay ground
Ġshould er
Ġser ial
app ropriate
Ġdesc ript
Ġland mark
20 11
Ġhard ly
ĠHealth y
Ġ198 5
Ġopp osing
-------------------------------- --
bo ards
Ġillust rates
Ġrev ised
Ġpow ered
ĠSol omon
ĠMc C
ari at
ĠMiss ouri
Ġcomprom ising
Ġoffic er
Ġcrow d
Ġreward ing
Ġcel estial
Ġpreca utions
Ġlifel ong
âģ Ħ
L C
f rac
} {
Ġt ender
it ic
Ġw olves
Ġf its
Ġb ases
Ġd olph
Ġg rief
ut ation
ĠS C
ĠC ut
Ġex h
âĢ ĺ
ĠM ia
ĠF er
ĠL ever
ĠN uclear
ĠG re
per ature
ĠO nt
Ġtra ces
ĠY ellow
Ġinv ites
ĠK ansas
Ġatt ent
Ġmat plotlib
ck ed
Ġdep ths
Ġhapp ier
Ġcoll apse
atch ing
arl iament
Ġrad i
Ġz o
Ġcompet itors
Ġoptim izing
Ġ198 6
Ġthreat ening
Ġinstall ations
Ġofficial ly
Ġcheck ed
Ġrelax ed
Ġwise ly
Ġantib odies
Ġoverl ooked
Ġprev ailing
Ġrhyth ms
Ġcert ification
Ġsculpt ures
ĠPrin ciples
Ġturb ines
ĠDou glas
Ġque er
ĠNaz i
Ġrender ing
ĠFriend s
ĠProble m
Guid eline
Ġexclus ively
Ġambit ious
9 2
A v
D ef
H er
K e
a ism
j i
v an
is an
ou b
Ġd ye
Ġh al
ch anging
Ġy ards
ĠI owa
Ġpro active
ab led
ĠP red
ĠB on
ĠW W
ĠW ikipedia
ĠD ue
Ġad ul
Ġdis charge
Ġpart ially
pe ace
Ġsc ripts
Ġsub mit
erm at
Ġ4 1
Ġsol ace
Ġmat ches
Ġmat ching
Ġeduc ate
rop y
ĠIm plications
Ch o
ĠRes ource
Ġlist ing
Ġappreci ated
Ġsurv ived
Ġbur geon
Ġsil k
Ġep ic
Ġtable ts
ĠJu venile
ĠDef ense
Ġalign ed
Ph ysical
Ġmast ery
EC T
Ġshar ks
Ġmitig ating
Ġcryst als
Ġfest ivals
Ġadoles cents
Ġincent ives
ĠKenn edy
Ġtrem end
ĠJacks on
D is
R et
f lo
l anguage
v ation
Ã ¤
at ivity
ed ies
Ġb od
Ġb ron
Ġm ud
Ġd an
il ateral
Ġl i
ĠT B
Ġst oring
Ġfor ty
ment ation
iv ation
ri ers
ĠD am
ge red
ard ed
are r
Ġdiff ering
ob ic
te ch
Ġreal ism
Ġpres cription
Ġspecial izing
arth a
Ġfil ters
Ġdom inated
ĠCons ult
ĠRep eat
Ġ198 7
Ġ198 8
Ġexce l
Ġstri ps
ĠEduc ational
AT ION
Ġhom emade
Ġworth y
Ġglass es
ĠBi ological
ĠCor ps
Ġdisp ute
Ġcul m
Ġnegot iation
ĠElect ric
Ġsatisf ied
Ġrepeated ly
Ġprospect s
Ġshad ow
ĠFil m
Ġextens ively
Ġchap ters
Ġallev iate
Ġinfin ite
Ġdow nt
ĠIndones ia
ĠPue blo
Ġuncons cious
Ġburgeon ing
% ,
( (
5 1
9 1
O W
P ar
f ig
f ive
m ble
m outh
Ġs el
or ative
Ġp orts
il i
Ġg ay
Ġex terior
Ġan ch
ĠP arliament
ĠH i
ĠF ig
Ġad here
Ġinc idence
Ġinter tw
Ġrel ied
Ġacc ord
Ġra cing
Ġinv isible
Ġfirst name
int age
arm a
ade qu
Ġcor ners
Ġcount ies
uss ion
Ġpot assium
Ġbel t
Ġ201 4
Ġmult imedia
Ġemb ody
Ġcr ises
ĠEm ploy
Ġdistrib ute
Ġfall en
Ġrich ness
Ġ197 6
ĠHis pan
200 5
Ġslow er
tal ion
Ġspeak er
Ġpen et
ĠSol utions
Ġhop ed
Res earchers
Ġhob by
Ġvot ers
ĠQue bec
ugg ed
Ġhorm ones
Ġnewsp apers
---------------------------- ---
Ġinterpre ting
Ġbub ble
Ġshoot ing
" ).
. -
H y
L ist
M M
M on
P r
m aker
n ational
Ġs ons
es ides
om orph
Ġh ub
Ġl ith
Ġl inking
im age
Ġg ambling
ĠI ron
Ġpro cl
em an
Ġv oyage
ĠB all
un ate
og e
Ġpl ural
Ġcont rad
Ġnot ably
Ġun st
Ġall ergy
Ġapp et
ĠSt aff
ord an
mer ce
Ġins ert
own ers
Ġcult urally
ruct ions
Ġread s
ĠIm m
ote chnology
Ġprotect s
Ġrecogn izes
ik es
wh ite
Ġincorpor ates
Ġnational ism
Ġcou ples
Ġroll er
ĠAv ailable
ĠBer keley
Ġrecre ation
ĠCrit ical
Ġcoc onut
Ġtempor arily
Ġrab bit
Ġrestaur ant
Cons ider
ĠEstab lish
Ġeleg ant
Ġresc ue
Ġmilest ones
3 00
N T
T ake
U T
U nder
j a
m ony
in come
or o
il st
Ġl ively
Ġl ush
Ġn our
Ġg ift
ur red
ĠT el
ĠA L
Ġy oga
am ation
ad one
Ġal phabet
ĠM ithra
ill ery
ĠW ed
ĠE ff
ine a
Ġlearn er
Ġrese mble
ins ula
Ġent itled
ĠInd ex
Ġenvironment ally
Ġspecial ly
Ġopen ness
ĠTe le
ik a
Ġcollabor ations
Ġmeaning fully
Ġsure ly
Ġbreak fast
ĠMe asure
ĠUS B
Ġevalu ated
ĠPart ners
ĠSm art
Ġcapital ism
Ġmonth ly
ĠKeep ing
Ġmal aria
Ġclim bing
Ġempower ment
Ġabsolute ly
Ġsettle ments
ĠCub an
Ġsatisf ying
Ġreject ed
Ġrail road
Ġrefuge es
Ġmur der
Ġdeleg ates
A V
A nt
c ow
f il
f ting
f alls
h ave
l abel
p owered
s ized
Ġ ?
Ġc ig
Ġc ake
Ġc ensus
Ġp up
ar o
Ġd ent
Ġto x
ĠT ree
ĠT enn
ĠP age
ĠB uild
ĠW ow
ĠR on
Ġint ensive
Ġr ated
Ġres idence
pt ic
ĠJ ones
Ġsc rap
ĠV ideo
get table
Ġtrans g
Ġfound ing
ĠPro te
ĠAr ist
Ġconnect ivity
Ġmet eor
Ġoper ated
Ġcho pped
Ġdev otion
Ġrad ical
Ġexc av
Ġlo an
Ġsuper vision
ĠGerm ans
Ġclean er
200 2
Ġmount ing
ĠPol and
Ġassum ption
Ġattract ed
ĠProt ect
Ġsmart phones
ĠDirect ions
Ġlens es
ĠBen efits
Ġamb ient
Ġhoriz on
Ġdoll ar
Ġcolonial ism
Ġillum inate
Ġfif ty
sem ble
cons cious
Ġhierarch ies
ĠUtil izing
Ġgast ro
ĠCorpor ation
Effect ive
Ġnutrit ious
5 6
C urrent
^ {
y t
Ġt rop
in st
he a
Ġc ogn
Ġw ed
Ġp ink
Ġb icy
ar p
Ġd ot
Ġh ang
ol ics
Ġg ly
em ed
ĠP a
op olitical
ĠB ear
un ks
ĠD ynam
Ġr het
ak i
ĠU RL
-------- --
Ġfe athers
row se
Ġsc ared
Ġsim plicity
Ġexp ose
Ġback ward
Ġbr ut
Ġdep r
Ġplan es
Ġtal ks
Ġsens ing
ĠEm phas
ĠCont act
Ġbroad cast
Ġpromot ion
ĠGen eva
urs day
ĠLe on
Ġsal ad
Ġargu ing
Ġcross ing
ĠPart ies
ĠTechn ical
Ġappl iances
Ġresil ient
ira cy
ĠConf lict
Ġcand y
Ġsecure ly
cont rol
ĠSaf e
Ġnecessit ating
ĠInteg ration
Ġda wn
Ġcontam inated
Ġbub bles
Ġlegisl ative
Ġconvin ced
oler ance
Ġsquirrel s
Ġmim ic
ĠMarsh all
ĠDie go
Ġpries ts
C P
M ark
S y
a uses
d ot
e ur
h ouses
n bsp
o en
z es
Ġt ill
in is
Ġw ast
ed u
Ġm g
ra ham
ĠS aturday
Ġex clusion
Ġal pha
ĠR og
Ġsp ont
iz za
ĠN ation
Ġun em
form s
Ġout standing
erv ing
get ic
Ġsur re
Ġcontin ents
Ġclass rooms
Ġess ays
Ġris es
Ġtyp ing
Ġenc ry
ĠEn joy
Ġdraw s
Ġchem otherapy
Ġextra ction
Ġrepl acing
bre v
ĠPr int
Ġep it
ĠTw itter
Ġinfluen za
Ġhyp ot
ris k
ĠDec laration
Ġmotiv ated
col or
ĠEvery one
Ġfoss ils
Ġqual ified
ras ound
Ġeager ly
Ġrub ber
ĠRom ans
ĠGard en
Stud ents
Ġnob ody
Ġproceed ings
Ġpix el
ĠAgain st
ĠComple x
Ġpredomin antly
" ),
5 8
A re
C H
C opyright
G o
L ong
P ublic
T im
T ag
V D
d iv
f un
f ather
h al
l oc
m etic
he ll
Ġs ends
Ġc od
Ġc um
Ġf t
om etric
Ġl un
ol as
Ġg erm
Ġbe er
ad ays
Ġal b
ĠM RI
ĠP os
ain e
Ġch im
Ġch ip
Ġen for
est ine
est one
ĠE instein
ĠR a
ĠL akes
ĠG ord
Ġinc om
ach ment
Ġlike wise
Ġset up
Ġent ries
Ġext inction
Ġconc ise
Ġfac ets
Ġ201 9
Ġmet er
me an
Ġthought fully
ĠApp alach
Ġarg ues
Ġabs urd
200 3
Ġillust rating
Ġcamp us
eff ective
Ġautom ation
Ġconcent rated
Ġburn ed
Ġcorresp onds
ĠBr idge
Ġprompt ing
Ġsyn chron
Ġstim ulate
Ġradio active
ij ah
Ġflood ing
ĠPsych ology
Ġeld ers
Ġinher ited
inf lammatory
Ġsafegu arding
Ġarchae ological
Ġaspir ations
Ġtot ally
Ġjourn als
Ġjew elry
ĠVirt ual
. âĢĻ
4 00
B O
C al
H ello
U se
Ġ ]
at ories
Ġc asting
Ġp est
an ium
ar g
om ical
ol on
Ġg reens
ĠT O
ut ors
ir ts
ĠS ant
Ġv om
un es
Ġab norm
red it
ĠN C
ĠG reg
per t
Ġnot ions
ip e
ĠSt one
ĠSt ruct
ph al
Ġexpl osion
Ġgen etically
ĠK ings
Ġhad n
Ġgra pe
Ġmy ths
Ġ4 7
Ġmake up
ĠAr c
ĠAr gent
Ġve gan
Ġstruct ured
Ġmaintain s
An y
Ġground water
Ġenjoy ment
ĠStud ent
pro of
Ġsex es
ĠReg ardless
Ġ197 7
Ġsqu ares
Ġweek end
Ġmis understand
Ġadminist ered
Ġcultiv ated
Ġdefin itely
Ġox id
Ad d
ĠDav is
Ġdisapp eared
ĠBudd ha
Ġstret ching
Ġcomment ary
Ġenrich ing
Ġsafegu ard
Ġepid em
Ġpoison ing
Ġric her
ĠImplement ing
Ġlawy ers
ĠOpportun ities
ĠSignific ance
ĠOnt ario
B I
I X
L P
S F
d B
f at
Ġ verse
at in
Ġw and
ro x
ro se
Ġbe aring
ĠA mb
Ġor nam
Ġan th
ĠM uh
Ġ( $
ill er
un ct
ĠD C
og urt
Ġr ust
Ġab ol
ĠL an
ĠN ight
Ġres h
ĠTh ings
ep s
ass ment
ĠSt ra
Ġrec ess
Ġac oustic
Ġco at
ren ces
Ġfl ip
Ġwell ness
Ġsk i
Ġappro aching
ĠAl bert
Ġcur ves
Ġsupport ers
Ġche fs
Ġve gg
Ġpain ts
Ġcollect ors
ĠTe achers
ĠHealth care
enn on
Ġport able
Ġtravel ers
Ġpsych ologists
Ġfavor able
Ġwild erness
Ġwarm ly
Ġcross ed
Ġquant itative
AR S
ev olving
Ġclin icians
ĠMon itor
Ġpoor ly
Ġconver ting
Un iversity
ĠPol itics
ĠEgypt ians
Ġliqu ids
Ġpersist ence
ĠSet ting
Ġancest ral
Ġrul ers
gra duate
Ġpip e
Cl ass
Ġteen agers
Ġrecy cled
Ġadoles cent
Ġsucceed ed
ĠDemoc ratic
Ġdiplom acy
Ġye ast
Ġmeticul ous
Ġmembran e
Ġpollut ants
Ġcaut ious
Ġunfor gettable
B s
N on
c ils
d ated
h an
h oe
t hen
u ci
at us
Ġo ste
Ġm a
Ġd well
Ġd urability
Ġy ummy
ĠS low
ĠC os
ĠC reek
ĠM A
ĠM agn
Ġhe ights
ĠP icture
ĠF est
ĠF amilies
ĠL ower
ust er
ĠN Y
Ġpl ug
Ġad vers
Ġres erves
ĠO il
Ġun related
form ing
Ġro ver
hes ia
Ġback drop
Ġ5 8
Ġfasc inated
Ġlo ops
hold er
Ġstay ed
Ġpub lishing
ĠGu ard
ĠTra il
icien cies
Ġing en
ĠAb raham
Ġcomfort ably
Ġadvance ment
ĠCommun ities
Ġfacilit ates
Ġhar bor
Ġhost s
Ġbott les
ceed ings
Ġshif ted
Ġterrit orial
ĠBen jamin
Ġign ore
Ġreb ell
Ġlib ert
ĠJud aism
ns ic
Ġveter in
exp ression
ĠUtil ize
Ġmeth adone
Ġschedul ed
Ġwavel ength
Ġtomat oes
Ġceremon ies
ĠFamiliar ize
ĠIntellig ence
ĠComprehens ive
5 3
9 7
E A
d eterm
l ah
Ġ q
on ly
Ġs aves
en ergy
Ġf ounder
an throp
ar ium
st art
Ġn as
Ġst urd
ĠS ite
ĠS alt
ĠM ilitary
ĠW atch
Ġen act
ĠH an
ap a
Ġcan al
Ġsp an
Ġr ings
Ġab st
ĠG rowth
Ġres ident
Ġall ies
ind a
ind ex
ec hes
Ġcomm em
Ġsy ll
au nd
Ġwhere ver
ath an
Ġhum ility
Ġref ined
Ġpat ent
Ġmed i
eng ine
Ġent ity
Ġpot tery
ty pes
Ġproble matic
ĠRe lev
Ġcrit ique
ĠRes erve
Ġlim bs
Ġsw ing
Ġpromot ed
Ġred ist
So cial
200 7
ĠHar rison
Ġseason ed
Ġprior itize
Ġcolon ization
Ġstri kes
Ġexcept ions
Ġeat en
ĠRel igious
Ġcitizens hip
ĠPol ish
Ġbuy ers
ĠSee k
Ġmer it
Ġhun ger
zy me
Ġdro ps
Ġimpl ant
ĠMag ic
ĠProv ide
Ġalt ogether
ĠCD C
ĠExam ining
Ġinject ion
ĠStat istics
ĠMinist er
Ġinterpre ted
Ġbot tle
Ġbiom ass
Ġurg ent
ĠAbs olutely
Sec ond
ĠVit amin
A W
A IDS
L D
M I
O h
S ur
k it
m ap
p air
w all
Ġ @
Ġt ide
ic er
Ġm ol
Ġh inder
Ġh urricane
Ġn ortheast
ĠS O
ĠC art
Ġv ag
Ġde cip
ĠB ush
ac etime
Ġle verage
Ġse w
ĠL i
ĠN ep
Ġcomp ost
ĠIn gredients
Ġdes irable
Ġover head
Ġra ins
ĠK it
ĠV iol
Ġbl acks
ĠBy z
Ġwell s
Ġlit igation
Ġgl ory
Ġmon etary
Ġbeh alf
Ġ6 4
Ġmet all
Ġret ired
Ġret rie
ran k
Ġel ite
mat rix
20 13
Ġfar mer
Ġprevent ed
Ġsing ular
Ġparticip ated
Ġver ify
ĠTra vel
Ġavoid ed
Ġ197 4
ĠArt ists
Ġcelebr ations
Ġhon esty
Ġfaith ful
Ġtou ching
Ġtim ber
ĠArch ives
Ġdecre ases
ĠSee ing
rest rial
Ġgod dess
Ġelim inating
ĠPhys ics
Ġax es
Ġharvest ed
ĠFranc is
Ġnerv es
Ġallerg ic
ĠColumb us
Ġaccum ulation
Ġaqu atic
math b
Ġphotograp hers
Ġneur ons
Ġrefrig er
Ġtremend ous
S ON
V M
a que
c ase
d on
o is
p ical
s ur
Ġs ake
Ġw rap
Ġp engu
Ġb on
ar on
ar ag
Ġd oses
Ġth umb
ra ined
ĠA F
ĠC ry
Ġas h
ĠM ong
ĠM oon
ĠP arents
Ġen force
ĠH o
ĠH ans
Ġse ats
ĠF ried
ĠD ate
ĠR os
ĠR ule
Ġint rospect
Ġr anks
ĠL oss
ĠO S
are st
ose x
Ġtra p
ĠCh ann
Ġsc ra
Ġhum ble
up uncture
Ġve ctors
ĠAll iance
Ġdam ages
Ġcy l
Ġterm inal
Ġcool er
ĠLe vel
Ġdest ructive
Ġpay ments
Ġcondition ing
Ġvirt ue
Ġsn acks
Ġfat al
ĠProg ress
Ġconcent rate
aul k
Ġrandom ly
Ġtour ists
Ġstraight forward
ĠMount ains
Ġprompt ed
Ġmaster piece
fl ies
ĠMem bers
Ġacknowled ged
isp here
Ġcardi ac
ĠConnect ions
Ġharmon ious
ĠAnaly zing
Ġaward ed
Comm un
Ġdeter ior
ĠRecogn izing
Ġlegit imate
Ġstimul i
ĠPrim ary
Ġfung i
Ġmos qu
Ġger ms
Ġimagin ative
Ġdivor ce
, )
5 4
8 1
F ree
R oman
T HE
b irds
f our
l ob
n osis
v ised
w hen
ing e
or ations
Ġb apt
Ġin ver
Ġd ining
Ġre habilitation
ol ve
Ġg au
ra ce
Ġst igma
ĠA ward
ĠS ource
ĠI C
od ge
Ġv end
ĠP osition
nt hesis
pl oys
ant ry
Ġsp elling
ak ota
ĠO t
Ġimp uls
ĠIn v
ric ks
Ġqu ot
Ġrel uct
Ġsub mitted
Ġfun ny
Ġcar ving
ivers ary
Ġcreat ively
Ġmot ifs
ĠDes c
Ġprob able
Ġann ounce
Ġwal ks
Ġ197 2
Ġsqu ee
Ġconstruct s
che m
Ġi i
yl on
ĠCath olics
Ġden ied
ĠAnt i
Ġmiss ed
Ġshed ding
Ġinvent ions
Ġrequest ed
Ġfrag ile
Ġforg iveness
Ġpharm aceut
ĠIns urance
Ġyes terday
Ġconfig urations
Ġfut ures
Ġbasket ball
Ġinev itable
Ġwithd raw
Ġintermedi ate
Ġber ries
Ġcombust ion
6 2
A lex
H igh
` :
c ost
d ec
e ven
l ink
p aced
r ings
Ġa ids
re ne
or ia
Ġp ad
ed ic
Ġb ore
Ġin adequ
st ic
Ġth ou
ro ke
od s
ĠM u
ĠB orn
Ġen er
ĠH ab
ĠH ard
ĠF ront
ĠD F
ĠR ail
ĠR io
ĠL ic
ĠL iber
ĠN T
ip le
Ġun healthy
ie fs
Ġar thritis
Ġman eu
Ġper f
ber ry
Ġind ul
low er
ond er
ĠV ers
Ġdec is
Ġdevelop s
Ġhigh way
Ġgra pes
Ġsk ull
Ġcar rots
Ġdel ays
Ġmon oxide
Ġaw ait
ĠInd ependence
be at
Ġmar king
ĠRes olution
Ġbas ically
Ġactiv ism
Ġbegin ners
ĠBe yond
Ġwar riors
Ġfig ur
af e
Ġdam aging
Ġvers es
Ġcommit ments
rig ued
Ġstra w
Ġhost ing
Ġsevere ly
amm ad
Ġcontrast ing
Ġassign ment
ĠDisc overing
ĠInf lu
writ ten
Cont in
Ġdisturb ances
Ġpra ise
ĠOper ations
ĠFreed om
ĠWal ter
Ġprotagon ists
ĠSym ptoms
Ġrevel ation
Ġtsun ami
istle blow
O ct
S cience
e z
f ess
h ome
k h
l ies
l ihood
n ings
t i
Ã ¦
Ġthe e
Ġo ct
Ġf ool
Ġf right
Ġb om
Ġl ing
ĠT s
ir th
Ġor b
Ġsu pre
ĠP T
ĠB ad
ĠH im
pl us
ĠD iversity
Ġsp inal
ĠG il
ire ment
we et
Ġrec ruit
Ġinf rared
Ġexp ort
iss ors
Ġass ault
Ġmat t
els on
Ġemb od
Ġactiv ists
Ġer as
onst ruction
Ġpath ogens
Ġ198 2
Ġcustom ized
Ġ197 9
ĠHar bor
Ġsil ent
Ġclos est
Ġwis hes
ĠEl ijah
Ġembark ed
Ġclim ates
Ġign or
mod el
Ġhyper t
ĠJer sey
ĠNav al
Ġsod a
Ġbrother s
Ġcompr ising
Ġda unting
Ġintersection ality
Mod ern
Ġtric ks
ĠRelations hips
Ġconj unction
ĠAff airs
ĠFa ith
ĠPalestin ians
ĠScript ure
ĠGener ally
Ġassim ilation
names e
ĠNap ole
Ġreconcil iation
aulk ner
B D
P res
T rue
c ular
d eg
m ain
p i
s al
Ġc ouncil
it ness
Ġp ays
Ġp ins
Ġb ilingual
il ty
Ġn ests
ig raphy
ĠT rib
ĠA bor
ĠC as
ĠC and
ĠC ould
ad ron
Ġv ice
op ic
op ath
ke ys
iz oph
ĠG host
Ġwhe els
ind ers
av id
ĠJ on
ound ing
ne a
Ġunderstand s
Ġinf l
Ġinform al
Ġdesign er
Ġaut o
Ġsol ved
Ġcontin ually
Ġconf ined
Ġgu ilt
io let
Ġwant ing
Ġtreat ies
rat ory
Ġpur ple
Ġleg acies
Ġgovern or
Ġtest ament
Ġoccur rences
Ġprim itive
let al
Ġsat ire
Ġbra nds
Ġillust ration
ES T
Ġ194 4
Ġpossess ed
ĠAnt on
Ġtrig gered
Ġshowc ases
Ġsynt ax
Ġmic ros
Ġresol ved
Ġsatisf y
Ġhierarch y
Ġroof s
Ġdelay ed
uten ant
aware ness
Ġpix els
Ġprotagon ist
Ġchamp ion
Ġpou lt
ĠUk raine
A I
M D
h n
h our
s in
Ã §
Ġt el
Ġt ones
Ġo zone
Ġf ox
Ġd iesel
im ental
ur ities
Ġu mb
ig s
ĠM om
ĠM oh
ĠP DF
op her
Ġ1 12
pl aces
ĠR S
ast ics
ĠO K
ff e
ric s
ne g
vers ion
Ġinst inct
.. ."
Ġed ited
Ġback yard
Ġ4 3
ĠPro duction
Ġdef eat
Ġide als
Ġaff il
Ġben ch
Ġdr illing
Ġexist ential
Ġpred icting
Ġprop ose
Ġcost ly
Ġsuper f
Ġge ological
Ġvers atility
Ġec ology
Ġsal mon
ĠDep ression
equ al
Ġinstall ing
Ġstra ins
Ġmicro bes
Ġexec ute
Ġautom atic
ĠOff er
Ġinstru mental
Ġfabric s
Ġgrand mother
ĠDirect ory
Ġath lete
Ġimmig rant
Ġign ored
ĠUt ah
Ġment ions
Ġretain ed
Ġimmers ion
Ġinterf ere
Ġfolk lore
Ġsad ness
Ġwilling ness
ĠEmer gency
ĠBack ground
Ġbull s
ĠFour th
Ġfet al
str ual
ĠKen ya
ĠLuc y
ĠHarm ony
Ġpric ing
Ġfier ce
Ġuncon ventional
ĠBeh ind
izoph ren
B L
H C
R P
R eal
V er
W ater
n ia
â Ī
in th
Ġa wards
er ting
Ġc ous
Ġp ocket
an cies
Ġb ureau
ic hes
Ġh ockey
id is
id el
ig hed
ĠT ai
Ġst ocks
ĠA qu
ĠS D
ad ian
ĠM ission
Ġsu cc
ĠP ret
ĠB ang
ĠB alt
ĠD ynasty
ĠL arge
ĠG ro
ib ling
Ġtra dem
Ġtra ders
Ġbet a
ĠSt al
Ġacc used
lud es
Ġoff shore
Ġtw ists
Ġco aches
Ġstr angers
int on
ins ic
Ġserv ant
Ġbo ot
Ġperform ers
Ġsuccess es
Ġactiv ation
Ġspace craft
Ġdeterm in
Ġfamil ial
Ġparticip ant
Ġemp owered
Ġreflect ive
Ġlove ly
Ġmess aging
Ġtext ures
ĠBl ood
Ġsat urated
ĠGu inea
ĠAct ive
Ġposition ing
ĠInter section
Ġpoll en
Ġstri p
Ġang el
ĠCount ry
Ġemail s
ĠBar b
Ġsuppl ied
ĠStep hen
Ġsus pected
ĠMem ory
ĠFore ign
Ġacceler ation
Ġsto pping
ĠList en
ĠResp onse
Ġadvert ise
Ġmini ature
Ġarbit rary
Ġtire lessly
Ġprecip itation
ĠTurk ish
ĠHait i
Ġbod ily
B oth
H el
b ird
d ays
h as
k o
p ost
w ed
Ġa u
Ġs ink
Ġthe sis
es ium
Ġp izza
ar ah
Ġm ate
Ġd os
Ġh ate
Ġh ill
ĠS a
Ġpro w
ist ence
ist ically
Ġwh oles
Ġwh ilst
ĠM it
ĠP oll
ĠE lements
Ġat e
ĠD ark
ĠD aily
ĠR out
Ġsp rou
ĠG er
Ġad hering
vel t
ĠJ un
we ed
Ġtr an
Ġco herent
In tern
ause a
Ġsign ature
Ġsim ulate
ĠAs h
Ġsub set
int estinal
Ġgra vit
Ġshe ep
ĠWe ek
Ġ4 6
Ġequ als
ĠRe form
Ch ar
rat s
Ġstrateg ically
ĠPl ants
Ġtri angle
Ġappear ing
ĠEurope ans
Ġconcept ual
Ġ198 1
Ġimag inary
Ġattack ed
ĠAnt ar
Ġdecl ined
off s
ĠRepublic an
ĠCap ital
Ġnan ow
och ond
Ġinstruction al
ĠPo etry
ĠTreat y
ĠViet namese
Ġcompr ises
aud i
Ġsatell ites
ĠMill er
Ġportra its
Lear n
Ġcham ber
Ġpy ram
ĠPerspect ives
ĠDomin ican
Ġmush rooms
[: ,
C are
M at
M ain
T R
b u
f its
y u
y es
in formation
ic ion
Ġm ask
Ġl engths
Ġg ates
ut ter
ul us
el a
ĠI D
ĠP il
Ġse ism
ĠF ile
ĠF aulkner
ĠR od
ĠN G
ĠG rant
per ial
end ix
ĠTh inking
Ġimp ose
ĠJ up
ose velt
ĠCh ile
Ġinst ability
Ġpr one
ef t
iqu ity
Ġcommun ism
Ġpat ron
ĠAl cohol
ĠPro ceedings
Ġgl uten
Ġcar ved
Ġ5 7
ĠAd ams
Ġdem ographic
less ness
Ġenc aps
Ġpres um
Ġpass word
Ġbo il
Ġlight weight
Ġbas in
Ġquestion ed
sh ape
pos ure
Ġfail s
Ġviol ations
ĠUs ed
Ġrecomm ends
Ġiniti ated
ĠFirst ly
Ġacqu iring
Ġtou ches
ĠInc orpor
Ġdepend ence
Ġcoop erative
Ġearn ing
Ġreson ance
Ġmel ting
Ġcorpor ation
Ġcere mony
ĠArab ia
roph ic
Ġintent ional
ĠAppro aches
Ġfulf illing
DE s
Hist orical
ĠDu ke
ĠAltern atively
ĠMos cow
Ġelig ible
Ġmanusc ripts
Ġprest igious
Ġpoult ry
6 00
8 7
A B
A ug
F L
F ast
F ood
N et
P oint
d d
h o
i ential
re ach
ic ients
Ġh iking
Ġre un
et al
Ġn ode
Ġg arn
ut y
ver bal
ĠC opyright
ĠM ast
Ġv intage
ĠW y
ĠH erm
Ġab rupt
Ġsh ine
Ġsh ark
ge vity
Ġres olving
pt on
Ġk in
Ġar c
ĠJ ordan
Ġj aw
Ġtra pped
Ġind o
Ġag enda
Ġact ed
Ġam end
ys ics
Ġrem inis
Ġmod er
ew ater
Ġexp ense
Ġfl aw
con st
Ġcor p
Ġadv ised
Ġdef ensive
Ġav ian
the ta
Ġfin ances
pr ints
ĠRes ults
ĠDe ath
Ġpress ed
Ġmil it
Ġprop ri
Ġhead ed
Ġconcept ion
ĠSy ndrome
Ġbroad en
Ġbar rel
Ġdistrib utions
sc reen
hy th
eff icients
ĠMon itoring
Ġden y
Ġmaxim izing
Ġtrou bles
Ġtransfer red
Ġvent ilation
Ġagg reg
Ġwealth y
CO M
Ġshel f
Ġflour ish
nes day
Ġfif teen
ĠFort unately
Ġanticip ated
ĠKore an
Ġliber ty
Ġoutbre aks
Ġoccas ions
ĠObs erv
ĠLead ership
ĠScott ish
Ġcompat ibility
Ġinqu iry
Ġplas ma
ĠSalmon ella
ĠFant asy
Ġadul thood
Ġvom iting
Ġmisunderstand ings
ĠAbor iginal
A g
P at
c at
c ond
c irc
j u
k m
l iness
t ings
w a
Ġt ie
Ġt ightly
al pha
Ġf les
an as
ed uc
Ġb ay
ct s
Ġth rowing
ĠT aking
ch i
ĠA vest
ĠC ore
Ġpro c
em ption
ĠM P
ĠP L
ĠP ediatric
ĠB ec
igh th
ĠE ating
ĠF DA
Ġsh ield
ĠL es
ĠN OT
ep ing
Ġte ar
Ġte ars
Ġper taining
ater nal
Ġtra ction
ber ries
Ġpe aks
Ġover se
ject ive
Ġread iness
ron es
Ġreal ization
ah o
Ġanim ated
Ġspecial ist
Ġrespons ive
ĠPl ate
Ġrest oring
Ġinn ate
Ġsw itches
Ġrad ar
Ġaim ing
ĠEm ma
enn ium
Ġsubst itute
Ġpsych o
Ġselect ive
200 1
ĠNe u
Ġfresh water
olec ular
ĠPat rick
Ġfather s
Ġkn ife
Ġdivid es
ĠSam my
Ġpul ling
Ġarm ies
Ġconv ince
Ġmaster pieces
Ġkid neys
Ġathlet ic
Ġinvent ory
Ġuns ure
ĠApplic ation
Ġmuseum s
Ġnest ing
ĠInteg rating
ĠIll ust
Ġvolcan o
Ġprison ers
Ġpione ers
tw o
Ġdigest ive
Ġgri p
Ġmetab olic
======== ========
Ġvigil ant
ĠInnov ation
bet a
ĠNic arag
Ġfundament als
Ġtestim ony
Ġgrandp arents
Ġenchant ing
G ood
G reat
N U
d ie
g ic
g roups
h op
h ard
l as
o king
in te
on to
Ġthe ft
Ġw ounds
Ġb ru
ic ut
Ġd urable
Ġto ll
st ra
ol ith
ol itan
ĠA C
Ġy ogurt
ĠS ep
el ia
ĠC ab
ĠC ertain
res istant
Ġal coh
em ing
ĠP ier
ĠP erson
Ġde ple
ĠB ox
Ġen ergies
ĠH ind
ĠF ive
ĠF ast
ĠD R
ĠD ub
ĠG round
Ġpl um
Ġad hes
Ġcont ra
Ġev ac
ĠSt rong
Ġover weight
ĠCh ris
Ġrec l
pe red
Ġrem n
Ġprov ing
Ġtrans ist
Ġtrans plant
gg ed
Ġgl ands
Ġgl oss
ĠAr med
Ġdem ographics
Ġsl opes
Ġnon linear
Ġappear ances
Ġpost ers
Im age
Ġarch ives
We b
Ġterm inology
Ġdest inations
ĠNe v
ĠNot ably
Ġresid ue
Ġjud icial
IN E
Ġrev ital
Ġdead ly
rog ram
ĠPat terns
Ġurban ization
ĠDec ision
ĠBra nd
Ġhun t
ĠProgram ming
agon al
Ġvalid ity
Ġmel an
ĠRober ts
Ġmic row
Ġshel ves
Ġinterconnected ness
Ġswitch ing
Ġadoles cence
Ġpropos als
Ġprem ature
Ġfro st
ĠAnaly ze
ĠOl iver
ĠFred er
spe ed
Lear ning
ĠMic hel
Ġintim id
ĠGrad ually
itzer land
ĠVe get
Ġmerch ants
oub ted
ĠAppalach ian
izophren ia
Ġprow ess
$ .
C he
D i
a ire
h ar
l ings
n atal
p ron
s chool
Ġ ~
he arted
Ġs ore
at on
Ġo ught
ou ch
Ġm urd
Ġto mb
Ġe ternal
Ġl iability
as ked
Ġn ick
Ġon ions
ĠC S
ĠP ed
un ciation
Ġse iz
Ġab d
Ġab oard
ĠG C
Ġnot eb
Ġun predict
ign ific
Ġar che
ĠIn side
Ġem ploys
Ġqu ery
Ġpre lim
ĠSt ri
ish able
Ġdec k
Ġsub scrib
Ġspe eches
Ġmed ian
Ġprocess ors
Ġed itors
Ġchar ity
ĠAl t
Ġcap ability
con duct
ĠAn imals
Ġmon op
az ed
ger ies
Ġpolit ically
Ġcru el
Ġprop het
Ġhead aches
Ġshort ly
ĠZ o
het ical
Ġheav ier
Ġann oy
Ã© t
Ġfail ing
Ġsurv iving
Ġla wn
Ġpack ets
Ġdetect ing
Ġschol ar
Ġjud ges
Ġworry ing
ĠTrans port
Ġdiscrim in
Ġcompar isons
Ġrot ating
199 9
ĠRo osevelt
ĠLeg is
ĠCle arly
ĠDi abetes
ĠSal v
Be ing
Ġran king
ĠExp ression
Ġcompos ers
Ġbrid ging
ĠInit iative
Ġpione ering
ĠMont ana
Me et
Ġmac ro
Ġshad ows
imp se
Ġsour ced
ĠSus an
ĠDiagn ostic
Ġaccompany ing
Ġvolunt ary
Scient ists
ĠArist ot
lah oma
Ġener getic
. ||
? )
E l
H ey
b ro
d ig
e valu
o ad
p ur
y g
Ġ _
Ĥ ¬
Ġs ibling
Ġw ax
an ut
Ġb orough
st ick
Ġh ats
ce ived
ur ren
ĠT ro
ĠA y
Ġfor um
ĠS audi
Ġas ym
ist a
ag us
ĠW a
os cop
ĠH om
Ġ1 10
ĠE B
ĠE ver
ĠF all
ĠF oster
ĠD eg
ĠR ange
Ġsh ake
ĠL en
ĠG ive
act ers
ĠTh ursday
Ġcl ocks
Ġev id
so ver
Ġout s
Ġstud io
Ġdiff ers
Ġdes per
ĠK ind
Ġrep ublic
ĠV eter
Ġins erted
Ġinform s
Ġmight y
Ġgl oves
Ġconf erences
Ġdef e
ĠAd just
com ed
ĠAr n
Ġpres idential
ograph s
Ġleg ally
Ġsuccess ive
asc ul
Ġprin ts
Ġbegin nings
Al so
Ġreact ors
Ġfair y
Ġbill ions
Ġrock et
sec ond
Ad v
Ġformer ly
Ġbul k
ĠEmp athy
Ġfle et
Hist ory
Ġportray als
Ġimpair ments
Ġampl ify
ĠOk lahoma
ĠRus sell
keep ing
Post ed
Ġdistract ions
Ġscrat ch
Ġvine gar
atab ase
Ġfrog s
ĠArchitect ure
Ġsubgen re
Further more
Ġdescript ive
Ġvegg ies
Ġsturd y
E W
E urope
F orm
M icro
V II
h u
h is
o ft
Ġc act
an th
Ġb aked
ic uous
om ics
om ething
Ġe cl
Ġh its
Ġh anging
ro ads
et on
im ore
im eter
ch a
am y
op ot
ĠB ibl
ci ple
Ġch i
Ġle ak
Ġle ather
ĠH ub
ĠF ro
ĠD or
ĠL oc
Ġad s
Ġcont end
Ġup wards
Ġpe as
ĠSt yle
Ġtr ash
Ġreg ulating
Ġrem edies
Ġexam ines
Ġneed ing
Ġval leys
Ġke en
ĠHe at
Ġgu ilty
Ġide ology
ret ion
As k
Ġspecial ty
Ġel astic
Ġland ed
Ġinn ocent
Ġ9 9
ĠPh D
plic it
Ġexpress ive
Ġconsist ed
Ġsty l
Con nect
Ġvirt ues
Ġpan ic
Ġcultiv ation
Ġdark er
Ġlack ing
Ġbelong ed
ym es
ĠPat ients
ĠSur gery
ĠGovern or
Ġroll ed
ĠSw itzerland
Ġextract ed
ĠAdd ress
Ġmob il
Ġagg ression
ĠFe el
Ġcatch ing
Ġcurric ula
Ġdecor ated
Ġexplo it
Ġteen ager
ĠHy per
Ġpure ly
Ġvac ation
Ġrect angular
ĠSil ver
Ġcater ing
ĠMethod s
Ġportra it
ĠPerform ance
Ġcond ens
Ġconfron ted
rell a
Ġinterbre ed
Ġobser vers
represent ed
ĠVo ice
Ġbrainstorm ing
ĠMuh ammad
Ġintrospect ion
Ġinadequ ate
oubted ly
A ust
b at
c ale
l aw
Ġt orn
Ġt elescope
Ġp aving
Ġin duct
Ġm ites
Ġm akers
Ġn ost
Ġst ance
ĠA round
am is
ect or
âĢ ł
ĠM ald
ĠM aur
Ġsu its
ore st
Ġde emed
ĠB ull
Ġen l
Ġint act
ĠL ive
ĠG ot
ell er
Ġapp rais
Ġcl icking
Ġper ipher
Ġinter ven
ĠCh anges
Ġreg imes
Ġsc ans
Ġsc anning
Ġlearn s
ĠV illage
Ġmod est
ĠAl g
Ġpar l
ix on
Ġaff irm
Ġemb arking
Ġland marks
Ġinvest ed
ĠCol onial
ug ar
ik h
thon y
Ġsym metry
Ġlay ing
ĠAm id
ĠHist oric
Ġport fol
Ġunc overing
ĠPer u
Ġdetect ors
Ġfoot print
Ġpen cil
Ġkn itting
ĠAng lo
Ġwet land
Ġreson ates
ĠDiv ine
ĠMain tain
Com p
Ġentertain ing
ctu ary
Ġaccommod ations
Ġindu ce
Ġseg regation
Ġdeploy ed
Ġnob le
Ġundert aken
ĠHum ans
ĠVictor ian
Ġaspir in
Ġlawy er
bul lying
Eng lish
Ġphysic ist
Ġintu itive
Ġalle ged
Ġpestic ides
Ġ[... ]
Ġenric hes
Follow ing
Child ren
Ġgadget s
Ġcum ulative
ĠJup iter
opot am
H ar
H uman
P V
S am
f und
p m
p ot
p rop
r ish
on ics
er to
es see
Ġo wing
it ched
Ġw ool
Ġf iscal
Ġm asks
Ġd ens
Ġh iring
im ag
Ġg ems
ut tering
ĠS now
Ġcon dem
Ġon set
am ents
Ġpro st
em en
ĠP it
ĠP ack
ĠB ot
Ġse als
ĠR ose
ĠN one
ĠN ether
Ġcont est
Ġcont amin
ost ics
Ġk et
Ġj ar
ile y
Ġfe e
Ġdes erve
ĠCh in
cess ion
Ġdi as
Ġsign aling
erg art
Ġexp end
int end
Ġgra vel
Ġgl impse
Ġ18 90
Ġaff ection
Ġcreat or
ĠInt el
Ġlive lihood
Ġcompet ence
ĠMe eting
Ġsex ually
Ġviol in
ĠRec ord
ĠComp et
Ġbirth day
Ġvill agers
ĠLaw s
Ph one
Ġvacc ination
Ġsubstantial ly
Ġastron omy
Ġtow er
Ġtun es
Ġassemb led
ĠTer rit
ĠSecret ariat
PD F
Ġwel ding
Ġwel comed
Ġhierarch ical
Ġfav our
Ġpropag ation
Ġdigest ion
ĠGet ting
ĠAP I
Ġvigil ance
Ġemit ted
ĠSoft ware
Ġgalax ies
Ġimbal ances
Ġlon gevity
Ġsearc hes
Ġcapac ities
Ġhurd les
ĠByz antine
Ġprelim inary
b ath
b urn
f erence
g ard
i ens
p df
r t
w orm
y our
re ast
Ġw ires
Ġp our
Ġp icking
Ġd ressed
Ġre pt
Ġl id
ĠT ask
ot hel
ĠA SD
ĠC our
ĠC ensus
Ġpro be
ĠM arc
ĠP arent
op athy
ĠB irds
ĠW inter
ld er
Ġle ct
ri ages
ĠE ra
ĠF ull
Ġint ra
Ġsp inning
art z
Ġwor ries
Ġpl t
Ġres erve
Ġun su
Ġper secution
Ġcol ours
Ġ19 18
Ġam ph
Ġinv oked
te x
Ġco efficients
iqu ette
Ġher bal
Ġno ises
Ġform ulas
Ġloc k
Ġshe er
Ġass et
Ġcor on
Ġcar cin
Ġ5 1
Ġmat urity
Ġreal ities
Ġche aper
Ġleg ends
Ġproduct ions
ĠSe attle
Ġprin ter
Ġmen strual
Ġflu ores
Ġ197 8
Ġthr one
ĠTechn ologies
ĠQu antum
Ġhon oring
Ġang els
Ġgrad ient
25 5
ĠIndian a
Ġreci pro
Ġspect acular
Ġrevolution ized
ĠLibr aries
Ġvalid ation
Ġmel odies
ĠSecond ly
Ġantib ody
Ġhob bing
Ġâ Ī
Ġcorner stone
Ġresol utions
ĠEth ical
Ġreput able
Ġautonom ous
ĠCollabor ation
ĠOpt im
Ġlicens ing
gener ational
Ġphysic ists
Ġobsc ure
ĠCond itions
ĠPrepar ation
ĠHop kins
ĠOrth odox
Ġadorn ed
Ġsubmar ine
Ġdolph ins
Ġappet ite
ĠTenn essee
Ġnanow ire
Ġindo ors
D ay
F ull
G reen
R D
b n
c riptions
l asting
m n
m ill
s l
en o
Ġc ables
it ives
Ġe lic
se ctions
Ġg re
Ġu ter
Ġcon gest
ĠC IA
ĠI g
ag a
ĠM ennon
and ing
ĠB art
ci ously
ac re
Ġle m
est ab
og rams
Ġsp acetime
ĠG ab
ĠG ently
ĠG IS
Ġimp art
Ġj un
Ġper me
Ġhas n
Ġtra vers
au x
Ġag ility
ĠCh ap
ĠK at
ĠK im
Ġsur geries
Ġdec entral
Ġmod ules
Ġsm arter
Ġbu gs
Ġform ations
Ġset backs
ĠCon cept
ĠCon cepts
ron omy
Ġlong est
Ġgl aci
ĠAr k
Ġide ological
Ġanal ogy
Ġbelie vers
Ġca f
oss en
Ġimpact ed
br ush
Ġcollect or
Ġtru cks
Ġfar away
Ġfasc ination
Ġsun set
Ġpsych iatric
Ġexerc ising
Ġaccount able
Ġpub lish
ĠAct ivities
ĠCo ord
Ġinvestig ators
200 6
Ġund oubtedly
ĠArt icle
Ġstra nd
Ġpredict able
ĠNot ice
Ġtable t
Ġfuel ed
Ġswe at
ĠGree ks
Ġstream l
Ġtrib al
Ġkn it
def ined
ĠProgram me
ĠAdv oc
Ġgar ments
Ġclim b
Ġrat ios
ett es
ĠBel g
ĠMem orial
ĠÂ »
Ġflour ished
Ġoverl ap
min ute
Ġflo at
ĠElect ronic
Ġcryst all
ĠBrazil ian
---------------------------- --
Ġdepos it
ĠExam ine
Ġmetab olism
Ġjurisd ictions
Ġepid emic
Ġprivile ge
Cre ating
Ġunderm ine
UC N
Ġlux ury
Ġmart ial
Ġlapt op
ĠHalo Tag
Ġevid enced
E lect
M s
M arch
S um
c over
m l
p res
s pl
x x
z ymes
Ġc ens
Ġc ram
it ous
Ġm ines
Ġe ch
Ġe cc
Ġh ack
Ġh ook
Ġth under
Ġre per
Ġl ips
as a
Ġg olf
Ġst ating
ĠA S
ĠS ri
ith metic
Ġas leep
th ird
ĠM aj
ain ted
ill as
Ġch arm
ĠE ric
ĠE aster
ĠF if
ĠF isher
ĠF olk
ĠD I
ĠD un
ĠR NA
Ġr h
Ġab brev
ĠG ran
Ġdis abled
Ġinc oming
ie ve
ĠU ntil
Ġte asp
Ġman ually
Ġunder going
Ġexper iential
Ġstr iving
Ġfl ies
Ġprocess or
Ġgra ve
Ġdet rim
Ġext inct
Ġcar go
Ġbr ightly
ĠAn ne
angu ages
par am
Ġret reat
ĠSe ason
ĠPl ot
Ġprogram mes
Ġlast ed
ĠTe aching
Ġfree zing
Ġsens ation
Ġexc luded
Ġrecord ings
ĠSy ria
ĠMan ufact
Ġstat ue
ĠMar g
Ġlog o
Ġreview ing
Ġexce eding
Ġple asant
att an
Ġmanufact ured
Ġhost ile
Ġmut ation
Ġpossess ion
Ġdry ing
ĠRed dit
itution al
Ġtim er
Ġvibr ations
ris is
Ġrepe ating
Ġattract ing
Ġconsid ers
Ġsem in
Ġspot ted
col onial
ĠKnow n
Ġmitig ation
Ġaccident al
ĠEv ents
Ġtack ling
ĠIraq i
ĠPan el
Ġbol ster
Ġsevent h
Ġbes ides
"" "
Ġattor ney
Ġconsec utive
Ġtraged y
Ġcroc het
Ġdan cers
Ġunem ployment
Ġbureau c
I d
L ook
M C
c ard
d ependent
l oss
v able
Ġp seud
Ġb oring
ar re
Ġm uc
Ġm ax
Ġd ad
Ġd ermat
Ġe igen
Ġre n
Ġg ym
ra cle
ĠT ax
ot ive
ĠA RT
Ġy ard
ĠS her
ĠC ell
ĠC ele
Ġal tering
ĠB ach
ĠH ug
ant e
ap le
Ġsh iny
ĠO pp
Ġso f
ĠU V
Ġimp rison
Ġar teries
Ġar sen
Ġj e
Ġout lines
Ġour s
ang a
Ġsome how
iff erent
Ġpe ppers
ĠK u
Ġdisc on
Ġdec ides
Ġpo ols
uc ing
Ġexp osing
Ġfl ags
Ġform ally
cl ock
cl usive
---------------- --
Ġshould ers
Ġpot ato
Ġmem orial
Ġmin ister
be it
be ans
Ġ6 2
az ines
St ate
St art
Ġbre eds
Ġmar itime
Ġel k
Ġemb odies
Ġmind set
ĠCl ara
Ġdetail ing
Ġbroad ly
pro t
ĠSim ple
ĠAfter ward
Ġabs ent
ask et
Ġbra very
Ġann iversary
Ġflu or
Ġste pped
Ġ197 1
Ġult rasound
Ġpredict ive
Ġ194 1
Ġ194 9
Ġrev ision
Ġdisplay ing
amb oo
Ġfreed oms
ĠWrit ers
Ġfant astical
ĠLaw rence
Ġoccup ational
Ġdisp ens
ĠLeg acy
Ġinherent ly
ĠDiv ide
Ġstret ches
Ġillum inated
ĠCy ber
ĠContin ue
ĠImport ant
Ġmanifest ations
Ġimmun ity
indu ced
Ġguarant ees
Ġencompass ing
Ġentreprene ur
ĠCoast al
Ġenterpr ises
Ġovers ight
ĠMes opotam
Ġcompat ible
Ġdilig ently
ĠSuccess ful
Ġintu ition
Ġhazard ous
Ġhung ry
Ġfulfill ment
Ġwast ewater
ossen ack
B uilding
G od
M F
M in
W ind
f eeding
n ial
o T
s ing
s ite
w ave
Ã ł
on ing
Ġs ab
Ġs isters
Ġc ows
Ġw olf
or rh
Ġp aved
is ations
Ġb ins
Ġb oss
ar ts
ar ound
Ġm ph
Ġh ards
ĠC it
ĠM Hz
ĠB ah
ĠB rief
ĠB road
Ġen zyme
un ing
ĠE lement
ĠF at
ĠF inding
Ġsh ades
ĠN ich
Ġdis ruption
ell ar
Ġun ravel
Ġcl ot
Ġem ission
Ġcons erve
ple x
ian o
Ġra y
Ġart illery
Ġloc ked
Ġindividual ity
Ġ5 4
Ġgu ys
Ġprot ests
ĠAr thur
Ġnow here
ĠInd o
Ġredu ctions
Ġlight ly
Ġaccess ed
Ġel usive
Ġpain ters
Ġeconom ically
ĠComm ons
Ġdig ging
let ter
Ġdom inate
Ġtext books
Ġaud itory
Ex per
tt ps
Ġ198 3
Ġunc overed
ĠRec ords
pret ation
Ġclaim ing
Ġnation wide
Ġ196 5
Ġexch anged
Ġdemand ed
Ġox ide
Ġcontroll er
Ġtou ched
ĠGra de
ĠSam uel
Ġpul ses
Ġmer cy
ĠPal ace
ĠVal ue
Ġconsult ing
mark et
ii i
Ġdomin ance
Ġsusp icious
Ġtow ering
Ġproport ions
Ġcert ific
Ġscat ter
quis ite
ĠConnect icut
ĠInit ially
Ġanthrop ology
ĠPot ential
Ġveter inary
ĠProp het
ref lection
Ġwire less
Ġkne e
ĠBir th
Ġfisher ies
Ġdiarr hea
Ġbreakthrough s
Ġsurre nder
Ġlibert ies
ĠNev ada
ĠSalv ador
ĠNether lands
8 2
B en
C entral
E G
S et
T ER
b one
l at
Ġp H
Ġp ave
ed ience
Ġm ul
Ġm oth
Ġd ess
Ġd irty
Ġd welling
Ġh ire
Ġl ady
Ġn ausea
id ae
ĠT u
ĠT ow
ĠT ang
ĠA ware
ĠS A
th reat
ĠB arn
Ġle ap
un ts
ĠD er
ĠL ady
Ġk ick
Ġj ack
Ġunder graduate
ound ed
Ġsy rup
Ġra mp
Ġam en
Ġbl ended
Ġbl adder
Ġbu g
Ġfl ora
Ġgener ous
Ġgener ators
Ġ4 9
Ġ5 3
ĠAn na
Ġconc urrent
Ġmethod ology
Ġlight ning
Ġel ong
ĠSe ven
Ġlim b
Ġfore nsic
Ġdeterm inism
Ġvol atile
Ġhead quarters
Ġgr asses
Ġcapt ures
ann a
ĠUS DA
med icine
Ġcustom ary
Ġposition ed
ES CO
Ġlif es
ĠExpl ain
Ġ196 4
Ġexhib ited
Ġrev is
ĠId aho
Ġdecre asing
inn ings
ago ons
Ġlabel ing
Ġjournal ist
Ġindustrial ization
Ġcere al
Ġattend ance
Ġretain ing
Ġimper ative
ĠEv idence
Ġfold er
Ġnest led
Ġalt itude
ugg ing
ĠProcess ing
ĠComput ing
Ġprospect ive
Ġfring ing
Ġcrafts manship
Ġfertil izer
Ġconvin cing
Ġhesit ate
Ġdimin ished
Ġmicroscop ic
Ġdissem ination
Ġdescend ants
Ġtraject ories
readn ought
Ġcohes ion
Ġmultipl ication
ĠSchol ars
Ġfeas ible
ĠPear l
( \
D ate
N avig
U M
a ith
o oth
p ent
p ublic
r als
r idge
s ens
Ġa ster
on ts
it ate
Ġp ic
is ure
Ġin just
ro le
Ġl agoons
as i
se a
ut or
Ġfor b
ĠS ix
ay ers
ad ata
ist ing
Ġwh ites
ĠM as
Ġv apor
op erative
ĠB urn
Ġwe eds
ill o
ĠW elcome
um a
ĠH ay
ĠD E
ĠR ules
iz ard
ĠG aza
Ġpl ag
ru ce
Ġimp ly
ĠJ oe
Ġper tains
Ġem an
Ġrec urring
Ġgen eal
Ġph il
ĠV in
ten ed
Ġpos its
Ġmod ifying
Ġval ve
Ġhum ming
Ġed ible
ĠFor um
Ġgl and
Ġcar rier
Ġpot s
Ġgu est
com put
Ġgood ness
Ġplan ners
Ġrest ored
Ġnon profit
Ġperiod ic
Ġcoll aps
Ġair way
eral d
Ġemerg es
Ġemploy er
Ġremember ing
ĠAll en
Ġcollabor ating
Ġarch ive
ĠStud ying
ony ms
Ġdemonst ration
Ġce iling
Ġsubst it
Ġut ter
Ġcommit tees
Ġstress es
Ġlat itude
ok es
Ġiniti ate
Ġgraph s
Ġdefin itive
Ġfront ier
ĠIsrael ites
Ġsuppl iers
Ġexcell ence
cont rolled
Ã¡ n
Ġintrig ue
ĠAdv ance
crib ing
Ġpal ace
Ġvalid ate
ĠHol ly
ĠCle ar
Ġnegot iate
ĠMain e
Ġban king
Ġpil grim
ĠEngine ers
Ġgall ons
ĠEffect s
Ġworksh op
spec ies
ĠRad io
Ġfrust rated
Ġbrows ing
ĠEc ology
ĠVictor ia
Ġdesk top
ĠEns ure
child ren
Ġrepet itive
ĠStan ford
Ġdisappoint ed
Will iam
utur ism
Ġaccord ance
ĠProte in
ĠFest ival
Ġtran qu
Ġamend ments
Ġdiscrimin atory
D own
E duc
S te
l ass
r one
in ctions
re nd
Ġs ins
it ably
Ġw ives
or ate
an ation
Ġb rick
Ġm u
le ading
st age
Ġl ately
ĠS oc
Ġcon sole
ĠC over
res pect
ĠP ray
Ġen roll
un ted
pl anes
ĠL t
ĠN ig
Ġcomp ression
ĠTh ank
ich ael
Ġun ions
Ġcl ergy
ang les
Ġtra ps
Ġtra cing
Ġfe ast
Ġpre natal
Ġoff ensive
In f
Ġevery body
Ġwork flow
Ġmod alities
Ġinform ative
Ġsk ies
Ġent ang
ron ics
Ġass ured
viron mental
Ġcor ros
Th ose
the ir
ĠEx change
ĠEx ercise
Ġser vers
Ġtem pt
Ġaccess ing
Ġsupp ress
Ġ7 2
Ġbi ographies
ĠCol omb
ĠBe ec
gen eration
mit t
ann y
Ġarr ives
pos ing
Ġpath ogen
Ex amples
Ġconflic ting
umb ling
200 4
Ġmonit ored
Ġprec urs
Ġcalc ulating
ump ing
Ġstra nds
Ġsix th
Ġtransport ed
Ġhot el
Ġsurpr ises
Ġbit ter
lim ited
Ġrock y
Ġremind s
Ġoccup y
ixt ures
ĠTest ing
ĠBas ics
writ e
ĠEconom y
ĠAccess ed
Ġpip es
Ġchick ens
Ġtow el
Ġnecessit ate
ĠBet ter
Ġenthusi ast
Ġcha otic
ĠAnn ual
Ġdeploy ment
ĠAgric ultural
Ġarbit ration
Ġresemb les
ĠTop ics
Art icle
ĠEvalu ation
Am ong
ĠIndividual s
Ġsurge ons
Ġprophe ts
ĠFAS D
Ġanest hesia
Ġmerc ury
Ġrend ered
ĠIsa ac
Ġintertw ined
Ġcogn ition
ĠRelev ance
ĠChann el
Ġgravit ational
ergart en
' :
) /
* ,
, âĢĶ
B et
D I
G iven
M ake
O V
T est
T ube
a an
b ons
d x
f requency
k ers
n els
p he
y r
ar ation
Ġre ar
Ġg ospel
ur ous
ow ed
ĠT M
Ġfor ums
ĠS ad
ĠS yn
Ġis ld
ab etic
ĠM aterial
ĠH ash
ĠF R
ĠF ox
ĠL ith
ĠG ender
ĠO w
Ġk g
ĠJ oint
Ġup right
Ġqu otes
erv ice
Ġ19 17
ĠK al
ĠK ar
Ġrem arks
ĠV erm
ĠV arious
ĠV ossenack
Ġneed les
Ġsur geon
Ġwork force
Ġbl u
ern s
Ġtrans it
Ġsub mission
Ġbu nd
Ġref res
Ġmed iation
Ġgra zing
Ġvis ions
ĠAnd erson
Ġhand les
Ġdiscuss es
Ġmar row
Ġsl ice
Ġcomput ed
Ġdr ift
Ġdev iation
sy stem
arc ity
Ġintern ationally
Ġsimilar ity
ĠBe ach
Ġhead ing
ĠApp ropri
Ġnever theless
ĠSc he
Ġcontext ual
Ġterm ed
Ġfem in
Ġopp onent
ĠReg ion
bre ak
Ġarchitect ures
Ġhon ing
Ġsn ack
Ġ194 8
Ġclin ics
ĠMon th
Ġlength y
udd y
osa ur
Ġfamiliar ity
Ġpoly g
Ġalign s
Ġprepared ness
Ġtour ist
cont in
ĠLike wise
ĠCho osing
Ġwitness es
ĠExper ience
ĠMal ays
Ġtransc ends
Ġstring ent
eterm ined
Ġexcited ly
ĠMag azine
ĠAut om
ĠSte ve
ĠGal ile
Ġindu ced
ĠPub l
Ġliber ation
ĠPalest ine
Ġrefine ment
Ġconve ying
Ġdiag rams
izz es
Ġsacrific ing
Ġune ven
Ġcham bers
Ġwavel engths
ĠFun ctions
Ġarrest ed
Ġquad ratic
Ġpenal ties
Ġdiarr hoe
ĠLess ons
ĠUnivers al
ĠInsp ired
ĠCr ime
Ġphosph orus
Ġbare ly
count ry
Ġdece ased
ĠSwed en
Ġneuros cience
Ġuphold ing
Ġcarn iv
Ġabnorm alities
ĠNep al
idis ciplinary
ĠBelg ium
. ]
B el
C ultural
G E
I H
L a
S earch
T O
V al
d ish
d istance
f in
n i
o ks
p oly
r Ã©
Ġt ar
re a
at hetic
Ġw ines
Ġf el
om etry
Ġl ad
Ġl ac
Ġl ined
Ġst ove
Ġst ark
Ġex ert
ĠM L
Ġhe pat
Ġen velop
Ġen zymes
um ble
Ġ1 30
Ġsp ell
Ġsp ells
Ġr idge
ĠL as
Ġcont ing
Ġk ins
ip ment
Ġun ch
Ġar row
ĠJ ay
ĠJ oh
Ġqu arters
Ġpre con
Ġpe anut
Ġ19 10
ĠK in
Ġco ated
uc ks
Ġtrans action
Ġart istry
Ġexp osures
Ġref use
ĠWe ather
Ġaut umn
ĠPro b
Ġ5 2
Ġpot ency
Ġdef ending
oun cing
Ġmon ks
ĠYou th
Ġ18 0
Ġphys iology
Ġve in
Ġer ad
orth y
ream ing
ĠZ e
ĠAfric ans
Ġeth n
Ġ16 0
ĠMan ager
ĠCons erv
ĠCal c
ĠAct s
Ġmag azines
Ġansw ering
Ġ197 3
Ġri pe
ĠRec omm
Ġbur d
ĠUs ers
Ġcalc ulation
Ġmount ed
che ster
Ġ196 9
ĠMon te
ĠJu an
Ph oto
Ġbul bs
Ġmanip ulating
ĠMc G
Ġround ed
Ġparent al
Ġload ed
Ġment ors
hist oric
Ġimper fect
Ġtun ed
ograp hers
Ġdisturb ance
ĠMad ison
De cember
Ġmir rors
ĠPot ter
ĠPu erto
Gen eral
Ġbol st
Ref lecting
Ġtric ky
Ġkne es
Ġreconst ruction
Ġmeticul ously
mid t
Ġchromos omes
ĠGraph ic
Ġvert ically
Ġconfidential ity
Ġcatast rophic
Ġproce eding
Ġprovin ces
Ġhypot hetical
olith ic
) ?
A h
A tt
E arly
O pt
W est
b ot
b oth
h ol
l ab
l ooking
o op
v iol
Ä «
à ¸
Ġ ;
Ġt we
al ks
Ġp ile
Ġd ull
Ġh itting
Ġth ir
Ġre plic
il age
il du
Ġl ion
id ency
ig e
ĠS age
ĠS ide
ĠC H
ĠC risis
ĠI L
if ers
Ġex it
Ġwh istleblow
ag u
ĠM is
ĠP ale
Ġde ities
Ġde forest
ĠB ed
ĠW et
ĠF OR
ĠD og
ĠD akota
ĠR ice
Ġsh r
ĠL au
ĠN elson
ru b
du e
Ġtra gic
Ġqu oted
we gian
ub ric
Ġam ate
sel s
Ġco efficient
Ġph yl
ĠV ar
Ġpo inter
Ġexp ans
Ġfl ights
Ġcur ved
Ġend emic
Ġend orse
Ġche er
ĠYou Tube
up on
ock ets
Ġes oph
idd les
osp els
ĠQ ur
ĠCl ose
Ġblood stream
Ġarr anging
Ġge opolitical
sh ine
Ġcool ed
Ġut ilities
Ġsal vation
Ġsent iment
Ġcolle ague
head s
ĠKe eling
ĠAust ria
Ġap nea
Ġ196 3
Ġexch anging
Ġclin ic
Ġattack ing
Ġspect ral
Ġstream ing
Ad ditional
Ġalign ing
Ġpurch ases
Ġsecret ary
Ġpursu ed
Ġwarn ed
CO P
Ġadequ ately
ĠRevolution ary
Ġsusp ended
Ġbreath s
ĠContin ental
Ġinflam matory
ĠInit ial
Ġpione er
Ġappoint ment
App lying
ĠExam ination
ĠPhot ography
Ġende avor
ĠRock y
Ġbiof uel
Ġlegend ary
Ġsacrific es
ĠHindu ism
Ġintention ally
ĠLuther an
Ġwra pped
ĠPalestin ian
Ġalgebra ic
ĠInterest ingly
Ġspons ored
Ġsug ars
ĠOtt oman
Pub lished
Ġastronaut s
ĠAristot le
role um
% ),
F A
H T
J ew
S pe
[ '
b in
f i
j an
p a
u ced
in os
Ġa uction
Ġthe atre
es pecially
Ġp m
Ġp ir
Ġp enn
Ġf res
Ġf ins
Ġb anned
ar an
Ġd ots
Ġd ressing
Ġto ile
ro f
ro v
Ġl ining
Ġg ig
Ġg aze
ur gy
ow ing
ot ox
ir ie
ĠS it
el ed
ĠC u
ad ers
ist oc
Ġal beit
th an
em por
ĠM ores
ĠP S
us able
op ter
um m
Ġle uk
ure rs
Ġne arest
ĠR oy
Ġint ently
ous ing
ĠG as
ĠO s
ĠO ak
ie ge
ood le
** .
Ġfe ared
Ġcol i
round ed
Ġnew born
Ġdec olon
Ġbl oss
Ġmod ification
Ġatt raction
int erest
Ġjust ify
Ġpat rons
ĠAl b
Ġcor rid
Ġcor rection
ĠPro ced
Ġ5 6
Ġreal ms
ĠRe in
ĠRe ality
Ġ6 7
Ġbo iling
Ġmar ble
Ġdon or
Ġsl ip
Ġdr ill
ĠEng agement
Ġemb ro
Ġbi ography
Ġbi ologists
Ġprevent ive
Ġgr ate
Ġplant ation
Ġground work
Ġdom est
pro g
ĠWell s
Ġcompet itions
Ġadm iration
-------------------------------- --------------------
ĠCo oper
Ġcivil ian
ER S
Ġast on
Ġhar b
Ġhar assment
Ġpossess ions
Ġox idation
Ġphilosoph ies
ĠPress ure
Ġpeace fully
Ġsand wich
Ġassum es
Ad ditionally
Ġur inary
ĠSpec ific
Ġgar bage
ĠBr id
Ġcorrespond ence
Ġelim inated
Ġment ally
Ġmedium s
ĠLiter ary
Ġoverl apping
Ġsurvey ed
Ġqual itative
Ġundersc oring
Ġillum inating
Ġchest nut
Ġbot an
Ġextens ions
Ġsovere ign
Ġconsp icuous
ĠLie utenant
ochem ical
-------------------------------------------- ---
ĠPerspect ive
Ġobser ver
ĠExc ited
Christ ian
Ġambig uity
Ġscrut iny
Ġmunicip al
Ġexpon ential
Ġveterin arian
Ġhypert ension
ĠNapole on
Ġreminis cent
pron ounced
Ġabd omen
Ġhards hips
( -
) -
9 4
A pril
I O
T op
b est
b ling
c et
g one
k n
l ad
l ied
r ational
in put
er r
at is
Ġp ork
Ġp umps
Ġf art
Ġf ranch
le ft
Ġl ig
Ġl end
Ġl ord
Ġn ov
ol ia
Ġg ang
Ġu pt
ĠS S
ĠS ah
ĠC L
ate mal
âĢ ²
ĠP HP
and om
ĠB eck
ĠW right
ĠE N
ĠE R
ĠE t
ĠF le
ĠF amous
ĠD ry
Ġsp oon
Ġab dom
Ġsh ining
ĠN ixon
Ġcomp iler
ign ment
Ġind ices
Ġqu ote
ĠSt ructure
Ġdes pair
Ġacc red
Ġsc issors
Ġprov es
Ġunderstand ings
Ġprodu cer
Ġbu ildu
Ġfl av
ĠCom ics
ĠAmeric as
Ġpop ulated
ĠAn thony
ĠAd ditional
ven ue
Ġopt ic
ĠIm mun
Ġfin ite
Ġ7 00
Ġactiv ated
Ġperiod ically
ĠComm and
Ġ9 78
Ġsens ations
Ġauthor ized
ann ers
vious ly
iet ies
tt es
Ġsepar ating
Ġtrust worth
rad es
ĠAg ree
ES S
che ck
ĠFl ore
Ġep ist
ĠChar acters
Ġten ets
ĠTrans form
ĠPol ice
Ġoutput s
Ġstream line
Ġur ged
Ġvulner abilities
Ġmast ers
Ġsynt hes
ĠPhil ip
Ġshed s
ĠExper iences
Ġinhab ited
Ġ193 9
Ġastron omers
ĠAcadem ic
Ġreven ues
Ġpump kin
Ġobvious ly
Ġveter ans
Ġportray ed
learn ing
Ġpit falls
Ġdiplom atic
Ġsuperhero es
Ġdilig ent
Ġskept icism
ĠPrepar ing
Ġinterbre eding
Ġcoating s
ĠBern ard
ĠHung arian
Ġantioxid ants
Ġtempl ate
ĠRap id
Cho ose
ĠHispan ic
Ġmicros cope
ĠPret ty
ĠStal in
A f
B E
C ent
D avid
F S
H um
O pen
P op
T V
b earing
c v
d el
g age
h ill
j our
in se
Ġs ights
at ism
Ġc erv
Ġw ore
Ġp ens
Ġp rize
Ġf ron
Ġb ak
ar cer
Ġth rows
im mer
ĠA u
ĠA ra
ĠS P
Ġis ot
ad an
ag ram
ĠM E
ĠP ic
ĠP ul
ĠP ione
ĠB ring
ĠW ords
ĠF resh
og lob
Ġsp rink
Ġwor sh
ĠL if
ĠL ink
ĠG A
ĠG i
ost ering
Ġun rest
Ġimp orts
ĠJ ake
Ġman kind
Ġdo i
ree f
ĠCh ron
Ġrec overed
Ġ19 15
Ġob ese
Ġspec ulative
Ġsign ifies
Ġtrans mitting
Ġsub div
Ġent ropy
Ġdesign ation
Th us
Ġdep ressive
ĠAd op
ĠAd ult
Ġmin istry
ĠInd ies
be havior
Ġbre aches
Ġfin ishing
Ġgovern ed
Ġsuccess ion
Ġlast s
Ġcirc ulating
ĠLet ters
Ġemp ath
ocu ments
Ġphot osy
ĠStud io
Ġremain der
ĠMan ual
ĠCons umer
sw er
ĠMe et
ĠGu atemal
Ġopp ressive
Ġadvent urous
Ġsett ling
Ġthreat en
mon th
ĠAb use
ĠNe eds
Ġcoast s
Ġprofession ally
AC ML
Ġfacilit ated
Ġ196 6
Ġ194 7
Ġremind ers
Ġdead lines
Ġhol low
win ning
Ġattract ions
Ġcoord inated
Ġcaptiv ate
Ph ot
ĠBas in
ĠStand ing
ĠNon fiction
ĠPsych ological
Ġbutter flies
ĠOrig in
Se pt
Ġfav ored
Ġindu ction
ĠPu get
Ġfract ions
Ġbes ide
Ġdeliber ate
Ġreconst ruct
Ġlob by
Ġshru bs
Ġpert inent
Ġcav ity
Ġuncle ar
ĠLever aging
Ġgastro intestinal
Ġencry ption
Ġsupre me
Ġseism ic
Aug ust
< /
C ase
G A
S chool
T ogether
Y et
h attan
l ie
p ine
p end
t imes
v ings
v ae
w he
z ero
he art
on ies
en ame
Ġo re
ing ing
Ġp ri
le in
Ġh ay
Ġre ver
Ġn m
im b
id o
Ġst aple
ĠA er
em bers
ĠB esides
Ġ( âĢľ
ĠW ald
Ġch ore
Ġen light
ĠD ial
ĠR oc
og g
out put
Ġsh ower
ĠN am
Ġcont our
Ġun fortunately
Ġcl o
ĠIn fect
Ġout ward
Ġbet ray
ĠSt ress
ne ath
Ġdes erts
ail ure
ree ze
lic ted
Ġam endment
Ġsc ent
Ġdisc rete
Ġvar iants
Ġinf used
int o
ien cy
ien na
ĠCon duct
Ġchar ging
Ġass ass
Ġorgan isation
Ġdown ward
Ġest rogen
Ġest eem
par alle
Ġcle ans
rent ices
ĠSp ot
lu x
Ġhapp ily
ĠIs n
Ġunique ly
ĠEn lightenment
Ġdr um
Ġunt reated
app le
Ġbro th
iction aries
br id
Ġair plane
Ġfost ered
Ġrespect fully
Ġcr ude
light ing
Ġsoft ly
Ġpsych iat
ĠGe ological
Ġdiagn osing
ĠDis ney
son ian
Ġpossess es
eff ect
Ġden otes
Un ited
Un fortunately
ĠMat ter
co ord
Ġassum ing
Ġburn s
Ġblock ed
Ġdisp rop
Ġpun ctu
Ġwarn ings
Ġfort une
ĠDem onst
ĠCap e
Ġ195 9
Ġrul er
Ġimpl ants
Ġsimpl ify
ĠÂ £
Ġsusp icion
des igned
ĠStrateg y
Ġflood s
ĠEth iop
ĠRem ove
Ġlik es
ĠBer lin
urric anes
Ġstead ily
ĠPop ulation
ĠAp oll
Ġharmon iously
Comm on
ĠTor ah
Ġalter ations
Ġrecept or
Ġexacerb ate
Ġsch izophrenia
ĠWalk er
Ġceram ic
Ġcatal og
Ġculm inating
ĠWed nesday
determ ination
engine ering
Oct ober
Ġremn ants
Ġdetrim ental
ĠAware ness
Ġdeforest ation
ĠMores by
B ar
D s
H aving
J u
K now
L ine
M ichael
N R
O ut
S QL
a ft
b ian
c ology
m ile
p ox
Î ±
Ġw ished
Ġp ads
is a
Ġm ating
Ġm ascul
Ġe rect
Ġth irst
ro ots
Ġg el
ra x
id able
ĠS ans
ĠC R
ĠC amb
her ical
if iable
ĠB ols
ac cess
os itory
Ġen lightenment
um en
Ġle isure
ĠH ad
ĠE S
Ġby tes
ĠR un
Ġab reast
ĠG ray
ĠG irl
Ġad mit
ĠTh reat
Ġall ocated
ear th
ĠJ e
ĠSt ew
ish ments
row ning
ob ank
rib ute
rib uted
Ġreg ulators
Ġac upuncture
ĠV d
Ġany way
Ġbl ame
Ġsign ing
Ġinform ing
.. .,
Ġconc ert
Ġsocial ist
Ġsl iding
Ġbus h
Ġdr ills
Ġdirect ors
Ġel bow
ĠSe lection
Ġbi op
oph obia
Ġpersonal ities
ĠCl oud
ĠTe a
ĠBe agle
Ġdoct r
Ġevent ual
augh ters
Ġsuggest ion
Ġge ology
Ġbreak down
lo ads
Ġfinancial ly
Ġinvestig ated
itch craft
Ġadvoc ated
Ġacqu aint
Ġhom eland
With in
ĠDo ctor
oe lect
ĠGovern ments
Ġball oon
Ġblock chain
Ġmer its
Des ign
Ġancest ry
Ġsimultane ous
Ġ190 6
Ġstret ched
ĠBel ow
Ġsusp ense
ĠNet works
Ġpip eline
Ġgenuine ly
Ġperman ently
Ġconserv ing
Ġreinfor ced
ĠStory telling
Ġexempl ifies
Ġbless ed
ĠComb at
Ġrab bits
ĠEss ential
Ġbuck le
author ized
Ġindirect ly
Ġartic ulate
Ġtraject ory
Ġaug ment
Ġly rics
Tim my
Ġalb um
Ġrebell ion
Ġumb rella
ĠBarb ara
Ġfles h
Ġparl iament
ĠNig eria
Ġdisprop ortion
B i
C am
C ount
D ig
M ad
N s
P ower
S ign
V A
b en
c r
l on
m u
o qu
t aking
Ġ !
Ġt ended
Ġa verages
en ic
it ol
or ie
Ġp ouring
is en
an aly
Ġb arn
Ġb ites
Ġto ken
Ġre usable
ĠT itan
ut able
Ġbe et
ĠS ou
ĠI DE
Ġwith stand
Ġan ts
Ġan atomy
od ic
th ree
iv acy
ĠM i
ĠM artha
Ġde eds
Ġ( `
ri el
ĠF ear
ĠF low
ĠR aj
Ġsp erm
ight ing
ĠN a
act ively
ak y
orm al
ip se
Ġall ocate
Ġapp ar
Ġar tery
Ġar ithmetic
Ġunder represented
Ġrec ru
ract ing
Ġtechn icians
ĠUn iverse
Ġstr ides
ĠAl i
Ġconf ess
Ġdown stream
Ġprot otype
ĠAn throp
read ing
Ġens l
Ġend urance
ĠRe ef
ĠInd ependent
Ġconnect or
ĠIm ag
Ġspecial ize
py plot
Ġcho res
ĠRes istance
uro b
Ġter r
Ġlim estone
Ġstrong est
Ġsince re
Ġview er
Ġpast oral
apt ist
Ġtru ck
ĠGod s
ik ov
Ġsum mit
Ġdemonst rations
ze ch
ĠGen etic
Ġmedic inal
Ġpsych osis
Ex c
elt ic
Ġdiagn oses
rown ed
ĠAb stract
Ġbur gl
Ġgas oline
ĠUs ually
Ġincl ined
Ġvo ila
ĠFl at
Ġsac ra
ĠMy th
On ly
Ġcommand er
Ġhom ogen
esty les
ĠProt ocol
Ġrein forcement
Ġabsor bing
ĠNum bers
Ġtransl ates
Ġinsight ful
Ġbow el
ĠMal ay
ĠAtl as
Ġvot es
Ġsufficient ly
ĠStrateg ic
ĠBat talion
ĠDise ases
Ġacceler ated
ĠDist ribution
Ġbutter fly
Ġexcl aimed
ĠPolic ies
Ġfle e
Ġkill er
Ġguarant eed
ĠNor wegian
ĠOper ation
Ġanticip ation
ĠIde as
exist ing
Ġpron ounced
ĠCE O
ĠRecogn ize
Ġintr insic
Ġsket ches
ĠProble ms
ĠNorm al
Ġskept ical
Ġdys function
Ġvow el
Ġconstitu ents
Ġpatri arch
Ġneat ly
ĠInstit utes
ĠPhilipp ines
Ġtransg ender
Ġbicy cle
ĠDynam ics
Ġski ing
ĠHarmony ville
Ġcontamin ants
Ġdias pora
ĠMennon ite
Ġphil anthrop
Ġbuildu p
7 00
C V
D S
F eb
M P
g ments
m oil
p her
p olitical
s igma
Ġt ent
er k
it ality
Ġw are
an alysis
ic ides
Ġm und
Ġh ired
Ġre use
ĠT ell
Ġst ain
ĠS L
el le
ĠM ov
qu er
Ġv ic
Ġde hyd
ĠW ide
Ġch ord
ĠD ead
ĠR ot
ĠR oss
iz arre
art es
ĠG ib
Ġpl aint
oc ating
ak h
Ġres ort
Ġres ide
ell ows
ition ing
Ġup he
rit ical
Ġqu ir
Ġqu izzes
ĠSt age
ĠSt ock
Ġnew er
Ġoff set
ĠK arl
Ġco arse
ĠV A
ĠV I
iqu ed
Ġdisc ont
Ġins ur
Ġspec ifies
Ġsystem atically
oy d
Ġfl ame
ĠWh it
ps es
Ġgra ves
ather ine
Ġsec ured
Ġsol itary
ider y
ĠAn ab
ĠEx pect
Ġ6 3
ason ry
Ġes p
Ġkey words
Ġant ique
ĠChrist opher
of ten
ipp ers
Ġproject ed
Ġbal let
ĠCont ent
enn is
Ġadm ire
Ġver ification
Ġavoid ance
Ġcustom ize
eed back
Ġcat he
Ġestablish ments
Ġlog istics
su ff
Ġlif estyles
Ġdetect ives
Ġhot els
Ġrespond ents
Ġbad ly
ĠAssoci ated
ĠHigh way
Ġsou ps
ĠGo als
199 6
Ġmer chant
Ġvent ured
ĠPers ia
Ġstim ulation
Ġremote ly
Ġantib iotic
Sp ec
ĠScient ist
Ġtraum atic
cell ular
Ġcast le
nut rition
Ġexempl ified
Ġparad ox
Ġcong ress
Ġsuscept ibility
Ġconqu er
Ġparas ites
Ġschedul ing
Ġbuck et
psy ch
Ġdismiss ed
Ġrum ors
ĠMathemat ics
alg ia
Ġrecip ients
ĠOcc up
Ġeleph ant
Ġmaj estic
Ġcarbohyd rates
Ġconsol id
tebr ates
Ġli ked
ĠPos itive
Ġgau ge
Ġpharmaceut ical
Ġsuperf icial
ĠBalt imore
Ġoverse as
ĠFreder ick
Ġunpredict able
ĠDI Y
1 000
B as
D R
F rame
G I
H ome
L ink
P age
S uch
S arah
b ral
c reat
d oms
h um
l ook
o z
r ater
s ource
w ick
z ens
Ã £
Ġt ags
Ġs its
Ġc ov
is er
Ġb un
Ġb ricks
Ġm arch
st ar
Ġn atives
ĠC ounter
if iers
ĠM oney
ĠW aste
os ke
um ption
ĠH it
ĠH al
ĠH ob
pl ants
ĠD est
ĠD anish
ĠR u
Ġim mer
ĠO d
ĠO racle
Ġcl iffs
Ġdo zen
ail and
ub a
ĠCh air
Ġ19 13
ract ice
Ġra pe
Ġsc aling
ĠV II
Ġbl ocking
Ġins isted
Ġdist inctions
Ġed s
Ġsk ating
Ġsk learn
Ġlar vae
any on
ah u
Ġimpro per
Ġpres chool
Ġ6 6
Ġret irement
Ġland f
ĠPh arm
Ġensure d
Ġdig its
Ġjo kes
Ġarr iving
Ġdraw backs
ĠMan aging
ĠGen eration
Ġaltern ating
Ġsmo other
ows ki
ĠMar ie
Ġbra ck
Ġdiagn ostics
ĠComp are
Ġcontact s
AC T
Ġtax onomic
Ġ196 7
Ġcard inals
Ġcentral ized
Ġutil izes
ĠPar ks
Ġtail or
Ġadjust ed
Ġmanage able
IC EF
ĠDisc rimination
Ġassist ed
etric s
Ġgrand father
Ġbud ding
Ġfix ing
ĠFound ations
Ġ190 5
cip al
Ġsick ness
Ġroutine ly
part y
Ġpil ots
ĠSum mer
Ġdisturb ed
Qu ery
De velop
Ġprem ium
ĠExt ension
ĠSpe ech
Ġcoc oa
ĠMult iple
Ġsurprising ly
ĠCollabor ative
ĠCard inal
Ġpupp et
opt ional
Ġweigh ing
Ġsket ch
Ġadvis ory
Ġirrit ation
ĠCharacter istics
Ġrecept ors
Ġtomat o
Get ting
Ġinfer ior
Ġslic es
ĠAdvent ure
Ã³ n
iw i
Ġmiscon ceptions
Ġparadig ms
ĠSex ual
Ġunst able
Ġrhet oric
Ġintimid ating
ignific ant
ĠLegis l
ĠMald iva
Ġlect ures
Ġuter us
) ]
) ^
H R
M aking
O ff
P rodu
R ad
R ober
U RE
d irect
e ity
f ields
g ate
p resent
u ated
Ġt idal
Ġa ver
Ġthe ological
Ġo t
it at
it ism
Ġp oured
ed a
Ġin quis
Ġm as
st rong
Ġh int
Ġl ap
Ġl amb
Ġl ava
ve t
as uring
im g
Ġg iants
ul ence
ĠC ou
ĠC redit
ad as
qu et
op ause
ĠB and
ĠW is
ĠH ud
un c
ri ent
ĠF inal
ĠF oot
ort on
Ġsp y
Ġsh y
Ġim plicit
ĠL ank
ĠG ir
ĠG and
ĠG ram
ĠTh ailand
Ġinc on
Ġinc ub
ĠJ ung
ens ils
Ġqu it
ĠSt ick
ne ver
Ġhel l
Ġ19 19
Ġsc andal
Ġsc arcity
ĠK a
oth ic
Ġco ach
Ġco erc
mer cial
ĠV ent
iqu eness
Ġdisc overs
âĢĿ )
Ġmod em
Ġspec imen
Ġform idable
Ġnum b
Ġback up
ĠAl an
Ġplay ful
Ġlit ter
Ġdep ictions
ĠAd obe
ĠAr range
Ġ18 60
Ġeduc ating
Ġenc irc
Ġmus cular
Ġca ffe
Ġplace bo
orn s
Ġfore most
Ġant im
Ġant igen
Ġcoll ision
Ġpast a
Ġrespect s
Ġrece iver
cap es
Ġplant ations
let in
ĠShe l
Ġmultip ly
Ġbar g
Ġcy cling
ĠMan hattan
ey e
ĠBl og
Ġmarket place
Ġadm ired
Ġdest iny
Ġclean ed
Ġcivil ians
ĠPr ivate
ĠArt ificial
Ġmagn esium
Ġmis use
Ġprior it
Ġappe als
Ġresid ual
Ġsn ake
Ġexhib itions
Ġconver gence
Ġden om
Ġcand les
Ġroll s
ĠSet tings
ĠVis it
Ġclim atic
Ġpractition er
ĠCare fully
hist ory
ĠFin land
Pl an
ĠST EM
ĠPo ints
Ġacceler ate
Ġtoxic ity
Ġvig or
Ġanticip ate
Ġreinfor ces
ĠComb ining
Â® -
Ġdism ant
Ġdepart ure
sm all
Ġmes h
Ġeru ption
Ġurg ency
spe aking
ĠDen mark
Ġwound ed
ocy tes
Ġlegit im
ĠEns uring
ĠPen insula
occ up
Ġperpetu ate
Ġanalog ous
ĠConfed erate
ĠMechan isms
ĠLands cape
Ġrecip ient
Ġdisadvant ages
Europe an
ĠCele br
threat ening
Ġgrate ful
A ccess
L ooking
L ittle
R ich
T erm
f ruit
l an
l ock
Ġ iv
Ġt iles
in us
re r
Ġb other
Ġin ert
Ġm arsh
Ġto ss
Ġl av
se ed
im ming
Ġg lean
ur ate
ch t
Ġbe verages
ĠA N
ĠA ffect
ir ling
ĠS ay
ĠC ant
ĠC zech
Ġan emia
res ults
ĠM R
ĠB ry
ĠB ened
ĠW oman
ĠE at
ĠF ill
pl iance
ĠR ace
ĠL ives
ĠL esson
ĠL eft
ĠL anguages
Ġdis char
ip ation
Ġthem atic
ens or
ber cul
Ġqu eries
ough ts
Ġag ro
ĠCh ick
ĠK el
ef ined
ĠV atic
In s
Ġdi ary
ues e
Ġbl ues
Ġsm ells
Ġval ves
own ed
Ġexp orts
Ġback ed
uss ions
Ġequ ips
ex per
Ġgu ards
ĠSo il
ier ra
ix ed
Ġcrit iques
Ġcontrib utors
Ġopt ional
rop ract
Ġmet rop
Ġmet adata
Ġmult idisciplinary
Ġbus es
app end
Ġorig inating
Ġemb arr
Ġprin cess
Ġpast e
Ġcost umes
Ġbal ances
Ġsum m
enn ial
Ġaccount ed
Ġprob abilities
ĠRep orts
play ing
elt a
ĠX ACML
ĠCo al
Ġevalu ations
ĠPe oples
Ġthr ived
Ġexce ed
AC K
Ġep och
Ġsequ ential
ĠCur iosity
Ġhost ed
lev ant
ĠAc ross
Ġautom otive
Ġvict ories
Ġeffort lessly
Ġupd ating
ĠCre ation
Ġnorth west
ĠUp dated
Ġstrengthen ed
Ġmit ochond
ĠRet urn
Ġconsult ation
Ġdro pping
Cont act
ĠSpirit ual
add y
ĠProv iding
Ġaccum ulate
ĠSupport ing
Ġwel coming
ĠBro ok
Ġrobot ics
ĠNor way
ĠEmer ging
ĠQuest ion
Ġdy stop
ĠLu ke
Ġprejud ices
press ure
conf idence
Ġunderp inning
ĠSqu are
Ġmembran es
Ġsulf ur
readn oughts
Ġcommod ities
Ġrighteous ness
odynam ic
Ġexcer pt
ĠBud get
Ke ep
Ġignor ance
Aust ral
Ġfart her
pend icular
ĠHud son
ĠVatic an
) ||
* .
E s
S k
V iew
b ly
c ity
f em
g reat
h adow
u ously
w ere
y les
Ġt ense
Ġa rose
re aching
Ġo vere
Ġw ip
Ġp ills
Ġp iqued
Ġm ole
Ġd ated
Ġto es
Ġl acks
Ġl amps
Ġg rey
ra int
ra ised
ur as
ĠT H
ĠT am
ĠT ah
Ġbe ats
ĠS G
ĠS in
ĠS old
ĠS ave
ĠS ites
Ġon ion
ĠC C
ĠC ass
ĠC eltic
ĠC anyon
ĠM ao
ĠP or
ĠP and
ĠP erm
ĠB os
ĠW ise
ĠF alls
ĠR ub
ĠR osen
Ġsp acing
iz ards
ĠN y
Ġpl ed
Ġun authorized
ĠU pper
av ia
ĠIn sect
Ġev angel
The ir
Ġunder w
ric ting
Ġqu een
Ġinter rog
Ġrel ent
Ġover t
ĠCh am
ĠCh agos
Ġhel ic
Ġsc rew
ĠK id
ĠK ong
Ġexam inations
Ġtrans m
vent ing
eg in
ĠAl ber
ex cept
Ġenc ro
Ġ7 8
Ġactiv ist
Ġactiv ate
Ġpred ecess
Ġemp athetic
ĠZ end
ĠZ oro
Ġtransform s
Ġquick er
Ġfa una
alu able
Ġdeb ts
Ã© s
umb ing
ai ro
Ġmonit ors
ĠUs er
ĠPy ram
ĠNot es
Ġ196 8
ĠGl ass
Ġsequ encing
ĠCur ious
Ġmut ually
Ġfuel ing
Ġexec uting
Ġplanet ary
Ġreported ly
Ġsand y
ĠChild hood
bl ind
ĠAss istant
Ġprofound ly
Ġencounter ing
Ġparent ing
Pro v
Pro fess
Ġrelax ing
Ġdestro ying
Ġyield ing
Ġment orship
Ġattend ees
Cont emporary
ĠEconom ics
En ter
Ġcompos ite
ĠEv ans
Ġcert ified
Ġtur moil
Ġcompr ise
Ġhorm onal
Ġcounsel ors
ĠBro ther
Ġoblig ation
eren nial
ĠTr uth
ĠEvalu ate
ĠHor se
Ġru ins
Ġphotograp her
Ġterror ism
Rel ated
Ġmonu ments
Ġfo am
ĠEve rett
Ġlaugh ing
ĠCorn ell
ĠIncre ased
Ġinterrupt ed
Ġincons ist
Ġantioxid ant
Ġbor on
odynam ics
ĠPortug al
ĠArgent ina
Ġma ize
ĠAnton io
ĠAmid st
Ġdiarrhoe a
Ġhepat itis
ĠBols he
Ġmund ane
1 20
E xt
S lide
b ad
g un
h im
m el
v ar
Ġ ions
ic ating
Ġd ip
Ġn aming
ĠA th
Ġcon gen
ĠC ul
ĠC inc
ĠC ognitive
ĠI UCN
ĠM ade
op or
op ard
ac cept
ĠW ag
ĠW olf
Ġle ague
ĠH as
un it
ĠE ye
ĠF ostering
pl ess
ĠD rag
Ġsp ider
Ġsh aft
ĠN at
ff iti
Ġinc ap
Ġun ple
Ġun iqueness
ĠJ oy
ish ops
Ġrel ational
Ġag rees
Ġtr unk
Ġ19 12
Ġexpl orations
Ġact or
ĠY az
ob i
oth y
ĠV ienna
ren al
Ġbl ends
Ġeng ra
Ġbel ly
Ġconf ine
Ġbr ushes
Ġexplore r
Ġcle arer
ĠIs ld
Ġhand ful
Ch all
Ġmet res
oura ged
Ġperform s
Ġgroup ed
pr ise
Ġ7 6
view s
Ġprogram mers
Ġdeep ening
Ġkind ly
ĠTe acher
ĠPh oen
Ġmot ors
Ġpost ing
Ġz inc
roll ing
Ġpsych otic
Ġadm ission
Ġwa ist
Ġlab our
ĠGe ography
Ġreve rence
su per
Ġlif ting
Ġsil ly
Ġresid ing
Ġenhance ment
Ġdefin ite
Ġder ive
Ġconver ts
Ġiron y
Ġsouth west
bl ack
ĠDef ine
199 7
ultane ously
ĠMark eting
Ġpet ition
Ġisol ate
Ġur ge
Ġround s
Ġancest or
Ġintrig ued
ĠSub st
Ġdistingu ishing
ĠFe atures
ĠCy cl
Ġoutl ining
Ġdisrupt ed
Ġcher ish
Ġhypothes es
ĠBal ance
organ isms
ĠBre ak
Ġquiet ly
roscop y
Ġarchae ologists
Ġgrant ing
Ġgest ure
ĠObs erve
Ġnice ly
ĠRam adan
Ġmes mer
Ġparas ite
ĠParticip ants
Ġborrow ed
Ġfut ur
ĠLine ar
Cre ate
ĠObject ive
asm ine
Ġelig ibility
ĠConfed er
Ġmelt down
Ġeleph ants
Ġprol if
Ġregen eration
Ġcoexist ence
Inc orpor
Ġexagger ated
uzz y
Ġtox ins
Ġembod ied
Id ent
ĠHolly wood
Ġprecon ceived
Ġbolst ering
Ġabdom inal
Ġbak ery
Ġimmer se
bercul osis
1 50
B ook
E r
F T
F in
I B
J anuary
L O
M T
P rin
d oc
f ar
g rown
g rass
h r
p ub
t arget
t itle
á ¹
Ġt asked
in fect
on ed
Ġp mid
Ġf al
Ġf ired
Ġb unch
Ġb izarre
ar ath
Ġm osa
Ġm aternal
st al
Ġl ane
ly n
Ġn ons
ĠT ool
Ġbe ads
Ġst ub
ul se
Ġcon volution
am as
ĠC ities
ad m
od d
em et
ĠM un
qu ist
ĠP un
ĠB ound
ĠB rad
ĠB illy
ci le
Ġwe aving
ill es
ĠW or
os o
ĠH un
ĠH az
ĠH unt
Ġse aled
ĠF lo
Ġat op
ĠR oll
Ġsh ading
ĠL ate
ĠL ang
ĠG ent
Ġpl ains
Ġcomp elled
Ġres et
Ġdis l
Ġun fore
Ġun ified
Ġall iances
Ġte eming
so cial
reat h
ass ing
Ġup grad
Ġind ication
Ġfe ud
Ġ19 14
Ġtw isted
ĠV ision
Ġdevelop er
Ġstr anger
Ġfl ax
Ġpar king
Ġhand led
pr ising
bs ite
Ġ7 7
Ġmark er
Ġter restrial
Ġrest orative
Ġrun off
Ġhead ache
Ġshort age
Ġsym met
Ġ15 00
sh ire
Con f
sc he
ĠDr ive
uth ors
ĠReg ression
ĠNo vels
Ġviol ation
Ġcit rus
ĠPr ime
Ġund erest
Ġcalc ulates
ĠCar bon
Ġdocument ary
ĠMod els
Ġi Phone
Ġap olog
Ġap artment
Ġsil icon
Ġple ased
Ġdial ects
Ġmathemat icians
ĠCount ries
ĠOther wise
Ġnucle us
Ġcou p
Ġcourt esy
Ġprint ers
Ġmig ratory
199 4
Ġmist aken
Ar ch
ĠAdv is
Ġamb ition
Ġjournal ism
ĠInf antry
ĠBr un
Ġload ing
ĠKnow ing
ĠAtl anta
Ġwest ward
Ġmyst ical
Ġconclud es
ĠLa ure
Ġbond ing
Sp ace
Ġvig orous
Ġsan itation
Ġcart ilage
oven ant
ĠSmith sonian
Ġaccum ulated
ĠIns pect
Ġappoint ments
Ġreject ion
amps hire
Ġmarvel ed
Ġmetab ol
ĠRob inson
Ġundert ake
Ġpron unciation
Ġchair man
Ġpill ars
Ġcommission ed
ĠTr uman
ĠImpro vement
Ġentrepreneurs hip
Ġfundament ally
Ġmanusc ript
Ġchromos ome
Ġslic ed
ĠFem ale
Ġpestic ide
Gl obal
ĠPas sover
Fe eling
ĠBase ball
Ass ess
Ġunint ended
Ġpedag ogical
ĠProtect ing
ĠGord on
Ġenact ed
mathb b
Ġrefriger ator
ĠDesc artes
Ġseiz ures
Ġdefe ated
' '
? '
B ody
G R
L og
M ult
P al
S em
U r
W S
b ase
b atch
c ou
c ourse
c ision
c ards
c lick
i age
k rit
n or
o S
s ky
Ã ¯
Ġ Ï
he y
Ġs erm
Ġs ailing
Ġc akes
Ġc rick
es ian
Ġp ent
Ġp acing
Ġf ame
Ġf iring
Ġf aint
an se
Ġb ent
Ġb id
ion ed
Ġd ub
Ġd ictionaries
Ġd aughters
Ġh ues
Ġl en
Ġu b
Ġu l
ĠT ony
ĠT arget
Ġst ric
Ġst uttering
ul er
ĠS R
ĠS r
ĠS erve
am ma
Ġpro se
Ġpro actively
Ġan k
od er
Ġit erative
th ink
ĠM axim
ĠB eng
ĠB rian
Ġch unks
ĠE pid
Ġse ized
ĠF u
ĠD iam
Ġsp ans
Ġha w
Ġsh ame
Ġsh rim
art a
art icles
ĠN ick
oc o
ĠO wl
end ered
ĠTh ought
Ġper pendicular
ace ous
Ġcol der
we b
Ġacc l
ĠY ug
Ġ- >
Ġac re
Ġexam s
ĠV ery
Ġadd itions
Ġhum orous
Ġform ulated
Ġgra ms
ĠFor ces
Ġgener osity
Ġday d
Ġdem ons
Ġ18 80
St and
Ġimpact ing
Ġapplic ability
Ġbi ologist
Ġcharacter ization
ĠCl ar
Ġprop onents
Ġcost ume
ĠInst all
ĠInst ru
Ġfree ze
Ġrad ius
Ġshort ages
Im p
Ġproject ion
Ġcontain ment
ios is
ĠEm otional
ĠHist orically
itud inal
Ġvisual s
ĠYour self
Ġdeb ated
Ġgreen er
Ġri pp
Ġthr ill
Ġfit ted
Ġsoon er
att a
ĠPres ervation
Ġfoot prints
Ġ194 3
Ġcry obank
Ġadjust ment
IS T
Un like
ĠMat plotlib
ellect ual
Ġweak ened
ĠSur ve
ĠLat ino
Ġweb page
Ġmer ge
Ġhun ters
EC D
ĠUN ESCO
ĠConst ruction
fl at
Ġvot ed
En vironmental
Ġqual ify
Ġaccommod ation
ĠCarol ine
Ġunw aver
ĠMin or
Ġfle w
Ġdisrupt ions
ĠEqu ipment
ustain ability
car bon
ĠMo ore
Ġdisagree ment
Ġmand atory
Ġmetaph or
Ġpreced ents
Ġpin point
Ġguit ars
Ġsoy beans
ochem istry
Ġtriumph s
num py
ĠMot or
ĠOlymp ic
ĠArmen ian
Ġincons istent
Ġparadig m
ĠPortug uese
ĠCP U
Av oid
Ġmol ten
ĠViol ence
osex ual
Ġling ering
Ġrecruit ment
Ġunple asant
emet ery
Ġunfore seen
Ġunwaver ing
B est
G overn
M c
M art
S outh
V R
c urric
d am
h alf
m ass
s amples
t own
u pp
v oc
Ġt in
Ġt ile
Ġt une
on na
at ra
Ġc ooks
Ġc ache
it orial
Ġf ond
an ah
ed e
Ġin verse
Ġin appropriate
Ġm ars
st an
st ed
st ery
Ġl ubric
et us
ul u
am er
am el
ĠC rim
Ġan ten
iv ial
ĠM akes
ĠM ember
ĠM ira
ĠP oor
ĠP eters
op eration
ĠH ong
ĠH ampshire
ri k
Ġsp iders
iz ens
Ġwor m
ĠG NU
oc ide
ast ery
ff y
Ġdis ciples
Ġinc arcer
ĠU P
Ġme g
Ġman ners
Ġpre historic
arn ation
Ġinter generational
ph y
Ġco ats
Ġany time
ict ed
Ġ3 50
Ġ3 60
Ġno isy
urn al
.. .âĢĿ
Ġgener ic
Ġplay w
Ġcur sor
Ġafter ward
Th ank
Ġpop ul
Ġdef icit
Ġav oc
Ġprof icient
Ġsocial ism
be e
Ġcle ared
Ch ina
Ġ7 1
ĠSe qu
Ġter ra
Ġant iv
osp ace
ĠOr ange
Ġcr ash
Ġinteg ers
ring e
Ġmusic ian
Ġrad iant
Ġgovernment al
Ġfil tering
ĠDes cription
Ġ12 5
Ġge od
Ġcool ant
Ġcra cks
ĠGen esis
Ex odus
ĠTra ditionally
Ġstress ors
Ġvisit or
mon ary
ĠSouth west
Ġwin ner
su pport
Ġimag ining
ĠDevelop ments
Ġdetect or
Ġdial ect
att les
Ġcard board
Ġtail s
ĠTrans formation
Ġhous ed
atur ated
Ġfamiliar ize
Ġcoord inating
ĠDisc overy
Ġcircumst ance
Ġmiss iles
OR D
199 8
inn itus
ĠMedic are
ĠUp date
Ġelev ate
Ġsem inal
Ġpersist ed
Ġconv iction
ĠRepublic ans
found land
Ġvolunte ering
flow er
Qu est
Ġcher ry
Ġcounsel or
Ġcomprehend ing
ĠPlay ers
Med ical
Hist orically
ĠGard ner
Ġhybr ids
Ġcong regation
Bl ack
Ġven ues
Ġinhib itors
ĠHoo ver
Ġsle e
commun ications
Ġconfron ting
Ġswift ly
ĠFed eration
Ġlun ar
ĠPT SD
Intern ational
ĠPier re
ĠTransport ation
Ġportfol io
Ġcongest ion
ĠElement ary
ĠNich olas
Ġcorros ion
Ġprecurs or
Ġburd ens
ĠGuatemal a
Ġcaffe ine
> .
D NA
M E
P o
U E
U lt
W he
a a
b uck
g ly
h m
h oot
k k
l it
l ength
n an
Ġt apping
Ġb ats
Ġin h
Ġd read
Ġd aring
Ġd ynasty
Ġh ing
Ġh one
Ġl am
Ġl aund
ra ul
ut er
ot on
ĠA ck
ĠA hab
ay ed
ĠC ow
Ġpro sec
Ġan not
od ia
ect ar
em at
ĠM and
ĠM obile
Ġhe d
Ġv ibration
Ġde le
Ġch alk
Ġch arming
Ġen ig
ĠH ER
est on
ĠD ick
ĠR ig
ĠR ain
ap olis
ort ality
Ġsp ite
ĠL ar
ĠL ay
ĠL oyal
ĠG rants
ĠO ptions
Ġun paralle
Ġall iance
ie g
Ġcl ause
ĠIn uit
Ġunder neath
ire ments
Ġqu iz
ph an
Ġrec ons
alth ough
ĠK ir
Ġrem oves
Ġco ined
ren ched
Ġdisc ourage
Ġcommun ist
Ġsign age
Ġsign atures
Ġexp anse
int ers
Ġfl aws
Ġ20 21
Ġchar itable
Ġcount ed
Ġcar riers
Ġ5 9
Ġconf er
Ġafter math
ĠRe ci
ĠRe ason
Ġenc oding
Ġpass enger
Ġbo om
19 75
Ġdev ise
Ġdev ised
oph ys
Ġair port
Ġet iquette
Ġrisk y
Ġ9 7
apt ive
ĠTe ach
Ġheart y
Ġprop osition
Ġsw ord
Ġglobal ized
ĠDes cribe
Ġanaly sts
Ġred emption
ĠIntern al
ĠReg ulation
ĠNo ise
ĠPer fect
Ġcit ations
Ġund es
Ġord in
Ġord ering
Ġdocument ing
Ġple ural
ino a
Ġten ure
ĠOff icial
Ġtend encies
Ġcommercial ly
Ġkn ots
Ġfabric ation
199 0
Ġcompl aint
Ġcompl aints
eal ous
Ġmal ignant
ĠWind ow
Ġlic enses
Ġelim ination
tra ditional
ĠCare er
Ġsimpl est
Ġod or
Ġdiss olved
Ġflood ed
ĠForm s
ĠClass ification
Ġinequ ities
Ġcomprom ised
ĠEth ics
Ġchief ly
Ġsan ct
Ġscat tering
Ġcart oons
Ġinspect ions
Ġgrass roots
ĠBre aking
Ġturb ulent
Ġaer obic
ĠProp ag
Ġexped itions
ĠProper ty
Ġprivile ges
Ġprivile ged
Ġric hes
Su pp
ĠChem ical
ĠPlat oon
ĠDa wn
keep ers
ĠAuthor ity
ĠNeg ot
vo king
Ġrelie ve
Ġperpetu ating
Ġcin ema
agg ressions
Ġsor ry
govern mental
achel or
ĠIntrodu cing
ĠCust om
Vis ual
Ġcarbohyd rate
Ġbrut al
Ġincom plete
Ġingen uity
Ġpengu in
Ġvend ors
Ġperf ection
ĠNicarag ua
inte g
ĠLen in
fund ed
Ġcoron ary
estab lished
Ġdiscon nect
Navig ating
ĠHit ler
opor osis
Ġmesmer izing
Ġunparalle led
! **
% ).
A ir
D irect
F ig
G erman
J une
L ow
P ersonal
V ER
l ishes
o om
p aper
r ide
v ic
v ia
w alk
y rin
z ema
Ë Ī
á ¸
Ġ erg
Ġc ate
es cent
Ġw rist
Ġp ant
Ġf ines
ou fl
ar iance
st ore
st ock
st ones
et a
ol en
Ġg ross
ĠT oo
ĠS VM
ith s
ay an
ĠC op
Ġwh olly
res ult
ĠM O
ĠM ut
Ġv oid
ĠP le
Ġ( -
ĠW onder
Ġch airs
ĠH ousing
un al
ĠF ij
Ġat he
ĠR ol
ĠR achel
Ġr ats
Ġr ides
Ġha st
ĠL arry
ĠN an
ĠN urs
ard o
Ġpl ague
per ing
Ġk its
Ġun equal
Ġimp ressions
ĠJ osh
ass er
Ġtra des
ber y
Ġro oft
Ġcons cience
lect ed
Ġreg ulated
Ġdi agonal
ram a
Ġexp ands
Ġfl ames
Ġjust ified
Ġdist orted
ruct uring
Ġpar s
Ġprom inence
Ġorgan isations
Ġmon key
Ġ18 50
Ġris en
Ġredu nd
Ġ6 8
Ġhand made
ĠIm ages
Ġsuccess or
Ġdev oid
ĠPl aces
Ġcal ming
Ġ0 9
ont ology
Ġharm less
12 8
ĠDes ert
Ġ12 8
Ġdistrib uting
enn ett
Ġstat utes
fact or
Ġcompet ent
Ġut ensils
Ġsepar ates
ĠOver coming
Ġassess ed
Ġcross es
ĠHar ris
Ġbur ial
ĠCommun ications
Ġhost ility
water ing
Ġestim ation
Ġprepar ations
Ġfast ing
Ġunivers ally
Ġrandom ized
Ġdecl are
hent ic
Ġrecommend ation
ĠSch midt
Ġnotice able
Ġjournal ists
ĠUN ICEF
Ġmel ody
Res p
ĠDel aware
Ġnegot iating
Ġmarginal ization
och rom
Ġafford ability
Ġban ana
Ġdiss ent
eles cop
ĠClass ical
Ġillum ination
isp ers
Ġcompr ised
ĠProcess es
ĠEmer gence
Ġhem isphere
Ġhem orrh
Ġcrow ded
Ġblog s
Ġparad ise
ĠMor ris
Stud y
Ġblow ing
Ġresemb ling
ĠTor onto
Per haps
conf ig
Ġsoy bean
Inst ructions
Ġblo oms
Ġdinosa ur
Ġmonu mental
ĠRepresent ation
ĠProduct s
Ġgreet ed
ĠInvestig ate
ĠDeterm ine
ĠCast le
ĠSab bath
ĠSac red
Ġdownt own
Ġwed ding
Ġspont aneous
Ġsew age
Ġdecis ive
Ġadvertise ments
Hel p
ĠObserv atory
Ġapprais al
Ġlivelihood s
ĠMesopotam ia
ĠMalays ia
) (
B ra
L S
L eg
M RI
R em
S O
V ol
c as
m ate
n u
p athy
r ights
s qu
s ix
t osis
u ke
w s
Ð ¸
â Ĥ¬
Ġ ^
in form
in itely
he um
Ġs aints
at ology
it as
al an
Ġp uff
Ġf encing
an ism
ar ate
Ġin aug
Ġd ances
Ġd uck
le af
ro y
ro it
as soci
Ġn ails
Ġg reed
ĠT rin
ĠT ropical
ĠT elescope
ĠS ugar
el d
th irds
Ġhe y
Ġv ague
ĠP am
Ġde ity
ĠB od
Ġ( '
ĠW ait
Ġen j
ĠH urricane
Ġse wing
Ġne em
ĠF ou
Ġsh aking
Ġsh ocking
art ime
Ġcomp ile
age hot
ĠU g
ition al
form ance
Ġout lets
ang o
Ġind el
Ġfe eds
ĠSt u
Ġover coming
ĠCh ronic
pe x
ll a
Ġinv aluable
Ġsc rib
Ġsc ored
Ġsc aff
Ġcommun icated
ict ive
Ġpo ised
ew ard
Ġinf amous
int osh
ruct ured
ins p
Ġfol iage
cept ive
Ġeng ages
Ġcor related
Ġafter wards
Ġdef enses
ĠAd ults
Ġ6 9
oura ble
Ġhere in
br as
Ġant iquity
Ġcollect ibles
Ġcoll isions
Ġsound ed
ĠCl inton
ĠBe aut
Ġexc lude
Ġsuper vis
Ġbar ley
Ġsat uration
Ġconce ived
Ġmor b
Ġadapt able
reg n
Ã© e
Ġste aling
ĠNo vel
Ġveget arian
Int eg
Ġresil iency
Ġadminist er
Ġresid ues
Ġgot ten
ĠMy ster
Ġhosp itality
Ġlabor atories
Ġtim elines
ĠMat rix
nam on
ĠPract ical
Ġwrong do
Ġacid ic
ĠSk in
Ġsimpl ified
writ er
ĠHel en
Ġfrag rant
ĠClass room
Ġband width
Ġfold ing
ĠSum mary
Ġtur key
ĠDiff icult
Ġsan ctuary
Te chn
Ġanthrop ologists
Ġguard ian
ĠSil k
step s
Ġfract ure
------------------------ -
ĠCro at
olk ien
ĠCat hedral
ĠRus sel
ĠCa uses
Ġhall uc
________ ________
Ġgam ma
Ġpenal ty
Ġrepet ition
ĠRand om
Ġcub ic
Ġattor neys
Ġexplos ive
Ġfragment ation
Ġiter ations
Ġlin en
Ġlith ium
Ġmosqu ito
Ġmaneu ver
Ġtradem ark
ĠMast ering
Ġdeple tion
Ġperipher al
Ġrept iles
Ġglaci ers
Ġteasp oon
oglob in
Sept ember
ĠApoll o
ĠIDE A
arath ush
A ut
C ard
E nd
H ard
N O
S elf
S ym
T or
W ork
W omen
a cious
c ry
c up
c atch
e ast
f amily
g rowing
i pt
k ward
l ades
o ing
p arent
r ise
t rue
x iety
Ġ __
Ġt ect
Ġt ours
re pan
Ġw iki
Ġw icked
Ġp ans
Ġp erennial
is ans
Ġf ried
Ġf onts
Ġd orm
Ġh urricanes
Ġre ception
Ġl anes
Ġl umin
ra wn
ĠT P
ĠT otal
ĠT ao
ir med
ĠS ize
ĠS oul
el o
ĠC el
ĠI con
Ġan omal
Ġal arms
ore r
Ġen lar
ĠH ope
un te
ri ver
Ġse cession
ĠF ra
ĠF ine
ĠF lex
ĠD ance
ĠD ocuments
ĠR ash
ĠR ico
Ġr ugged
Ġwor ms
ĠL CD
ĠG ate
ĠG un
ĠG ast
ĠG iants
ĠG ospels
act ing
ĠO ral
ĠTh ai
Ġun h
Ġimp ressed
av ailable
Ġout reach
Ġunder way
ĠSt ev
ount ain
Ġrec alled
Ġsa ut
Ġco herence
ĠV eh
Ġbl ur
old ing
Ġpo etic
uc ked
ble m
ĠCon ventions
ĠHow ard
ĠCom ment
Ġcor rupt
Ġlit urgical
Ġgl im
Ġcontin ental
Ġschool ers
Ġ18 65
Ġ18 89
Ġ6 1
Ġanim ations
Ġfin est
Ġspecific ation
Ġspecific ations
ĠPl ut
Ġbi ographical
oph il
Ġet ched
Ġline age
Ġlater al
ee k
Ġsuper conduct
ĠAm ish
rel igious
Ġdam s
ĠSim on
Ġpath ology
Ġnavig ated
ĠSu ff
ĠTra ditions
Ġlab s
Ġste ering
Ġstress ful
Ġprep ares
ĠComp onents
ĠArt icles
ĠNot able
AC H
Ġrespond s
Ġfoot age
onom y
Ġjud gments
ĠRel ated
Ġacadem ia
co al
Ġapprox imate
Ġmig rate
Ġdecl aration
Ġur ging
Ġsymbol izing
ĠUN IX
ĠEmp ower
Ġfort ress
ĠPower Point
Ġwitness ing
ĠAdm iral
Ġneuro trans
Ġgall ery
ĠAppro x
Ġfulf illed
Ġcart oon
ĠNewton ian
Ġdispl aced
Ġdownload ed
Ġaer ial
Ġsafegu ards
Ġped est
Ġsau ces
Ġcyber bullying
ĠIde a
Ref erence
Ġille g
ĠSand y
ĠDou ble
ĠCamp aign
Ġpace maker
ĠProm oting
eren cing
Sim ilarly
ĠEstab lishing
ĠComple te
ĠNov a
Ġasc ertain
Sm ith
Ġhonest ly
ĠRand olph
Ġmerg ing
Ġglow ing
Ġ[... ],
Ġmira cles
develop ed
Ġscrut in
Ġderiv ative
ĠSpect rum
Ġstrat ification
ĠHig her
Ġmatt ress
Ġaggreg ate
ĠPediatric s
ĠBec oming
Ġalcoh ols
Che ck
Ġnoteb ook
urren cy
Ġcact us
Ġreper to
Ġkins hip
Ġamate ur
Ġembro idery
Ġphotosy nthesis
Ġcathe ter
Ġcongen ital
repan cies
C or
C le
F alse
K ing
N E
N one
P G
W ar
W ow
c ode
d in
d et
h ttps
m ad
n ative
s ided
t ry
Î ¿
á Ł
in ational
he cked
re se
er os
Ġthe or
en ance
or ac
or able
Ġb ored
Ġb amboo
om nia
ent ry
Ġe g
Ġl ou
Ġl ucky
ow e
ĠT a
ĠT her
Ġbe ating
ot er
ĠA e
ĠS oph
ĠS weet
ĠC A
ĠC ert
ĠI R
if ted
Ġex quisite
ist ine
em ics
ĠM all
ĠM att
Ġhe x
Ġhe ir
Ġhe red
ĠP i
ĠP is
ĠP ages
ĠP aint
ĠP apers
ĠB O
ĠB ron
ĠB ishop
os lav
Ġch op
ĠH ag
ĠE ight
ĠE sp
Ġne on
ĠF inn
ĠD B
ĠD in
ĠD ave
ap ting
Ġsh ook
Ġsh rink
Ġim plicated
ous se
ard ig
ĠG P
ĠG R
ĠG anes
Ġwas ps
Ġcomp ressed
ear ly
ĠJ enn
Ġper vasive
ater n
Ġcol oring
ph p
Ġco aching
ĠV ice
In formation
Ġbl ade
Ġob edience
Ġcall igraphy
cy cle
Ġart works
ĠWh atever
Ġpop e
Ġdef iciencies
oun s
the se
Ġend ure
Ġ18 70
ĠRe lease
ĠRe bell
Ġconst ell
be ats
Ġhand ed
ĠIm perial
Ġdon ors
Ġmeas urable
Ġcertain ty
ats on
Ġill usion
Ġcal ibr
oph ical
mat ical
mat plotlib
Ġtri o
Ġsw itched
Ġauthor itarian
ush ing
ĠApp lied
Ġexpect ing
ey er
ĠSim ultaneously
Ġaud i
ilit ating
Ġsuff rage
icro bial
ask at
Ġlower ing
ĠLe ban
Ġbound ed
Ġclean up
Ġspread s
Ġthr ust
iny l
Int erest
ĠCar ter
Ġcoast line
Ġpack ing
Ġi P
Ġconsequ ently
ĠCO N
Ġ196 2
Ġsubject ed
Ġmicro bial
ĠMat ters
Ġju ices
Ġmid st
Ġsand w
Ġspect ra
ias is
Ġeight eenth
Ġarm or
Ġpret end
Ġamb ass
Ġpun ished
Ġvent ures
Ġgar ment
ĠEvery thing
Ġcris p
Ġ190 3
Ġ190 7
Ġ195 4
Ġ195 7
Ġbright ness
Ġtraffic king
Ġforget ting
Ġsam pled
Ġdisturb ing
Ġdisrupt ing
ĠRad iation
Ġbattles hips
Ġbol sters
ĠMa ori
ĠCarl o
ĠEvalu ating
Ġrelat ivity
Ġprohib ited
Ġpupp etry
Ġeru pted
Ġnom inal
Ġtick ets
Ġcosm os
Or gan
ĠNeg ro
Ġquad r
Ġwra pping
Ty pe
ĠRequ ired
Ġcab inet
ĠNO AA
Ġbuff er
Ġcommod ity
Ġgalax y
Ġcohes ive
Ġpubl ishers
Orig inally
ĠGh ana
Ġoscill ator
ĠOri ental
Ġattent ively
flo at
Ġbron ze
BO OK
ĠLan cet
Ġinstinct s
ĠTai wan
Ġcorp us
Ġlem ons
Ġblu ep
Ġencirc led
Ġinconsist encies
Ġshrim p
Ġenj oys
Ġindel ible
Ġsaut Ã©
' ]
A st
F i
F ort
H yd
J ames
L ead
P ort
T reatment
b ig
b ia
c d
c m
e zing
f ed
f ires
f illed
g ame
o ise
p ill
p unk
s ign
t z
Ġt et
re port
Ġs ap
Ġw re
Ġw ins
Ġf are
Ġf ores
ic its
Ġto ps
Ġe ag
Ġe ighth
Ġre nal
Ġl one
Ġl oses
as ury
et own
ol oured
ĠT un
Ġfor k
ir ies
ĠS H
ĠS ut
ĠC ord
ĠC AD
ĠC ounsel
ĠC atal
ĠM ir
ĠM end
ĠM ike
Ġsu ng
ĠP ra
ĠP ick
ĠB eth
ĠH og
ĠH omer
ĠE ither
ĠF acts
ud a
ĠD atabase
ĠR idge
Ġcan s
Ġsp rings
ĠL E
ĠG DP
Ġpl un
Ġcomp uls
Ġres ume
are ttes
Ġun just
ĠU C
Ġcl ip
Ġar istoc
ĠJ SON
Ġdo zens
Ġout we
Ġout fit
Ġpe b
ĠSt op
ĠSt reng
ons ored
Ġover he
ĠCh ad
Ġacc us
Ġrec urrent
lic ts
ĠY ale
Ġnew est
Ġoff enders
ĠK i
ject ion
ĠV ari
Ġpos itivity
ism atic
Ġtechn ically
ĠUn c
Ġspec ifying
Ġsim mer
Ġbu zz
Ġinf est
Ġhum mus
Ġpol ite
Ġbefore hand
Ġpar alysis
Th ree
Ġmem rist
ex pl
Ġav id
com a
ĠNew foundland
iod iversity
Ġret rospect
Ġsl ots
ĠRes pect
de hy
Ġscient ifically
ĠSh aw
ĠAt hens
Ġ8 1
Ġkind ergarten
ĠTe levision
Ġinsp ires
Ġwar rior
Ġsym ph
ĠApp endix
Ġmen us
Ġharm onic
ann ah
ĠSc outs
Ġexpect ation
Ġquestion na
pro voking
Ġstat ues
ĠLe v
ĠCanad ians
iam i
ĠQu ick
Ġexce eds
ĠDis abilities
Ġ196 1
yl abel
ĠPar alle
Ġjud icious
Ġacadem ics
ĠEd ison
ĠTrans fer
Ġtim eline
Ġsold ier
ĠRuss ians
osa urs
Ġpray ing
Ġassist ing
Ġsav ory
ĠMc L
Ġearn ings
Ġrig or
Ġtransfer ring
Ġking doms
ixt y
cip ation
ĠOrgan izations
Ġscript ure
ĠCurrent ly
Pl ace
Ġsort ing
ograp her
Ġteen age
Ġtur tle
Ġlas ers
Ġoutl ook
Ġtact ile
Ġstuff ing
ÃŃ s
ĠInvest ment
ĠSl av
ĠCrit ics
oust on
Ġinject ions
Ġportray al
Ġdispos able
ĠAP Is
ĠJo in
ĠJo an
Ġcong reg
Ġfer mentation
Ġpig s
Ġelectro ly
Ġresemb l
ĠDemoc racy
Ġtor ch
Ġsevent eenth
gener ated
Ġeru ptions
Ġeleg ance
Ġintim acy
ĠNar rative
ĠMid west
Ġinev itably
Ġenric hed
govern ment
Ġster ile
Ġcort ex
Ġsoutheast ern
Ġheter ogen
aret te
Ġsel dom
ĠFig ures
Ġpup ils
ĠRog er
ĠAF P
idel ity
ĠBang lades
Ġtransist ors
Ġmicrow ave
Ġstyl istic
Ġnost algia
ĠAlg orith
Ġamph ib
ĠSA ML
Ġelong ated
ĠLau ra
Feb ruary
ĠYug oslav
curric ular
. **
3 12
C y
C omb
J o
L anguage
P M
R NA
T r
V P
] [
b ins
b order
c urrent
g om
m ology
m ode
p ol
s pecial
t ec
w ashing
Ġ Â°
Ġt id
Ġt ant
Ġt illage
Ġt elescop
he mer
er ally
Ġc ant
Ġc oun
Ġc aves
al id
Ġw r
Ġp aired
is ance
an ic
Ġb end
Ġin exp
Ġd op
Ġto dd
le ans
ct ica
Ġre he
Ġl ur
Ġn a
Ġn ectar
ol utions
Ġg um
ĠT us
ĠT ong
ut s
ĠS ax
ĠS askat
ag h
Ġcom edy
ore rs
ĠB un
ill ary
ĠThe od
ĠW ere
Ġch uck
ĠH app
ĠE X
ĠE sc
ĠE asy
Ġse aw
ĠF ah
Ġint estinal
Ġsp ill
Ġab ound
ĠL am
ĠL ocated
Ġimp osing
Ġcl auses
ĠJ os
ec d
ass an
Ġper mitting
Ġro pe
les i
ub es
Ġtr illion
Ġ19 2
In sp
Ġdisc ourses
Ġwhere by
Ġmod ular
Ġins ignificant
Ġpol itely
Ġfl ed
Ġform ative
aw ays
Ġgrow ers
Ġwater ways
ĠCom merce
Ġdel ved
Ġequ ipping
Th anks
com merce
ĠEx posure
ĠBut ter
Ġaw kward
Ġsoci ology
ĠSp ent
ĠSp ort
Wh ite
Ġmet am
Ġspecific s
Ġ7 4
Ġcaus al
ĠSe lecting
Ġapplic ants
me al
Ġworks pace
Ġliter al
Ġet ching
ĠCol on
Ġknowledge able
Ġ9 6
Ġ9 8
Ġtri ple
ĠPh ase
Ġ0 7
An aly
ĠInt o
ĠSc ale
Ġimplement ations
Ġcy t
pos itive
roll er
ĠRec overy
ĠAb u
ĠPr ivacy
Ġcamp ing
ĠInter ior
Ġcop ied
Ġindic ator
Ġsix teenth
ĠFl ash
ĠPar ad
Ġestim ating
Ġswe pt
ĠDisc over
ĠGovern ance
Ġinstruct ors
Ġpet roleum
Ġbul b
ĠSer ial
Ġbed room
Ġbow ls
Ġjoy ful
Ġ190 8
Ġfort unate
Ġdoub ts
Ġsyn onymous
Ġaccompl ishment
Ġminor ities
Ġtit anium
Ġmyth ological
pat ient
ĠMin im
Ġsen iors
Ġalt ar
Ġstead fast
Ġlaun ching
Ġnurt ure
Ġcorrel ations
ĠMult i
Ġuncom mon
ĠDiscuss ion
Ġlegisl ature
Ġov arian
ĠChem istry
ĠHawai ian
Ġunderp innings
Ġpersu asive
ĠPerform ing
ĠMess enger
Ġparagraph s
rav iolet
Ġspin ach
ĠCharl eston
Ġsubsid ies
Ġmulticultural ism
Ġtempl ates
mount able
Ġmant le
Ġreluct ant
Ġfigur ines
Ġbom bs
Pres ident
ĠHub ble
ĠTerrit ory
Ġech oes
ĠVerm ont
Ġrefres hing
Ġesoph agus
Af ric
ĠSans krit
Ġrecons ider
ĠFou rier
ĠGanes ha
) âĢĶ
B rit
C all
C oll
D O
D em
S er
T aking
V s
c ro
c ra
l iter
l antic
l ayer
n ature
n ering
p ix
p oll
r ality
r ances
t uce
w ali
Å ¡
Ġ ip
Ġ 000
in v
in um
re ating
Ġs lu
Ġs ighed
Ġs iege
Ġc uc
Ġc ared
Ġc ush
Ġo un
it ures
Ġp sy
Ġf ake
Ġf oil
Ġb ass
Ġb acks
Ġm i
ent ation
Ġe go
st ation
Ġh ips
ro cess
Ġl os
ve ctor
ol o
Ġg our
id erm
ĠT olkien
ĠS I
ad os
ad ding
iv ating
ĠM ig
ĠM ood
ĠM ason
ĠM erc
ĠM Ã©t
ĠP ine
ĠP ie
ĠB L
ĠW i
Ġch in
ĠE uc
ĠE gg
ĠD ra
Ġint ers
Ġint olerance
Ġsp ice
Ġr im
Ġab uses
art ments
ĠL iver
ĠL ux
ĠG ates
Ġcomp ly
ere rs
Ġapp rentices
Ġj et
Ġj umps
Ġj elly
ile psy
form at
we alth
we ek
lect ions
ĠCh anging
Ġacc ent
Ġrec ession
Ġ19 11
ĠY oga
ob iles
ob ias
ĠK y
ĠK ra
oth s
Ġprov oke
Ġdisc arded
Ġbu oy
Ġdifferent iation
ros is
ft y
Ġent renched
Ġwater ing
Ġchar ter
Ġcar p
Th read
Ġmem oirs
els ius
ĠEx odus
ĠRe ach
ccess ful
Ġmean while
ĠIm aging
Ġmar ry
app rox
Ġpain ter
Ġprogram med
Ġfore casts
Ġcoll agen
Ġemerg ent
fort unate
Ġcountry side
ĠAll ah
Ġfig uring
rel ation
Ġengine ered
pro v
ĠBl ock
Ġpsych otherapy
Ġcommit ting
ĠGu y
ĠLe ave
Ġappropri ation
Ġreve red
ĠReg ulatory
Ġunc hecked
Ġ14 0
Ġbur nt
Ġfeed ers
Ġcalc ulator
ĠDevelop ed
Ġtax ation
ĠPar am
IS BN
Ġvict orious
Ġpen cils
Ġadventure rs
Ġplot ting
ĠAccording ly
Ġunex pl
Ġmig rants
Ġdecl ines
Ġdemoc rat
Ġsuppl ier
199 2
199 5
Ġdiscipl inary
Ġspot ting
ĠRo om
Ġrenew al
Ġcul p
Ġbed time
Ġic ons
SD A
ĠFin ance
Ġ193 8
New s
add le
Ġfold ed
ĠTem perature
Ġallerg ens
Ġcontrovers ies
Ġrhyth mic
inf o
Ġrecy cle
craft ed
Ġfell ows
ĠChall enge
Ġpump ing
nut s
Ġrecon cile
ĠSing h
Ġguard ians
Ġturb ine
Ġcourage ous
ĠDev ices
Ġarchae ology
Ġrefuge e
Ġshut tle
produ cing
Ġconqu est
Ġlip id
Ġdeliber ately
forest ry
Ġconsp iracy
ĠNar ratives
Ġaven ue
Don ald
Ġmonu ment
ĠRequ irements
---------------------------------------- -
Ġassim il
Ġarom a
Ġdisappoint ment
ĠOlymp ics
ĠHung ary
ĠFarm ers
imm une
Est ab
Ġedit orial
Ġhomeless ness
Ġencl osed
Ġnour ishment
Sy stem
Ġenfor ced
Ġoxid ative
Ġabol ition
ĠArn old
ĠCour ts
ĠJoh ann
Ġphyl ogen
Ġupt ake
Ġcerv ical
ĠEthiop ia
Ġburgl ary
Ġuphe aval
ĠBened ict
Ġhing es
gom ery
ĠMÃ©t is
E B
N ovember
R O
S al
S ave
T ips
c ool
c ross
f ocus
f uel
g ro
g ering
g rid
h ak
k ens
m illion
s q
s ed
s ervice
v ideo
} }
Ġ 00
Ġ //
at to
Ġthe olog
Ġc v
Ġc ray
es ar
it ian
Ġp als
Ġp ants
Ġf ences
Ġin ability
Ġd ug
le ton
om p
et ch
Ġn ail
Ġg em
ig o
ig ens
ĠT ib
ĠT ower
ĠT erm
ĠT ests
ut ics
ĠS iber
am or
Ġan onymous
res olution
Ġal ly
ab e
ĠM ining
op ia
ĠB ald
ĠB BC
ĠB ranch
ĠW u
ĠW ear
ĠW arn
ĠH ell
ĠH ills
ĠH ouston
ĠF light
ĠD im
ĠR ick
Ġsp icy
Ġsp awn
Ġsh ocked
ĠL l
ĠL it
ĠL ocate
ĠL inda
ĠG B
oc aly
Ġad en
Ġcont empor
Ġres orting
Ġdis gu
ere r
Ġall ure
Ġapp re
ass ed
Ġem peror
Ġunder gone
Ġpart ition
Ġro ds
Ġcons on
Ġover th
ĠCh ain
Ġtr im
Ġ19 29
ract ed
Ġthan ked
ob iography
Ġinv aded
Ġreg imen
Ġrep airs
ĠV III
Ġdisc repancies
Ġdi abetic
hes s
ew orthy
Ġref lex
Ġhigh ways
Ġent ail
Ġshe pher
ĠWe ight
Ġchar coal
Ġsec re
Ġsol o
Ġafter life
Ġdef ence
Ġav ant
Ġav iation
els h
Ġbre ach
Ġmar riages
Ġmult iv
Ġlaw su
Ġsl ot
Ġcomput ation
Ġcomput ations
Ġdr ums
Ġdesc ended
Ġfore front
Ġ8 8
Ġant iques
Ġestab lishes
Ġ9 3
Ġpred is
Ġpred efined
Al tern
Ġemp ires
Ġey el
Ġphot ographic
Ġsuper vised
olic y
het ically
pro file
Ġbat ter
new s
Ġdiv inity
Ġsal ads
ĠRec ently
Ġlog s
Ġlog ging
Ġult ra
Ġbur sts
head ed
ĠNe ural
ĠInter vention
Ġpack et
che wan
ĠDis play
Ġir rational
Ġtransport ing
att oo
Ġ194 6
Ġsubject ive
Ġmicro organisms
ĠTw elve
Ġhom age
Ġanx ieties
ĠAre as
ĠSur v
Ġrot ate
Ġmission ary
Ġoccup ies
Des cription
Ġrevolution ize
ĠPublic ations
IT Y
Ar thur
Ġvit ality
ĠLeg end
ĠOrgan ize
Ġstim ulating
Ġhero ic
ij ing
Ġinvent or
ĠMain tenance
ĠMain yu
Com put
Ġqual ifications
ĠForm ation
Ġtow ers
Ġcrim inals
Ġproport ional
Ġdu o
Ġdu ct
erent ial
Ġcert ifications
Ġrub bing
car b
---------------------------- -
CD C
ĠStat istical
ĠConstitution al
Ġmand ate
Ġvan illa
Mod ule
Ġhorizont ally
Ġmetaph orical
ĠDemoc rats
ĠEr n
ĠRam an
Rep orted
ĠHT TP
Ġhesit ated
Ġalien ation
ĠPain ting
Ġsummar ize
Ġhat red
Ġtsun amis
Ġcontempl ation
Ġrib bon
ĠBab ylon
process ing
Ġenvision ed
Ġdigit ally
Est imated
Ġdrag ons
Ġcanon ical
Ġrod ents
Ġcasual ties
ĠPartners hip
Ġwand ering
Ġdecip hering
ĠLiber ty
deg ree
Ġabrupt ly
Ġplum age
Ġadhes ive
Ġmurd ered
Ġdecentral ized
Ġthir teen
Ġsubdiv ision
Ġensl aved
Ġlegitim acy
ĠWag ner
Ġenig matic
insp ired
ĠRebell ion
, âĢĻ
E mer
E conom
F l
G C
L A
M ax
O bs
R ev
S pecial
W A
] (
a ults
c ue
g r
i ably
l ocking
r ints
u v
w aves
x label
Ġ Ã©
Ġt an
in ators
on ian
Ġs ine
al king
Ġw ard
Ġp onds
is se
st ory
Ġre ap
Ġl amp
ce phal
ĠT rou
ut tle
ot ions
Ġst amps
ir i
ĠS i
ĠS ources
ĠS ierra
ĠS ustainability
Ġcon e
ĠC hen
Ġwh ims
Ġwh ispers
th y
ĠM T
ĠM t
ĠM ail
pp ings
ĠP ow
op a
ĠB ol
ĠB ruce
ĠThe ore
Ġch ords
ĠE C
ĠE b
nt hetic
og ging
Ġcan e
Ġsp aced
Ġsp heres
Ġr ud
ĠN AT
ĠN ortheast
ĠG n
Ġpl aus
Ġres ides
ind ices
Ġimp ress
ace ae
Ġout right
ful l
Ġover ly
Ġinv aders
Ġreg ain
Ġcre st
ĠK lein
eth yl
Ġwork out
Ġwork ings
ern ame
Ġsub reg
Ġdist ortion
ĠAl most
ron ut
Ġsol ids
Ġgl ad
Ġcar rot
Ġfact ual
Ġserv ants
Ġdel ights
Ġequ ator
Ġdef ect
the m
Ġaw ak
Ġnow adays
Ġcle aring
ĠIs sue
Ġopt ics
Ġmet a
Ġopen ings
ash t
Ġpur ity
Ġsupp lying
Ġlocal ized
Ġdra ined
Ġbi oge
Ġbas eline
Ġant agon
Ġair planes
Ġprinci p
ators hip
Ġfil ed
ĠZ one
oll en
Ġproject ions
af ety
urb ed
Ġsun shine
Ġminim izes
Ġneg lig
ĠJohn s
Ġcra zy
hib ition
Ġsal ary
Ġargu ably
Ġplat oon
Ġslow ing
tal k
Int rigued
ĠHer o
ump ed
ĠNe uro
ĠState ment
ĠQu arter
Ġpatient ly
Ġcam oufl
Ġadminist ering
Ġgraph ical
Ġsn akes
Ġ194 2
ĠGreat er
Ġnews letter
On line
Ġden ial
Ġcounter part
Ġrain water
Ġrain forest
Ġcook ie
Ġbacter ium
Ġpoly p
Ġpoly mer
ĠRef lection
Ġinstruct or
Ġinstruct ed
leg raph
ĠCor p
Ġcoop er
ĠPlan et
Pro ject
ĠDi wali
ĠDel ving
Ġspl itting
ĠEst ate
Ġconvey ed
Ġacknowled ges
Ġtheore m
Ġsusp ension
Ġuns afe
orph y
Ġcollaborative ly
Ġtun nel
ĠMet rop
Ġmamm al
ĠContin uous
Ġneu rop
Ġreven ge
Se lect
Ġpra ised
ĠJud ge
ĠPrin ciple
ĠAp ost
Ġcyber security
ĠIde ally
Ġmand ates
Ġaqu ifer
ĠÃ Ĺ
ocument ed
ĠCarl os
Ġcompens ate
Ġexhaust ion
Ġru pt
Ġsle ek
ĠLy me
Ġmilest one
Ġtort ure
ĠCharl ie
Ġirre levant
Ġecho ed
auc as
Ġescap ed
Ġvert ices
Ġscroll ing
ĠAdapt ation
ĠAz tec
tebr ate
Ġelucid ate
Ġtransf ers
Ġpropri etary
intend ent
gard e
spl it
ĠMarg aret
Down load
ĠAppropri ations
ĠFlore nce
ĠAdop ting
behavior al
Ju ly
Ġappar atus
Ġinsur mountable
Ã£ o
Profess or
Ġprolif eration
Ġstric ter
Ġdayd reaming
Ġlaund ry
raul ic
Ġglim pses
ĠBanglades h
, *
B ro
F un
P aul
S H
S R
T om
c f
c ur
d t
d ney
l ived
m o
m aster
p g
r ina
s a
w ear
in ently
he id
re view
Ġs orrow
at ts
en cer
Ġc ue
Ġc asc
Ġw artime
Ġf ights
an us
Ġb ount
ar ith
Ġm our
le e
Ġe ats
st ically
Ġh alls
Ġl ime
Ġl uc
Ġl umber
ur rection
ĠT ou
Ġbe ams
ot ism
ĠA x
ĠA chie
ĠS el
ĠS aints
Ġcon not
el se
ĠC rown
ad ium
Ġpro ps
Ġan a
ab alu
ĠM FC
ĠM iami
Ġv ib
and ra
Ġde af
Ġde alt
ĠB ak
ĠB ennett
ĠB agehot
ĠH alf
ĠH PV
ri p
ri pp
ri ans
ĠF ract
pl er
pl an
ĠD oc
ĠD istance
ĠR az
ap agos
Ġint est
Ġab ortion
ĠL ost
ĠL ung
ĠG on
oc ations
ĠO m
ĠO ECD
Ġinc and
Ġcl ips
ĠJ ama
Ġj ealous
reat hing
ang s
Ġtra pping
Ġbet ting
Ġqu ake
Ġqu artz
Ġinter sections
ple ts
ĠCh amp
Ġrec overing
Ġra pport
ĠY i
Ġinv oke
Ġsc oring
Ġgen ocide
Ġrep ly
Ġins cription
Ġatt ire
arch y
Ġsk ip
ĠWe i
Ġcar bs
Ġprom pts
Ġend ors
Ġprof itable
Ġconst ants
ĠAnd y
Ġmar bles
Ġsupp ression
ĠTo xic
Ġdirect ing
de v
asc ar
Ġvari ant
Ġdra gon
Ġdra stically
ĠPl ato
Ġland owners
Ġmodern ity
ĠOr leans
yn ec
ĠPh ill
Ġ0 8
Ġparticip atory
ane ously
ĠZ arathush
Ġincorpor ation
Ġge o
ĠEarth qu
Ġce ase
Ġver bs
lam yd
Ġsqu adron
ĠHar per
Ġrob otic
16 8
Ġauthors hip
Ġquant ify
ĠMod eling
ĠKe vin
Ġhon ors
zz le
Ġbelong ings
Ġrev ival
Ġcred its
ĠChar ter
Ġden ying
resp ons
Ġrain bow
ĠDo ctors
bl ue
men e
Ġnu isance
Ġauthent ication
col ored
ĠStep s
Ġmal icious
Ġcris py
Ġmel ted
Ġwaters hed
Ġdro ve
Ġ195 5
Ġspl end
Ġresist ed
Ġrhy me
ĠTur tle
ĠCommon ly
Ġinvent ors
do ctor
Ġtransc ending
ĠExp ansion
Ġformat ting
Ġflo ors
Ġrestrict ive
pat in
Ġcream y
Re view
ĠAut ism
Ġcoal ition
organ ic
Ġsatisfact ory
ĠBro oks
ĠPC Bs
ĠFocus ing
ĠMo z
Ġbibl i
ĠComb ine
Ġprosper ous
Ġgram matical
Ġelectro des
Sc ript
------------------------ ---
ĠLim ited
Ġpreced ing
Ġtom ography
Ġfet us
Ġexhaust ed
ĠSud an
sell ing
Ġpond er
Ġcritic ized
Ġlean ed
Ġconfirm ation
rint ed
Ġdilem ma
Ġunfold ing
Ġthreshold s
---------------------------------------- --
Ġsulf ate
ĠTown s
Ġescal ating
ĠCult ures
lide an
Ġrating s
ĠFA Q
ĠHi ros
Ġretrie ve
chem ical
ĠWy oming
Ġbarrel s
Ġrecl aim
pur pose
Ġexpend itures
Ġstreaml ining
ĠColomb ia
Ġfranch ise
Dig ital
oske letal
Rober t
ĠWis dom
Ġglean ed
Ġunderw ent
Ġconfine ment
ĠUg anda
ĠApprox imately
Ġtelescop es
ĠSaskat chewan
! !
B orn
C ur
E v
E arth
F low
G s
L and
N W
R ight
T E
T alk
V C
b ands
c ounter
c ript
f u
f itting
h ad
k g
k al
l iving
n acular
o osa
r ically
u nderstanding
y er
{ \
Ġt am
in ian
Ġs q
Ġs ized
Ġo w
Ġo st
Ġo ak
ing ton
it iveness
Ġp i
Ġf ocal
Ġb ake
Ġin land
Ġm ills
Ġm asonry
st ru
Ġl ions
im ates
im pro
Ġg ust
ĠT an
ĠT ap
ut ers
Ġbe verage
ot ics
Ġst amp
ĠA AP
ir cling
ĠI BM
ĠI oT
ment ioned
Ġan nex
Ġan ecd
Ġit eration
th ose
ĠM N
ĠM amm
ĠP ok
ĠP orf
ĠB aker
Ġwe ave
Ġwe ird
ĠThe atre
Ġby pass
ĠD all
ĠL DL
ĠG roups
oc ard
ould er
ong s
Ġk ills
Ġun aware
ie u
Ġcl iff
Ġcl osure
ĠIn quisition
ĠâĢ Ŀ
Ġman ages
ace ans
ens on
Ġup raised
Ġtra ded
Ġqu aint
Ġinter mitt
vers ible
Ġover load
Ġrec ount
Ġam azed
ov a
Ġreg ards
Ġsc rub
ĠK et
ĠK ab
eth ical
Ġco h
Ġdisc s
Ġsur plus
Ġbl ast
Ġtrans national
vent h
Ġdifferent iate
ĠCon n
Ġcent res
Ġfound ers
Ġback ing
gg ling
Ġdef icits
Ġhuman itarian
ĠAd oles
ĠAd ding
Ġaw ake
ĠRe agan
be y
Ġmult ic
Ġ10 1
Ġ7 9
Ġmark ings
ĠDe ut
Ġdev ote
ĠSh ared
Ġnon etheless
Ġnon verbal
Ġkey word
Ġyoung est
Ġprofess ors
Ġview point
ked a
Ġcontinu um
ĠBe ijing
arl ier
An n
Ġresearc hed
ĠInt rigued
ĠZ ion
Ġachie vable
ĠAm y
hern ob
ĠSy dney
ĠSc reen
Ġtext ile
Ġsustain ing
Ġcolor ation
Ġred ef
Ġcompet encies
ĠMe asures
Ġpriv ately
Ex p
Ġwa ited
ask oln
sc ore
Ġfarm land
Ġhalf way
Ġunc oloured
AS S
Ġlog istical
Ġcit ation
Ġult raviolet
Ġcalc ulus
Ġast rology
Ġlat ent
Ġcop ying
Ġexce eded
cipl ine
Ġhon our
Ġple asing
mar king
AR E
onom etric
Ġswe ep
Ġswe ating
Ġswe ets
Ġvast ly
ĠOff icer
ĠGra ce
ĠLear ned
Ġhyd rated
ĠRef uge
Ġdecl ining
ĠGo ing
Ġmission aries
Ġthick er
ĠFood s
Ġlisten er
Ġconv ictions
ĠIsland er
Ġpictures que
Pro t
Ġfort resses
Ġcere als
Ġscript ures
ĠFe eling
cal oosa
Ġnan op
Ġ193 6
uis ines
Ġtransition ing
ĠMet eor
ĠTer ms
Ġbatt ling
reprene urs
Ġanthrop omorph
Ġspir al
Ġdiam ond
Ġaer ospace
ĠAp ache
ĠPhot o
ĠIde al
abil ia
requ ently
Ġfract ures
ĠDet roit
Ġexception ally
ĠSat urn
Col or
Ġconve x
ĠLu o
ĠHor iz
ĠRelations hip
Ġblo om
Ġfung us
ĠKh an
Ġverb ally
atab ases
Ġmonarch y
ĠBehavior al
Ġdispers ion
Ġcough ing
ĠSymb olism
Ġderiv atives
Ġram ifications
Ret urn
Ġmetall ic
ĠIntersection ality
Ġwholes ome
hyth m
Ġecl ipse
ĠGab riel
ĠAdvoc acy
Ġarsen ic
ĠTow ards
ĠOw en
ĠRecomm end
ĠWet lands
Ġdisproportion ately
Ġdehyd ration
ĠPhoen ix
Ġneurotrans mit
Ġsandw iches
Ġresembl ance
askoln ikov
? ?
A ng
F our
F inal
G ra
I ES
M R
O x
P et
U ND
b as
b ach
b ott
b ecause
f ried
h ima
m oving
n ith
o al
r ive
s aving
t ales
y on
z n
â Ļ
Ġt ed
Ġa pt
he eh
er ion
it oes
Ġw asting
Ġp a
Ġp ains
Ġf ence
Ġb il
Ġb rowse
Ġin security
ion age
Ġm int
om ass
st roke
Ġth igh
Ġre nov
ve red
se ason
ĠT oy
ĠT ale
Ġbe an
ot te
Ġst icking
ĠA ging
Ġfor aging
ĠS omething
am ental
ĠC e
ĠC ort
ĠC arm
ĠC ourse
ĠC uisine
ĠC rus
if le
ate uch
ĠM aps
ĠM otion
ĠM olecular
Ġhe ct
us p
op ian
and ers
ĠB lu
Ġen rolled
um per
um bs
ĠH R
ĠH earing
ĠE le
ĠF ailure
ĠF ellows
ĠR F
ĠR oh
all ion
ap oration
Ġint estine
Ġsp ur
Ġsp ends
ĠL ip
ĠL ooking
ĠG ust
ell ers
Ġun fortunate
ind o
Ġte as
Ġcl oves
Ġj ung
Ġev aporation
Ġpe ek
Ġstud ios
Ġover see
Ġrec k
Ġra v
Ġnew com
Ġrep ur
ren ts
Ġdisc retion
ath ic
Ġno ct
Ġpo ignant
Ġsign ify
Ġhist ogram
ble ms
Ġspe ciation
Ġown ing
Ġconf use
Ġprot ons
oun ces
Ġmon keys
Ġmin isters
Ġdem on
ĠRe ally
St ill
Ġspecial izes
Ġbre w
19 76
Ġpur ification
Ġoper a
Ġcho oses
ĠDe al
Ġcaus ality
Ġdra fting
ĠPl ain
Ġbi ased
Ġobs ess
Ġinvest or
Ġcollect s
Ġcr ashes
Ġpred ation
icult ure
ik u
Ġey eb
ush ima
ĠAll ied
Ġlo vers
Ġarch ipelago
Ġscen ery
aim s
ĠGen eal
Ġmor ale
Ġoptim ism
Ġver nacular
ĠGu ides
ĠPre vious
ĠSec ure
Ġsent iments
ĠTechn ological
ĠInter actions
inc eton
Ġcomfort ing
You ng
Ġconstruct ively
Ġproced ural
Ġang ular
Ġsolid ifying
ĠCur ric
ĠFran co
Ġresource fulness
Ġfast est
Ġconcent rating
Ġexcess ively
Ġsouth western
Ġremark ed
Ġcontract or
ĠSw iss
ara oh
Ġhun ter
Ġtrig gering
Ġsymbol ize
Ġmast ered
Ġtrou bled
Ġmouth watering
Ġintellectual s
ĠVol unte
Ġbank rupt
Ġsyn onyms
Ġ195 2
Ġ195 3
ĠCam era
Ġimpl ied
Ġshel ters
ĠMain taining
ĠHel ping
ĠExp ress
Ġwid ow
Americ ans
Ġtun nels
Ġacceler ating
flow ers
ĠTer ra
Ġoutl aw
Ġgeom et
Ġfav oring
Ġgrace fully
ĠStart ing
Ġproof s
Ġcrow ds
ĠSpe aking
ĠStat us
Ġrid ers
Ġprofit ability
Ġrational e
Su per
ĠParticip ation
Ġheaven ly
Ġwheel ch
Ġtick et
Ġorth odox
ĠObject ives
Ġcab in
Ġunfair ly
ĠAR RA
Ġattain ment
Ġdiscl osure
Ġimperial ism
Ġneglect ed
Ġcompanions hip
Ġdecom position
Ġcataly st
Ġcav ities
Ġelucid ating
ĠMeasure ment
Ġoste oporosis
Ġadvers aries
ĠLic ense
ĠInflu ence
Ġfox es
Ġcous in
ĠAntar ctica
Ġpresum ably
Ġproc ure
Ġrevital ization
ĠVeter inary
Ġcens orship
Ġcertific ate
Ġamen ities
ĠPray er
Ġexpans ive
ĠAgree ment
Ġrever ber
ĠCamb odia
Ġcongress ional
Ġrelent less
ĠAck now
Ġhalluc inations
Ġreperto ire
Ġinexp ensive
Insp ired
Ġincand escent
hernob yl
) }
- ,
= (
B re
C ap
D B
D ev
E ver
E mb
E ye
F amily
J ac
J apan
M el
N um
P O
b alls
b irth
c lic
d est
e as
e ach
g em
h on
h ole
n ote
s ci
t ens
t xt
t ically
u cc
in formed
he it
he ts
re ason
re ctions
Ġs aint
en c
en es
Ġc ob
Ġc iting
Ġc uisines
Ġo we
ing le
Ġp am
Ġf ills
Ġb ishop
ar go
Ġm aker
Ġh ardship
Ġre plicate
Ġl ent
as ured
ol ation
Ġg y
Ġg endered
ra ising
ra cies
ur i
ĠT R
ĠT ommy
Ġst a
Ġst ern
Ġst olen
ĠS U
el iness
ĠC in
ĠC ere
ĠC arn
ĠC atherine
ĠC elsius
ĠI keda
ag ascar
Ġcom et
th ra
ĠM W
Ġhe ret
Ġv ines
ĠP in
ĠP our
and in
ĠW ard
ĠW atson
Ġen erg
est own
ĠE agle
ĠE lder
ĠF uel
og ly
Ġsp ills
Ġr ites
Ġr anged
Ġim b
ĠL em
ĠN it
ther net
pt a
Ġimp ulse
ors burgh
Ġqu inoa
ne eded
Ġinter change
Ġhel pless
Ġ19 16
ob a
Ġsc ram
ĠK ot
In vest
Ġdisc ount
Ġyear ly
Ġher d
Ġher mene
Ġmod eration
Ġstr ata
Ġsub ord
Ġhum id
Ġfl ank
iss a
iss ue
ĠWh ole
ves ts
Ġback bone
Ġgl azing
Ġfact ions
Ġgu y
Ġmat ched
Ġprot on
com m
com mit
Ġmon astic
ĠEx cell
ĠRe habilitation
Ġeduc ator
Ġtre acher
cent ered
Ch inese
Ġret ro
Ġ7 3
Ġdra stic
Ġrest s
Ġland l
me ans
me asure
Ġbenef iting
Ġvalu ing
Ġ9 4
Ġprop ulsion
ĠInst ruction
ĠGod dess
sp onsored
Ġauthor ization
aster ies
Ġlay ering
Ġ17 00
Ġsun screen
iment ary
Ġvisual izations
ĠUS D
ĠUS GS
ĠTra dition
ĠTra ck
reg ulation
ĠGe ographic
ĠReg iment
Ġfire arms
Ġcat hedral
Ġdistinct ly
ĠPer ry
ĠHer od
ĠArt istic
NA L
Ġcelebr ates
inc re
Ġfresh ly
Ġindic ative
Ġmis leading
che my
Ġtax iderm
Ġcolon ists
Ġsn aps
Ġcarbon ate
Ġpan cre
ĠDon ald
Ġwis er
Ġpreserv es
ĠAc cept
Ġcred ible
Ġden ote
Ġtap es
Ġnucle ot
Ġhom etown
Ġdream ed
Ġcand le
ĠSur face
Ġtrib ute
Ġdepend ency
Ġcontract ors
Ġassist ants
ĠSol ving
Ġmiss ile
inn ati
ĠMedic aid
Ġbud s
Ġsmart phone
Ġhair s
Ġmal ad
Ġmouth s
Ġmarg ins
Ġsubs istence
ĠSub ject
ĠDel ia
All aah
with out
Ġbattle field
Ġoverl ook
ene z
Ġran ked
Ġmyth ical
Ġmanif ests
ĠMac intosh
ĠClass ic
ĠAtt or
Ġregist ers
ĠSen ator
ĠMad rid
Ġgradu ated
Ġgradu ates
ĠGal apagos
Ġdiam onds
Ġid ol
Ġunl ocking
ĠSpe ed
Ġfrust rating
Ġgri ev
Ġbomb ing
Ġbask ets
Ġbath room
ĠÃ ī
Ġpig ment
ĠLim it
cel ain
Ġtutorial s
produ ced
angel o
ĠHa oma
Ġpond ered
Ġinfant ry
Ġpap al
Ty pes
Ġvow els
Up on
ĠVen ice
Ġchamp ions
Ġceremon ial
ĠGall ery
Ġstir ring
Ġchlor ide
Ġseas hell
Ġmira cle
Ġaug mented
Ġpubl isher
may be
ĠIntrodu ce
ĠEnh anced
ĠSwed ish
Ġcatast rop
Ob ject
Ġsail ors
Ġstiff ness
Ġceram ics
Ġdepr ivation
Ġanth rax
ĠSlow ly
Ġabst raction
Ġvag inal
ĠCry stal
Ġbapt ism
Ġsquee ze
Ġoct op
Ġdos age
Ġpyram id
ĠIncorpor ated
ĠHind us
Ġjun ior
Ġrevis it
Ġaster oid
ĠHash anah
Val ue
Ġcorrid ors
err illa
Ġtrustworth y
ĠDial ogue
ĠAth let
Incorpor ating
orac ic
Ġseaw ater
ĠCurric ulum
2 50
A ge
A uthor
C reat
C ath
C urious
F ore
F ile
H L
H i
H and
J am
L ocal
M al
N atural
P P
S ah
Y S
Y ear
a vers
d ose
d ynam
f igure
k w
m und
m ont
n n
n as
s er
v re
w atch
y ards
he im
Ġs age
Ġc ite
it ated
Ġp agan
Ġin mates
Ġm uff
Ġd B
Ġd ies
ent e
Ġh atch
Ġre charge
Ġre jo
Ġl ays
ĠT rain
ĠT ales
Ġst ip
Ġst ool
Ġst aring
ĠA ld
ĠS pl
Ġcon es
ĠC ateg
ĠC otton
ĠC aucas
ĠI G
her ry
Ġor bits
ag ic
od a
ĠM ode
Ġv ascular
ĠP el
Ġde form
ĠB B
ĠB erg
ĠB urg
ĠThe rap
Ġen v
um atic
ĠH z
ĠH unting
est ration
Ġse ize
ĠF ry
ĠD VD
ĠD elta
ĠR ow
ĠR osh
ĠR SS
ĠR yan
all iative
ort ium
Ġr iddles
Ġsh irt
ĠL ore
ĠL odge
our ism
Ġpl en
Ġpl aque
oc ratic
Ġcomp ares
Ġdis reg
Ġall ied
ĠU l
ĠIn n
Ġem inent
ang ible
Ġind ef
Ġhel per
Ġinv itation
Ġinv ading
Ġinv alid
Ġoff ense
Ġrem edy
Ġtechn ician
ĠUn ique
Ġsim ulated
Ġsub species
ĠHe aling
ĠHe aven
Ġloc ks
Ġsk ate
." âĢĶ
Ġmain land
com mon
Ġday time
ĠInd ic
par ing
Ġstate wide
ograph ically
Ġdon ate
ert ips
Ġcomb inator
Ġdev il
ĠSe ed
ĠAt mosp
Ġ8 2
Ġ8 6
Ġlow ered
Ġtri angles
Ġcru ise
Ġhead lines
ĠLet ter
ik o
Ġinnov ators
Ġpost modern
ĠZ oo
ĠZ ero
Ġexpect s
pro b
pro fits
ĠGen etics
Ġbreak ers
Ġsty lish
Ġconce aled
Ġver tex
urch ase
Ġlab orers
ĠX Query
Ġprogress ively
Ġbound s
ĠCo ch
Ġreason ably
ER IC
Ġconstruct ions
Ġforest ry
Ġmicro aggressions
ĠMus ical
Ġacadem ically
Ġautom obiles
Ġcapital ize
Ġcommand ments
Ġtrack ed
AN S
Ġsand stone
ĠRead ers
Ġassign ing
Ġpul p
ĠSw an
ĠSer bia
Ġcoop erate
Ġpregn ancies
ari ably
Ġfilm makers
Ġ190 4
Ġagg ress
Ġ195 6
Ġafford ed
ĠAir port
Ġmountain ous
Ġcompos er
Ġflavor ful
Ġdecor ations
roph y
Ġenthusi astic
ĠHy p
Ġuniform ity
ĠAut o
ĠOrig inal
Ġgall eries
Ġanthrop ogenic
ĠEqu ations
ĠSte ven
ĠSupp ly
Ġspok es
Ġinject ed
ĠMor oc
ĠBeg inning
ĠEvolution ary
ĠWood s
Ġbiom ed
ĠCamp bell
------------------------ --
Ġmeth ane
Bl ood
Ġconve ys
ĠClin ic
ĠEnd angered
Ġpupp ets
ĠImplement ation
ĠInnov ations
Ġcategor ize
Ġcategor ized
ĠNorm an
Ġstimul us
ĠExplore r
------------------------------------ -
ĠCollect ions
Ġjourn aling
ĠFem inist
Ġscal p
Ġlux urious
Ġdispers ed
ĠPoly nes
Ġpod casts
Ġambig uous
bour ne
ĠFac ulty
Ġproce eds
Ġprovin cial
Ġexcer pts
Ġswallow ing
Ġawa iting
tem perature
Hy per
ĠRog ers
Ġcommem or
Ġscra ps
Ġauto immune
Char acter
ĠAntar ctic
ĠAvest an
Ġnick el
ĠOptim ization
Ġthunder storm
Ġimprison ment
ĠThank fully
ĠKin abalu
Ġaston ishing
Ġcov ariance
Ġagro forestry
Ġengra ved
Ġub iqu
ĠBeng al
Ġintest ines
' ),
F F
F riend
T Y
T em
W ord
W ashington
W HO
b red
b rown
c it
c orn
d im
d ram
d oor
f lu
i our
m i
o pp
s ac
s pect
z ers
É ª
Î ½
Ġ ....
Ġt ig
Ġt icks
in ities
on i
er ly
Ġs ank
en kins
en ario
Ġc ath
Ġw ield
Ġp acks
Ġp ension
is ers
an ch
ed er
ic c
Ġd are
Ġd ash
Ġd war
le ad
Ġe ll
Ġre arr
ro c
Ġl act
Ġn ap
Ġn avy
Ġg enders
Ġg inger
ra h
Ġst up
Ġst airs
am ic
am med
ĠC ran
ĠC AL
Ġcom ets
iv ist
ĠM I
ĠP A
us i
ore g
ĠB us
Ġwe ed
um ers
Ġle xic
ĠH ep
ri en
Ġ1 17
ĠE ar
Ġse ating
ĠF E
pl ication
ĠR av
ĠR ural
Ġsp at
Ġsp ies
Ġsh oe
ĠL ed
ĠL ens
ĠN SF
Ġpl astics
oc ultural
Ġad renal
per formance
Ġcont ours
Ġcomp ress
ĠO P
Ġdis sect
ib ar
Ġme ad
ĠIn j
ens is
Ġbet ta
Ġro pes
Ġro ses
ub ar
ub le
ub ile
Ġ19 22
ov ol
Ġpr ince
ĠV el
Ġdec oration
Ġbl ades
Ġpos it
xt ap
Ġins criptions
Ġins omnia
Ġspec ulation
Ġtrans ient
ĠAs pect
Ġsub c
Ġdifferent iated
own er
ng oing
Ġpract ically
Ġgra ffiti
Ġfam ously
Ġed itions
cl ature
ĠAl ert
---------------- ---
ĠPro jects
Ġadv ise
Ġcar vings
Ġmem oir
Ġident ifier
Ġmon so
Ġche w
Ġche es
ĠBut ler
ah l
omen clature
ĠRe formation
Ġele ven
Ġpres idency
Ġtre k
Ġgroup ing
Ġben ign
Ġve t
Ġret ard
ert ility
Ġcomb ating
Ġemb ell
Ġfore casting
br aska
Ġbenef ited
idd ing
Ġworks he
ĠOr d
oid al
Ġ[ ]
Ġpred etermined
use ment
Ġinteract s
ĠInst itution
gen eral
Ġsym pathy
Ġmodel ed
ĠMed ieval
ĠApp ropriate
Ġsust enance
not ch
ĠAm elia
Ġobserv ational
ĠSc out
Ġquestion able
ĠCont ents
Ġtext iles
ey ed
Ġflu ffy
Ġcustom izable
ĠPr inceton
rad or
Ġund ue
ĠTechn ique
Ġindic ations
Ġord ained
Ġiniti ating
Ġ25 6
urg ence
ĠRed ucing
Ġwat ches
ĠEl iot
AT E
Ġcommand ed
na issance
ĠWrit ten
Ġmig rations
Ġkn ock
ogen esis
Ġoccup ations
Ġisol ating
Ġtour nam
ĠRo ots
Ġshowc ased
cont ent
Ġpal ms
ĠVal ues
Ġshar ply
Ġgarden ers
ĠCap itol
Ġdro plets
ĠFe ature
Ġment or
Ġhyper b
ĠExp anding
Ġpuzz led
Ġcomment ed
ĠLand marks
ĠWork ers
Ġastron omical
Ġunus ually
ĠAtt end
Ġnurs ery
ĠAut hentic
Ġshore line
Ġpra g
Ġpra irie
Ġleaf y
Ġstick y
Ġmanifest ation
Ġboost ing
Ġ186 1
tw entieth
Ġsight ings
Over all
Ġpand as
Ġpig ments
Ġmetaph ors
Can ada
Ġsupposed ly
ĠÎ ¼
bel ts
ĠHand book
produ ct
Ġom n
ĠEnter prise
Ġassert ion
ĠImpro ved
oster one
ĠJul ius
Ġpersu ade
ĠAltern ative
zer os
ĠMarx ist
Ġsuspect s
Ġexacerb ating
ĠBa al
Ġcin namon
Ge orge
Ġalleg ations
ĠCompar ison
Ġshru b
ĠInstit utions
Ġembry os
ĠFA O
isan al
ĠWW II
Ġbron ch
Ġcig arettes
Ġcig arette
Ġnas al
Ġredist ricting
Ġdecip her
Ġdeterior ation
Ġfright ening
Ġau ctions
Ġsprou ts
ĠAvest a
Ġborough s
Ġenl arge
ĠManufact uring
ĠLt d
ĠBeec hey
Ġshr inking
Ġfron ts
Ġlobby ing
Ġbiop sy
analy tic
Ġvic inity
Ġquir ky
Ġantim icrobial
ĠCinc innati
Ġconvolution al
ĠAdvis ory
kk ah
associ ated
ĠStu art
Ġenlar ged
ĠZarathush tra
/ .
B ooks
E ast
F O
F R
O ld
P H
P ut
P rim
P ractice
T ech
V arious
] ])
a is
b us
b iology
b ishop
d ir
d ale
e volution
l ate
m ake
n umber
s ol
v ier
w at
w ild
x ia
} $
É Ļ
Ġt ides
Ġt ires
Ġt enth
Ġt innitus
at he
at um
at own
Ġc ents
Ġc ute
Ġc ovenant
al ism
Ġw omb
or as
Ġp ear
Ġp ound
Ġp iano
Ġf andom
Ġb if
Ġb ishops
ic us
Ġd ich
om atic
ent ric
Ġre evalu
ro st
im eters
ow l
ĠT A
ĠT K
ot us
ot ine
Ġst agn
ĠA part
ĠA patin
ĠS ikh
am ination
ĠC NC
ĠC hernobyl
ĠI gn
ect omy
Ġal mond
Ġal iens
ĠM B
ĠM oving
Ġhe mat
Ġv i
Ġv iability
ke eper
ĠB uff
Ġle v
Ġle aks
ĠH ur
ĠH ands
ĠH orn
est a
ĠF alse
ud ed
Ġat las
ĠD al
ĠD ur
ant ics
ĠR ivers
ĠR ush
Ġr ally
ĠL ack
ight ed
Ġcont ag
Ġcont ested
Ġres ent
ib ern
cc oli
Ġun le
ĠU T
Ġapp end
ĠIn equ
iff erence
Ġro asted
ĠSt im
ĠSt orage
ond ing
Ġthere after
ĠCh urches
ĠY emen
rib uting
Ġreg imens
Ġsc are
Ġsa us
In cre
Ġpers ists
Ġinf ringe
Ġpat ents
cl ose
Ġprog en
ĠAl ger
gg le
tle ment
Ġdep ort
Ġdep ressed
Ġhuman ities
ĠAd apting
Ġmon ster
Ġmin us
Ġdem ean
Ġmust ard
Ġfac et
Ġpres cribe
Ġfin ishes
Ġleg umes
Ġdon ated
Ġgovern ors
Ġhome owners
Ġdra ins
Ġbi kes
ploy ed
me asures
Ġintern ally
Ġmodern ization
Ġant ip
Ġpast ries
Ġrecogn ised
Ġ9 1
Ġcr ater
Ġpred ic
Ġvol atility
ĠInst agram
gen cies
Ġsens ibilities
Ġfour teen
ĠZ en
let t
ĠSc outing
ĠSc andin
ĠCont ract
Ġce ased
Ġec zema
Ġexerc ised
Ġmass age
Ġbra ce
Ġappropri ations
Ġflu x
-------------------------------- ---
Ġsal ient
ĠReg ulations
Ġbur rows
Ġincl ination
ĠNe braska
aff ected
Ġengage ments
Ġweight ed
ĠInter v
Ġ+ =
ĠQu ad
Ġdoctor al
Ġi ii
ĠFl ag
Ġfight ers
Ġrev olves
Ġautom obile
Ġpen insula
ĠInc ludes
Ġcou pling
ĠRead er
uk ary
Ġrein ter
Ġabsor bs
Ġgrand eur
ĠAng lic
Ġbul let
Ġmanip ulated
Ġelev ations
Ġacid ity
Ġfing ertips
Ġreson ated
Ġmal ware
Ġthin ner
Ġcere bral
Ġdistingu ishes
och astic
gra nd
SD E
ĠLiter acy
Ġsed iments
ĠAccess ibility
Ġrestrict ion
Ġtele communications
Ġtow els
Ġfold s
Ġorient ed
Ġjump ed
ĠProv ince
Ġmood s
Qu estion
ĠOrig inally
Ġfest ivities
cons uming
organ ized
Ġfav ourable
ĠYOU R
Ġstation ary
ĠPub lished
Ġrect angle
Ġcalm ly
Ġhem oglobin
Ġexempl ify
cul oskeletal
ĠMil ton
Ġbath ing
ĠDet ails
ĠOk ay
cre ated
ĠParticip ate
Ġru in
izz iness
ĠPresent ation
ĠJul ian
sole te
Ġcran es
Ġcrew s
icular ly
Ġbeat en
ĠVen us
Ġblank et
minded ness
ĠDiet ary
ĠDO E
sim ilar
ĠAdvent ures
ĠPrior itize
cs v
Ġimbal ance
Ġpolynomial s
Ġexplos ions
ĠRen ew
Ġreserv oir
ĠRespons ibility
ĠBul letin
ĠLED s
[...]
