{
  "version": "1.0",
  "truncation": null,
  "padding": null,
  "added_tokens": [
    {
      "id": 0,
      "content": "<pad>",
      "single_word": false,
      "lstrip": false,
      "rstrip": false,
      "normalized": false,
      "special": true
    },
    {
      "id": 1,
      "content": "<bos>",
      "single_word": false,
      "lstrip": false,
      "rstrip": false,
      "normalized": false,
      "special": true
    },
    {
      "id": 2,
      "content": "<eos>",
      "single_word": false,
      "lstrip": false,
      "rstrip": false,
      "normalized": false,
      "special": true
    },
    {
      "id": 3,
      "content": "<sep>",
      "single_word": false,
      "lstrip": false,
      "rstrip": false,
      "normalized": false,
      "special": true
    },
    {
      "id": 4,
      "content": "<rlm>",
      "single_word": false,
      "lstrip": false,
      "rstrip": false,
      "normalized": false,
      "special": true
    },
    {
      "id": 5,
      "content": "<read>",
      "single_word": false,
      "lstrip": false,
      "rstrip": false,
      "normalized": false,
      "special": true
    },
    {
      "id": 6,
      "content": "<search>",
      "single_word": false,
      "lstrip": false,
      "rstrip": false,
      "normalized": false,
      "special": true
    },
    {
      "id": 7,
      "content": "<call>",
      "single_word": false,
      "lstrip": false,
      "rstrip": false,
      "normalized": false,
      "special": true
    },
    {
      "id": 8,
      "content": "<compare>",
      "single_word": false,
      "lstrip": false,
      "rstrip": false,
      "normalized": false,
      "special": true
    },
    {
      "id": 9,
      "content": "<merge>",
      "single_word": false,
      "lstrip": false,
      "rstrip": false,
      "normalized": false,
      "special": true
    },
    {
      "id": 10,
      "content": "<stop>",
      "single_word": false,
      "lstrip": false,
      "rstrip": false,
      "normalized": false,
      "special": true
    },
    {
      "id": 11,
      "content": "<result>",
      "single_word": false,
      "lstrip": false,
      "rstrip": false,
      "normalized": false,
      "special": true
    },
    {
      "id": 12,
      "content": "<state>",
      "single_word": false,
      "lstrip": false,
      "rstrip": false,
      "normalized": false,
      "special": true
    },
    {
      "id": 13,
      "content": "<confidence>",
      "single_word": false,
      "lstrip": false,
      "rstrip": false,
      "normalized": false,
      "special": true
    }
  ],
  "normalizer": null,
  "pre_tokenizer": {
    "type": "ByteLevel",
    "add_prefix_space": false,
    "trim_offsets": true,
    "use_regex": true
  },
  "post_processor": {
    "type": "ByteLevel",
    "add_prefix_space": true,
    "trim_offsets": false,
    "use_regex": true
  },
  "decoder": {
    "type": "ByteLevel",
    "add_prefix_space": true,
    "trim_offsets": true,
    "use_regex": true
  },
  "model": {
    "type": "BPE",
    "dropout": null,
    "unk_token": null,
    "continuing_subword_prefix": null,
    "end_of_word_suffix": null,
    "fuse_unk": false,
    "byte_fallback": false,
    "ignore_merges": false,
    "vocab": {
      "<pad>": 0,
      "<bos>": 1,
      "<eos>": 2,
      "<sep>": 3,
      "<rlm>": 4,
      "<read>": 5,
      "<search>": 6,
      "<call>": 7,
      "<compare>": 8,
      "<merge>": 9,
      "<stop>": 10,
      "<result>": 11,
      "<state>": 12,
      "<confidence>": 13,
      "!": 14,
      "\"": 15,
      "#": 16,
      "$": 17,
      "%": 18,
      "&": 19,
      "'": 20,
      "(": 21,
      ")": 22,
      "*": 23,
      "+": 24,
      ",": 25,
      "-": 26,
      ".": 27,
      "/": 28,
      "0": 29,
      "1": 30,
      "2": 31,
      "3": 32,
      "4": 33,
      "5": 34,
      "6": 35,
      "7": 36,
      "8": 37,
      "9": 38,
      ":": 39,
      ";": 40,
      "<": 41,
      "=": 42,
      ">": 43,
      "?": 44,
      "@": 45,
      "A": 46,
      "B": 47,
      "C": 48,
      "D": 49,
      "E": 50,
      "F": 51,
      "G": 52,
      "H": 53,
      "I": 54,
      "J": 55,
      "K": 56,
      "L": 57,
      "M": 58,
      "N": 59,
      "O": 60,
      "P": 61,
      "Q": 62,
      "R": 63,
      "S": 64,
      "T": 65,
      "U": 66,
      "V": 67,
      "W": 68,
      "X": 69,
      "Y": 70,
      "Z": 71,
      "[": 72,
      "\\": 73,
      "]": 74,
      "^": 75,
      "_": 76,
      "`": 77,
      "a": 78,
      "b": 79,
      "c": 80,
      "d": 81,
      "e": 82,
      "f": 83,
      "g": 84,
      "h": 85,
      "i": 86,
      "j": 87,
      "k": 88,
      "l": 89,
      "m": 90,
      "n": 91,
      "o": 92,
      "p": 93,
      "q": 94,
      "r": 95,
      "s": 96,
      "t": 97,
      "u": 98,
      "v": 99,
      "w": 100,
      "x": 101,
      "y": 102,
      "z": 103,
      "{": 104,
      "|": 105,
      "}": 106,
      "~": 107,
      "¡": 108,
      "¢": 109,
      "£": 110,
      "¤": 111,
      "¥": 112,
      "¦": 113,
      "§": 114,
      "¨": 115,
      "©": 116,
      "ª": 117,
      "«": 118,
      "¬": 119,
      "®": 120,
      "¯": 121,
      "°": 122,
      "±": 123,
      "²": 124,
      "³": 125,
      "´": 126,
      "µ": 127,
      "¶": 128,
      "·": 129,
      "¸": 130,
      "¹": 131,
      "º": 132,
      "»": 133,
      "¼": 134,
      "½": 135,
      "¾": 136,
      "¿": 137,
      "À": 138,
      "Á": 139,
      "Â": 140,
      "Ã": 141,
      "Ä": 142,
      "Å": 143,
      "Æ": 144,
      "Ç": 145,
      "È": 146,
      "É": 147,
      "Ê": 148,
      "Ë": 149,
      "Ì": 150,
      "Í": 151,
      "Î": 152,
      "Ï": 153,
      "Ð": 154,
      "Ñ": 155,
      "Ò": 156,
      "Ó": 157,
      "Ô": 158,
      "Õ": 159,
      "Ö": 160,
      "×": 161,
      "Ø": 162,
      "Ù": 163,
      "Ú": 164,
      "Û": 165,
      "Ü": 166,
      "Ý": 167,
      "Þ": 168,
      "ß": 169,
      "à": 170,
      "á": 171,
      "â": 172,
      "ã": 173,
      "ä": 174,
      "å": 175,
      "æ": 176,
      "ç": 177,
      "è": 178,
      "é": 179,
      "ê": 180,
      "ë": 181,
      "ì": 182,
      "í": 183,
      "î": 184,
      "ï": 185,
      "ð": 186,
      "ñ": 187,
      "ò": 188,
      "ó": 189,
      "ô": 190,
      "õ": 191,
      "ö": 192,
      "÷": 193,
      "ø": 194,
      "ù": 195,
      "ú": 196,
      "û": 197,
      "ü": 198,
      "ý": 199,
      "þ": 200,
      "ÿ": 201,
      "Ā": 202,
      "ā": 203,
      "Ă": 204,
      "ă": 205,
      "Ą": 206,
      "ą": 207,
      "Ć": 208,
      "ć": 209,
      "Ĉ": 210,
      "ĉ": 211,
      "Ċ": 212,
      "ċ": 213,
      "Č": 214,
      "č": 215,
      "Ď": 216,
      "ď": 217,
      "Đ": 218,
      "đ": 219,
      "Ē": 220,
      "ē": 221,
      "Ĕ": 222,
      "ĕ": 223,
      "Ė": 224,
      "ė": 225,
      "Ę": 226,
      "ę": 227,
      "Ě": 228,
      "ě": 229,
      "Ĝ": 230,
      "ĝ": 231,
      "Ğ": 232,
      "ğ": 233,
      "Ġ": 234,
      "ġ": 235,
      "Ģ": 236,
      "ģ": 237,
      "Ĥ": 238,
      "ĥ": 239,
      "Ħ": 240,
      "ħ": 241,
      "Ĩ": 242,
      "ĩ": 243,
      "Ī": 244,
      "ī": 245,
      "Ĭ": 246,
      "ĭ": 247,
      "Į": 248,
      "į": 249,
      "İ": 250,
      "ı": 251,
      "Ĳ": 252,
      "ĳ": 253,
      "Ĵ": 254,
      "ĵ": 255,
      "Ķ": 256,
      "ķ": 257,
      "ĸ": 258,
      "Ĺ": 259,
      "ĺ": 260,
      "Ļ": 261,
      "ļ": 262,
      "Ľ": 263,
      "ľ": 264,
      "Ŀ": 265,
      "ŀ": 266,
      "Ł": 267,
      "ł": 268,
      "Ń": 269,
      "Ġt": 270,
      "in": 271,
      "Ġa": 272,
      "he": 273,
      "re": 274,
      "on": 275,
      "er": 276,
      "Ġs": 277,
      "at": 278,
      "Ġthe": 279,
      "en": 280,
      "Ġc": 281,
      "es": 282,
      "Ġo": 283,
      "ing": 284,
      "nd": 285,
      "it": 286,
      "al": 287,
      "Ġw": 288,
      "or": 289,
      "Ġp": 290,
      "is": 291,
      "Ġf": 292,
      "ou": 293,
      "an": 294,
      "ed": 295,
      "Ġb": 296,
      "ar": 297,
      "Ġin": 298,
      "ion": 299,
      "Ġand": 300,
      "ic": 301,
      "Ġof": 302,
      "Ġm": 303,
      "Ġd": 304,
      "Ġto": 305,
      "le": 306,
      "om": 307,
      "ent": 308,
      "Ġe": 309,
      "ct": 310,
      "st": 311,
      "Ġh": 312,
      "Ġth": 313,
      "Ġre": 314,
      "ro": 315,
      "il": 316,
      "Ġl": 317,
      "ve": 318,
      "as": 319,
      "ly": 320,
      "et": 321,
      "Ġn": 322,
      "ation": 323,
      "ol": 324,
      "se": 325,
      "im": 326,
      "Ġg": 327,
      "ra": 328,
      "ce": 329,
      "ur": 330,
      "id": 331,
      "ow": 332,
      "Ġu": 333,
      "ig": 334,
      "ĠT": 335,
      "ch": 336,
      "ut": 337,
      "Ġbe": 338,
      "ot": 339,
      "ver": 340,
      "Ġst": 341,
      "ĠA": 342,
      "Ġy": 343,
      "Ġfor": 344,
      "ul": 345,
      "ir": 346,
      "ĠS": 347,
      "Ġis": 348,
      "Ġcon": 349,
      "Ġon": 350,
      "el": 351,
      "am": 352,
      "ith": 353,
      "ay": 354,
      "ĠC": 355,
      "ĠI": 356,
      "her": 357,
      "Ġthat": 358,
      "--": 359,
      "Ġyou": 360,
      "if": 361,
      "ers": 362,
      "ies": 363,
      "Ġwith": 364,
      "Ġex": 365,
      "ad": 366,
      "Ġas": 367,
      "Ġpro": 368,
      "Ġor": 369,
      "ist": 370,
      "Ġwh": 371,
      "ate": 372,
      "ess": 373,
      "ag": 374,
      "ment": 375,
      "Ġan": 376,
      "od": 377,
      "Ġcom": 378,
      "ter": 379,
      "res": 380,
      "ect": 381,
      "Ġal": 382,
      "Ġit": 383,
      "ab": 384,
      "âĢ": 385,
      "ity": 386,
      "th": 387,
      "em": 388,
      "iv": 389,
      "ĠM": 390,
      "Ġsu": 391,
      "ive": 392,
      "Ġhe": 393,
      "qu": 394,
      "pp": 395,
      "Ġv": 396,
      "ĠP": 397,
      "us": 398,
      "op": 399,
      "and": 400,
      "ore": 401,
      "ke": 402,
      "ts": 403,
      "Ġde": 404,
      "ĠB": 405,
      "Ġare": 406,
      "ci": 407,
      "Ġwe": 408,
      "Ġ(": 409,
      "ac": 410,
      "ain": 411,
      "igh": 412,
      "ill": 413,
      "ĠThe": 414,
      "rom": 415,
      "ĠW": 416,
      "os": 417,
      "ld": 418,
      "Ġch": 419,
      "rou": 420,
      "Ġen": 421,
      "um": 422,
      "Ġle": 423,
      "ĠH": 424,
      "est": 425,
      "ical": 426,
      "un": 427,
      "'s": 428,
      "ri": 429,
      "Ġ1": 430,
      "ions": 431,
      "ure": 432,
      "ĠE": 433,
      "Ġse": 434,
      "Ġby": 435,
      "Ġne": 436,
      "ĠF": 437,
      "nt": 438,
      "pl": 439,
      "ud": 440,
      "Ġat": 441,
      "ĠD": 442,
      "ant": 443,
      "ĠR": 444,
      "all": 445,
      "ap": 446,
      "gh": 447,
      "Ġint": 448,
      "ort": 449,
      "og": 450,
      "Ġcan": 451,
      "Ġsp": 452,
      "Ġr": 453,
      "Ġha": 454,
      "out": 455,
      "Ġfrom": 456,
      "Ġab": 457,
      "Ġsh": 458,
      "----": 459,
      "red": 460,
      "iz": 461,
      "art": 462,
      "ine": 463,
      "ations": 464,
      "Ġim": 465,
      "Ġwor": 466,
      "ge": 467,
      "ous": 468,
      "ome": 469,
      "Ġtheir": 470,
      "ĠL": 471,
      "Ġthis": 472,
      "our": 473,
      "Ġus": 474,
      "ight": 475,
      "ust": 476,
      "Ġyour": 477,
      "ĠN": 478,
      "ard": 479,
      "ĠG": 480,
      "Ġpl": 481,
      "oc": 482,
      "act": 483,
      "Ġad": 484,
      "per": 485,
      "ther": 486,
      "Ġwhe": 487,
      "Ġcont": 488,
      "ast": 489,
      "Ġwas": 490,
      "Ġcomp": 491,
      "age": 492,
      "ak": 493,
      "ide": 494,
      "ial": 495,
      "ance": 496,
      "Ġres": 497,
      "ould": 498,
      "ans": 499,
      "ĠO": 500,
      "Ġhave": 501,
      "Ġthey": 502,
      "pt": 503,
      "ff": 504,
      "end": 505,
      "Ġdis": 506,
      "ated": 507,
      "Ġ2": 508,
      "Ġnot": 509,
      "ual": 510,
      "ong": 511,
      "ĠTh": 512,
      "ib": 513,
      "Ġso": 514,
      "ell": 515,
      "ost": 516,
      "Ġinc": 517,
      "Ġk": 518,
      "able": 519,
      "ru": 520,
      "du": 521,
      "ich": 522,
      "cc": 523,
      "ary": 524,
      "are": 525,
      "ult": 526,
      "ere": 527,
      "orm": 528,
      "ces": 529,
      "ip": 530,
      "Ġun": 531,
      "ep": 532,
      "Ġall": 533,
      "ie": 534,
      "ĠU": 535,
      "Ġabout": 536,
      "ike": 537,
      "Ġ\"": 538,
      "ence": 539,
      "ind": 540,
      "vel": 541,
      "ating": 542,
      "ks": 543,
      "ign": 544,
      "Ġte": 545,
      "Ġme": 546,
      "ach": 547,
      "nder": 548,
      "Ġimp": 549,
      "Ġapp": 550,
      "ress": 551,
      "ood": 552,
      "ear": 553,
      "Ġcl": 554,
      "Ġar": 555,
      "ents": 556,
      "ction": 557,
      "av": 558,
      "ĠJ": 559,
      "00": 560,
      "Ġj": 561,
      "ĠIn": 562,
      "Ġthese": 563,
      "Ġev": 564,
      "rough": 565,
      "ĠâĢ": 566,
      "Ġinto": 567,
      "ile": 568,
      "so": 569,
      "ec": 570,
      "The": 571,
      "ors": 572,
      "Ġother": 573,
      "ry": 574,
      "Ġwill": 575,
      "ose": 576,
      "Ġman": 577,
      "Ġwhich": 578,
      "Ġdo": 579,
      "reat": 580,
      "ory": 581,
      "ition": 582,
      "Ġmore": 583,
      "Ġcomm": 584,
      "Ġlike": 585,
      "ice": 586,
      "ities": 587,
      "ass": 588,
      "one": 589,
      "very": 590,
      "Ġthem": 591,
      "Ġper": 592,
      "cial": 593,
      "form": 594,
      "ace": 595,
      "âĢĻ": 596,
      "ia": 597,
      "Ġem": 598,
      "ings": 599,
      "ue": 600,
      "ime": 601,
      "ild": 602,
      "Ġout": 603,
      "Ġour": 604,
      "Ġhow": 605,
      "ens": 606,
      "ater": 607,
      "Ġunder": 608,
      "oo": 609,
      "Ġup": 610,
      "olog": 611,
      "now": 612,
      "ang": 613,
      "Ġbut": 614,
      "ments": 615,
      "Ġhas": 616,
      "Ġtra": 617,
      "ific": 618,
      "**": 619,
      "Ġone": 620,
      "Ġbet": 621,
      "ack": 622,
      "ake": 623,
      "ber": 624,
      "ound": 625,
      "Ġind": 626,
      "rit": 627,
      "ire": 628,
      "--------": 629,
      "Ġsome": 630,
      "ric": 631,
      "Ġfe": 632,
      "ious": 633,
      "Ġqu": 634,
      "Ġpart": 635,
      "Ġpre": 636,
      "king": 637,
      "Ġits": 638,
      "iff": 639,
      "Ġro": 640,
      "Ġpe": 641,
      "Ġwho": 642,
      "Ġwhen": 643,
      "ame": 644,
      "ĠSt": 645,
      "Ġcol": 646,
      "ord": 647,
      "ons": 648,
      "Ġbec": 649,
      "uring": 650,
      "Ġsy": 651,
      "ase": 652,
      "arn": 653,
      "ays": 654,
      "ish": 655,
      "Ġthrough": 656,
      "ne": 657,
      "les": 658,
      "Ġcons": 659,
      "Ġstud": 660,
      "we": 661,
      "Ġwere": 662,
      "ful": 663,
      "erv": 664,
      "ough": 665,
      "Ġsuch": 666,
      "round": 667,
      "ures": 668,
      "au": 669,
      "low": 670,
      "lect": 671,
      "Ġinter": 672,
      "ond": 673,
      "Ġrel": 674,
      "ates": 675,
      "Ġhis": 676,
      "Ġdiff": 677,
      "Ġdes": 678,
      "ms": 679,
      "ount": 680,
      "ail": 681,
      "ite": 682,
      "ph": 683,
      "ĠThis": 684,
      "Ġalso": 685,
      "ple": 686,
      "Ġthere": 687,
      "ree": 688,
      "ally": 689,
      "Ġknow": 690,
      "vers": 691,
      "Ġtime": 692,
      "ub": 693,
      "Ġmay": 694,
      ").": 695,
      "pect": 696,
      "Ġover": 697,
      "Ġag": 698,
      "ĠCh": 699,
      "Ġhel": 700,
      "Ġacc": 701,
      "Ġrec": 702,
      "ics": 703,
      "ople": 704,
      "Ġtr": 705,
      "Ġ19": 706,
      "pe": 707,
      "Ġwhat": 708,
      "Ġexpl": 709,
      "ian": 710,
      "Ġgo": 711,
      "stand": 712,
      "lic": 713,
      "Ġhelp": 714,
      "ove": 715,
      "lud": 716,
      "ract": 717,
      "cess": 718,
      "ll": 719,
      "Ġra": 720,
      "Ġthan": 721,
      "Ġact": 722,
      "Ġam": 723,
      "ative": 724,
      "row": 725,
      "ĠY": 726,
      "Ġnew": 727,
      "als": 728,
      "ys": 729,
      "ob": 730,
      "ov": 731,
      "ility": 732,
      "alth": 733,
      "Ġinv": 734,
      "rib": 735,
      "ting": 736,
      "Ġoff": 737,
      "Ġreg": 738,
      "Ġcre": 739,
      "Ġeff": 740,
      "Ġpeople": 741,
      "Ġsc": 742,
      "Ġgen": 743,
      "ular": 744,
      "ĠK": 745,
      "velop": 746,
      "Ġsa": 747,
      "ced": 748,
      "eth": 749,
      "Ġlearn": 750,
      "ween": 751,
      "te": 752,
      "chn": 753,
      "ject": 754,
      "Ġinst": 755,
      "Ġrem": 756,
      "stem": 757,
      "oth": 758,
      "ĠIt": 759,
      "Ġprov": 760,
      "sel": 761,
      "Ġinclud": 762,
      "Ġpr": 763,
      "Ġ-": 764,
      "Ġtw": 765,
      "Ġdiffere": 766,
      "Ġac": 767,
      "Ġco": 768,
      "Ġbetween": 769,
      "irst": 770,
      "Ġrep": 771,
      "Ġph": 772,
      "ef": 773,
      "mer": 774,
      "Ġexam": 775,
      "ise": 776,
      "ĠV": 777,
      "Ġneed": 778,
      "ural": 779,
      "ren": 780,
      "tain": 781,
      "Ġwould": 782,
      "Ġif": 783,
      "ational": 784,
      "'t": 785,
      "In": 786,
      "Ġany": 787,
      "ential": 788,
      "iqu": 789,
      "Ġdisc": 790,
      "Ġdi": 791,
      "Ġexper": 792,
      "ives": 793,
      "Ġbeen": 794,
      "get": 795,
      "hed": 796,
      "Ġevery": 797,
      "Ġwhere": 798,
      "ark": 799,
      "hen": 800,
      "ath": 801,
      "Ġuse": 802,
      "Ġsur": 803,
      "Ġhad": 804,
      "Ġcommun": 805,
      "Ġyear": 806,
      "Ġdec": 807,
      "Ġpers": 808,
      "Ġwork": 809,
      "ook": 810,
      "Ġvar": 811,
      "aking": 812,
      "Ġher": 813,
      "ower": 814,
      "hes": 815,
      "Ġdevelop": 816,
      "Ġadd": 817,
      "ues": 818,
      "tern": 819,
      "Ġbl": 820,
      "old": 821,
      "ten": 822,
      "ased": 823,
      "ife": 824,
      "Ġpos": 825,
      "âĢĿ": 826,
      "ict": 827,
      "xt": 828,
      "ause": 829,
      "),": 830,
      "Ġwhile": 831,
      "ism": 832,
      "ution": 833,
      "Ġ3": 834,
      "Ġtechn": 835,
      "Ġworld": 836,
      "Ġob": 837,
      "Ġcould": 838,
      "ices": 839,
      "ange": 840,
      "ern": 841,
      "Ġno": 842,
      "Ġpo": 843,
      "Ġmod": 844,
      "ĠUn": 845,
      "Ġins": 846,
      "uc": 847,
      "wn": 848,
      "Ġcall": 849,
      "Ġunderstand": 850,
      "ew": 851,
      "Ġspec": 852,
      "Ġsystem": 853,
      "ible": 854,
      "Ġstr": 855,
      "Ġatt": 856,
      "Ġsm": 857,
      "Ġsign": 858,
      "Ġsim": 859,
      "Ġprodu": 860,
      "ists": 861,
      "Ġtwo": 862,
      "Ġmany": 863,
      "oy": 864,
      "ness": 865,
      "pport": 866,
      "its": 867,
      "ily": 868,
      "cy": 869,
      "Ġtrans": 870,
      "gan": 871,
      "erg": 872,
      "Ġeven": 873,
      "ĠâĢĵ": 874,
      "hip": 875,
      "ĠAs": 876,
      "ward": 877,
      "vent": 878,
      "ever": 879,
      "ines": 880,
      "Ġduring": 881,
      "Ġwithin": 882,
      "Ġfirst": 883,
      "Ġval": 884,
      "ature": 885,
      "Ġsub": 886,
      "Ġhist": 887,
      "Ġbu": 888,
      "Ġhealth": 889,
      "Ġdifferent": 890,
      "fter": 891,
      "ram": 892,
      "Ġinf": 893,
      "Ġmost": 894,
      "Ġart": 895,
      "ident": 896,
      "own": 897,
      "Ġexp": 898,
      "ection": 899,
      "erm": 900,
      "Ġhum": 901,
      "ology": 902,
      "urn": 903,
      "int": 904,
      "Ġref": 905,
      "resent": 906,
      "Ġpol": 907,
      "ivid": 908,
      "Ġthose": 909,
      "ble": 910,
      "Ġused": 911,
      "ands": 912,
      "fore": 913,
      "Ġfl": 914,
      "Ġform": 915,
      "ng": 916,
      "Ġeach": 917,
      "ool": 918,
      "ize": 919,
      "ros": 920,
      "Ġjust": 921,
      "Ġimport": 922,
      "Ġonly": 923,
      "Ġcomple": 924,
      "ink": 925,
      "Ġusing": 926,
      "ata": 927,
      "Ġsom": 928,
      "ĠâĢľ": 929,
      "iss": 930,
      "other": 931,
      "ically": 932,
      "eg": 933,
      "ering": 934,
      "arch": 935,
      "Ġspe": 936,
      "Ġset": 937,
      "Ġpat": 938,
      "ving": 939,
      "Ġke": 940,
      "Ġinform": 941,
      "Ġmight": 942,
      "Ġmed": 943,
      "eng": 944,
      "ĠWh": 945,
      "ized": 946,
      "ps": 947,
      "Ġdist": 948,
      "led": 949,
      "ĠHe": 950,
      "..": 951,
      "Ġfun": 952,
      "arm": 953,
      "imes": 954,
      "ade": 955,
      "Ġhigh": 956,
      "ages": 957,
      "Ġcult": 958,
      "Ġty": 959,
      "Ġsee": 960,
      "ĠBy": 961,
      "ruct": 962,
      "Ġpract": 963,
      "Ġnum": 964,
      "ves": 965,
      "ien": 966,
      "dition": 967,
      "aw": 968,
      "Ġprocess": 969,
      "uch": 970,
      "Ġlead": 971,
      "ft": 972,
      "Ġgra": 973,
      "Ġfam": 974,
      "Ġrese": 975,
      "ied": 976,
      "Ġdet": 977,
      "ĠCon": 978,
      "Ġwell": 979,
      "Ġed": 980,
      "ĠFor": 981,
      "Ġchild": 982,
      "ins": 983,
      "ick": 984,
      "iron": 985,
      "Ġloc": 986,
      "Ġboth": 987,
      "Ġsk": 988,
      "arly": 989,
      "Ġfol": 990,
      "Ġent": 991,
      "Ġmy": 992,
      "Ġgener": 993,
      "ividual": 994,
      "cl": 995,
      "Ġpartic": 996,
      "ants": 997,
      "Ġlet": 998,
      "cing": 999,
      "Ġshe": 1000,
      "ited": 1001,
      "meric": 1002,
      "cept": 1003,
      "por": 1004,
      "chool": 1005,
      "Ġ20": 1006,
      "ality": 1007,
      "Ġprog": 1008,
      "ety": 1009,
      "ually": 1010,
      "ather": 1011,
      "Ġindividual": 1012,
      "Ġcent": 1013,
      "Ġgrow": 1014,
      ".\"": 1015,
      "Ġwater": 1016,
      "Ġfound": 1017,
      "Ġget": 1018,
      "Ġlife": 1019,
      "ĠWe": 1020,
      "ining": 1021,
      "ories": 1022,
      "Ġperson": 1023,
      "Ġcalled": 1024,
      "Ġfind": 1025,
      "ĠHow": 1026,
      "Ġrequ": 1027,
      "ning": 1028,
      "Ġread": 1029,
      "ĠThese": 1030,
      "Ġext": 1031,
      "Ġback": 1032,
      "Ġeffect": 1033,
      "Ġ200": 1034,
      "Ġthen": 1035,
      "ĠThey": 1036,
      "Ġappro": 1037,
      "Ġchar": 1038,
      "ds": 1039,
      "Ġgrou": 1040,
      "Ġown": 1041,
      "ĠCom": 1042,
      "iew": 1043,
      "Ġway": 1044,
      "ĠAmeric": 1045,
      "Ġsec": 1046,
      "Ġaround": 1047,
      "Ġ4": 1048,
      "Ġdesign": 1049,
      "over": 1050,
      "ĠAl": 1051,
      "Ġeng": 1052,
      "Ġmake": 1053,
      "ron": 1054,
      "Ġplay": 1055,
      "Ġcap": 1056,
      "ional": 1057,
      "Ġincre": 1058,
      "Ġlong": 1059,
      "Ġallow": 1060,
      "con": 1061,
      "Ġaut": 1062,
      "ights": 1063,
      "Ġass": 1064,
      "viron": 1065,
      "gg": 1066,
      "self": 1067,
      "Ġcur": 1068,
      "ross": 1069,
      "itions": 1070,
      "Ġyears": 1071,
      "Ġpower": 1072,
      "Ġfollow": 1073,
      "Ġbefore": 1074,
      "Ġmain": 1075,
      "Ġsci": 1076,
      "Ġcor": 1077,
      "----------------": 1078,
      "Ġresp": 1079,
      "Ġlit": 1080,
      "iving": 1081,
      "Ġpar": 1082,
      "ĠPro": 1083,
      "Ġcount": 1084,
      "Ġcare": 1085,
      "Ġadv": 1086,
      "Ġsol": 1087,
      "Ġvis": 1088,
      "Ġgl": 1089,
      "ave": 1090,
      "Ġcar": 1091,
      "Ġfact": 1092,
      "Ġchall": 1093,
      "Ġdata": 1094,
      "Ġbecause": 1095,
      "##": 1096,
      "Ġbeing": 1097,
      "Ġprovid": 1098,
      "Ġoften": 1099,
      "ute": 1100,
      "Ġshould": 1101,
      "Ġserv": 1102,
      "uss": 1103,
      "ved": 1104,
      "Ġcontin": 1105,
      "Ġ5": 1106,
      "Ġinformation": 1107,
      "Ġexample": 1108,
      "oring": 1109,
      "tle": 1110,
      "ient": 1111,
      "Ġvarious": 1112,
      "Ġpot": 1113,
      "Ġbel": 1114,
      "Ġdel": 1115,
      "Ġequ": 1116,
      "âĢĶ": 1117,
      "Ġinvol": 1118,
      "Ġconf": 1119,
      "akes": 1120,
      "Ġbr": 1121,
      "Ġafter": 1122,
      "Th": 1123,
      "Ġtoo": 1124,
      "Ġmem": 1125,
      "nect": 1126,
      "ex": 1127,
      "Ġprom": 1128,
      "Ġgu": 1129,
      "nce": 1130,
      "ork": 1131,
      "Ġorgan": 1132,
      "ared": 1133,
      "ĠSo": 1134,
      "Ġdoes": 1135,
      "Ġmat": 1136,
      "ider": 1137,
      "ted": 1138,
      "ources": 1139,
      "ique": 1140,
      "ases": 1141,
      "ead": 1142,
      "ck": 1143,
      "Ġthough": 1144,
      "ital": 1145,
      "Ġpop": 1146,
      "Ġsignific": 1147,
      "Ġdown": 1148,
      "Ġfood": 1149,
      "Ġprot": 1150,
      "ty": 1151,
      "Ġdef": 1152,
      "ization": 1153,
      "day": 1154,
      "Ġlar": 1155,
      "iel": 1156,
      "ale": 1157,
      "ax": 1158,
      "Ġdep": 1159,
      "riend": 1160,
      "Ġgreat": 1161,
      "imate": 1162,
      "ĠAn": 1163,
      "ars": 1164,
      "oun": 1165,
      "Ġhuman": 1166,
      "ĠAd": 1167,
      "Ġsmall": 1168,
      "read": 1169,
      "Ġav": 1170,
      "Ġbuild": 1171,
      "ience": 1172,
      "Ġident": 1173,
      "ateg": 1174,
      "Ġmuch": 1175,
      "Ġstudy": 1176,
      "ublic": 1177,
      ",\"": 1178,
      "com": 1179,
      "Ġenviron": 1180,
      "ivity": 1181,
      "air": 1182,
      "Ġshow": 1183,
      "ered": 1184,
      "Ġreal": 1185,
      "und": 1186,
      "els": 1187,
      "angu": 1188,
      "Ġmon": 1189,
      "ody": 1190,
      "Ġconc": 1191,
      "Ġday": 1192,
      "Ġwrit": 1193,
      "Ġimportant": 1194,
      "``": 1195,
      "Ġschool": 1196,
      "ability": 1197,
      "rodu": 1198,
      "the": 1199,
      "ier": 1200,
      "Ġmade": 1201,
      "Ġens": 1202,
      "ples": 1203,
      "ined": 1204,
      "Ġagain": 1205,
      "Ġstart": 1206,
      "Ġclass": 1207,
      "Ġend": 1208,
      "inal": 1209,
      "Ġbeh": 1210,
      "Ġsaid": 1211,
      "Ġmin": 1212,
      "Ġless": 1213,
      "Ġsupport": 1214,
      "agine": 1215,
      "ĠAr": 1216,
      "Ġlevel": 1217,
      "Ġcreate": 1218,
      "ĠEx": 1219,
      "ivers": 1220,
      "Ġche": 1221,
      "Ġtoget": 1222,
      "Ġtogether": 1223,
      "Ġop": 1224,
      "Ġstudents": 1225,
      "Ġproble": 1226,
      "any": 1227,
      "raph": 1228,
      "Ġposs": 1229,
      "Ġquest": 1230,
      "ify": 1231,
      "orts": 1232,
      "Ġamong": 1233,
      "ĠBut": 1234,
      "ination": 1235,
      "ember": 1236,
      "ix": 1237,
      "Ġdem": 1238,
      "ething": 1239,
      "Ġlearning": 1240,
      "apter": 1241,
      "Ġprof": 1242,
      "Ġhim": 1243,
      "ergy": 1244,
      "ances": 1245,
      "ven": 1246,
      "Ġess": 1247,
      "ĠYou": 1248,
      "less": 1249,
      "ets": 1250,
      "Ġincluding": 1251,
      "ah": 1252,
      "ently": 1253,
      "Ġexplore": 1254,
      "Ġfriend": 1255,
      "erest": 1256,
      "Ġtake": 1257,
      "Ġaw": 1258,
      "rol": 1259,
      "Ġsomething": 1260,
      "Ġsame": 1261,
      "Ġnow": 1262,
      ".,": 1263,
      "Ġvery": 1264,
      "omen": 1265,
      "Ġdid": 1266,
      "Ġunderstanding": 1267,
      "io": 1268,
      "Ġcharact": 1269,
      "Ġ18": 1270,
      "Ġothers": 1271,
      "Ġide": 1272,
      "Ġmust": 1273,
      "land": 1274,
      "Ġchalleng": 1275,
      "ling": 1276,
      "ĠRe": 1277,
      "ertain": 1278,
      "Ġeduc": 1279,
      "Ġbetter": 1280,
      "itive": 1281,
      "Ġcomplex": 1282,
      "Ġfeel": 1283,
      "Ġest": 1284,
      "Ġiss": 1285,
      "usion": 1286,
      "Ġconst": 1287,
      "irect": 1288,
      "Ġris": 1289,
      "ocus": 1290,
      "Ġgood": 1291,
      "Ġanother": 1292,
      "ĠInd": 1293,
      "Ġfac": 1294,
      "Ġaff": 1295,
      "line": 1296,
      "Ġsocial": 1297,
      "izing": 1298,
      "be": 1299,
      "ethod": 1300,
      "aterial": 1301,
      "ince": 1302,
      "ccess": 1303,
      "Ġredu": 1304,
      "par": 1305,
      "Ġpotential": 1306,
      "ired": 1307,
      "Ġconnect": 1308,
      "Ġanal": 1309,
      "Ġtyp": 1310,
      "Ġcrit": 1311,
      "Ġhistory": 1312,
      "ished": 1313,
      "Ġplan": 1314,
      "Ġ**": 1315,
      "Ġcle": 1316,
      "Ġlangu": 1317,
      "Ġser": 1318,
      "rent": 1319,
      "ĠIf": 1320,
      "Ġresearch": 1321,
      "hers": 1322,
      "Ġenc": 1323,
      "bers": 1324,
      "Ġocc": 1325,
      "Ġele": 1326,
      "Ġ`": 1327,
      "Ġright": 1328,
      "Ġsoci": 1329,
      "ĠSp": 1330,
      "ĠAnd": 1331,
      "ourse": 1332,
      "iness": 1333,
      "Ġimpro": 1334,
      "Ġpres": 1335,
      "Ġwant": 1336,
      "Ġfunction": 1337,
      "Ġsignificant": 1338,
      "Ġenvironment": 1339,
      "Ġ201": 1340,
      "Ġtoward": 1341,
      "ological": 1342,
      "Ġ6": 1343,
      "ret": 1344,
      "ills": 1345,
      "Ġinterest": 1346,
      "urther": 1347,
      "iven": 1348,
      "lu": 1349,
      "Ġbelie": 1350,
      "ains": 1351,
      "Ġknown": 1352,
      "ral": 1353,
      "verse": 1354,
      "Ġsever": 1355,
      "Ġ'": 1356,
      "Ġexperien": 1357,
      "oms": 1358,
      "olution": 1359,
      "ĠNew": 1360,
      "Ġchildren": 1361,
      "Ġmus": 1362,
      "Ġca": 1363,
      "Ġthree": 1364,
      "ense": 1365,
      "ogn": 1366,
      "ental": 1367,
      "Ġmethod": 1368,
      "ision": 1369,
      "Ġmean": 1370,
      "Ġcommon": 1371,
      "Ġhapp": 1372,
      "Ġacross": 1373,
      "Ġbecome": 1374,
      "ived": 1375,
      "Ġsaf": 1376,
      "Ġstate": 1377,
      "ograph": 1378,
      "soci": 1379,
      "oh": 1380,
      "Ġ=": 1381,
      "Ġpass": 1382,
      "ries": 1383,
      "Ġthings": 1384,
      "Ġcontrib": 1385,
      "Ġdue": 1386,
      "ditions": 1387,
      "Ġwithout": 1388,
      "az": 1389,
      "abor": 1390,
      "up": 1391,
      "Ġfocus": 1392,
      "Ġcreat": 1393,
      "Ġgover": 1394,
      "Ġmaterial": 1395,
      "Ġtreat": 1396,
      "ĠIs": 1397,
      "Ġelect": 1398,
      "Ġchang": 1399,
      "As": 1400,
      "ner": 1401,
      "Ġopt": 1402,
      "Ġhand": 1403,
      "Wh": 1404,
      "ĠHowever": 1405,
      "ication": 1406,
      "Ġtre": 1407,
      "ock": 1408,
      "Ġunique": 1409,
      "St": 1410,
      "oss": 1411,
      "Ġbased": 1412,
      "Ġphys": 1413,
      "ulation": 1414,
      "elf": 1415,
      "Ġseveral": 1416,
      "ration": 1417,
      "Ġessential": 1418,
      "Ġchange": 1419,
      "aging": 1420,
      "rop": 1421,
      "Ġdevelopment": 1422,
      "ols": 1423,
      "atural": 1424,
      "ĠIm": 1425,
      "Ġsit": 1426,
      "ury": 1427,
      "lish": 1428,
      "rain": 1429,
      "Ġshap": 1430,
      "Ġmove": 1431,
      "Ġdiscuss": 1432,
      "Ġalong": 1433,
      "cent": 1434,
      "Ġmaking": 1435,
      "Ġplace": 1436,
      "agement": 1437,
      "to": 1438,
      "iod": 1439,
      "Ch": 1440,
      "ior": 1441,
      "mb": 1442,
      "ention": 1443,
      "Ġanim": 1444,
      "Ġspecial": 1445,
      "Ġmet": 1446,
      "Ġbo": 1447,
      "ger": 1448,
      "Ġstand": 1449,
      "Ġopen": 1450,
      "ults": 1451,
      "oura": 1452,
      "Ġconsider": 1453,
      "Ġbre": 1454,
      "Ġperform": 1455,
      "Ġgroup": 1456,
      "ull": 1457,
      "Ġimm": 1458,
      "19": 1459,
      "rat": 1460,
      "ash": 1461,
      "ĠWhen": 1462,
      "Ġben": 1463,
      "Ġve": 1464,
      "Ġenergy": 1465,
      "Ġkeep": 1466,
      "Ġpur": 1467,
      "ĠThat": 1468,
      "orn": 1469,
      "Ġfin": 1470,
      "ively": 1471,
      "Ġstill": 1472,
      "Ġpresent": 1473,
      "Ġsystems": 1474,
      "uture": 1475,
      "Ġrelations": 1476,
      "Ġinclude": 1477,
      "Ġbody": 1478,
      "ĠAmerican": 1479,
      "Ġmar": 1480,
      "Ġlight": 1481,
      "Ġmult": 1482,
      "ilities": 1483,
      "Ġleg": 1484,
      "Ġoper": 1485,
      "ients": 1486,
      "ways": 1487,
      "ians": 1488,
      "Ġnumber": 1489,
      "Ġthink": 1490,
      "Ġdon": 1491,
      "Ġlook": 1492,
      "Ġgovern": 1493,
      "Ġupon": 1494,
      "ield": 1495,
      "Ġturn": 1496,
      "Ġpublic": 1497,
      "Ġrole": 1498,
      "Ġfamily": 1499,
      "Ġsuccess": 1500,
      "pr": 1501,
      "Ġparticular": 1502,
      "ĠEn": 1503,
      "Ġauth": 1504,
      "agn": 1505,
      "Ġtal": 1506,
      "Ġlaw": 1507,
      "Ġtem": 1508,
      "py": 1509,
      "bs": 1510,
      "Ġrepresent": 1511,
      "aring": 1512,
      "reen": 1513,
      "Ġagainst": 1514,
      "ards": 1515,
      "Ġret": 1516,
      "ouse": 1517,
      "Ġhistor": 1518,
      "Ġindividuals": 1519,
      "Ġaccess": 1520,
      "Ġresult": 1521,
      "Ġwhy": 1522,
      "Ġmeans": 1523,
      "Ġspecific": 1524,
      "Ġsupp": 1525,
      "Ġ&": 1526,
      "ĠTo": 1527,
      "Ġ10": 1528,
      "gin": 1529,
      "Ġsl": 1530,
      "Ġstrateg": 1531,
      "Ġcho": 1532,
      "Ġstruct": 1533,
      "jects": 1534,
      "conom": 1535,
      "ording": 1536,
      "Ġcomput": 1537,
      "Ġbus": 1538,
      "Ġdr": 1539,
      "Ġtest": 1540,
      "iting": 1541,
      "arth": 1542,
      "rist": 1543,
      "Ġprovide": 1544,
      "Ġimpact": 1545,
      "Ġunt": 1546,
      "iques": 1547,
      "ĠRes": 1548,
      "etimes": 1549,
      "Ġlarge": 1550,
      "Ġlocal": 1551,
      "utions": 1552,
      "ert": 1553,
      "ency": 1554,
      "Ġdirect": 1555,
      "Ġaddress": 1556,
      "Ġever": 1557,
      "ids": 1558,
      "Ġdise": 1559,
      "istic": 1560,
      "ilar": 1561,
      "Ġrespons": 1562,
      "Ġtradition": 1563,
      "iversity": 1564,
      "Ġ7": 1565,
      "ĠEng": 1566,
      "Ġhome": 1567,
      "Ġmark": 1568,
      "ran": 1569,
      "irc": 1570,
      "ton": 1571,
      "de": 1572,
      "ote": 1573,
      "Ġproper": 1574,
      "app": 1575,
      "Ġel": 1576,
      "asc": 1577,
      "ĠDe": 1578,
      "Ġmeas": 1579,
      "Ġcomb": 1580,
      "Ġhere": 1581,
      "Ġdev": 1582,
      "Ġvari": 1583,
      "Ġcaus": 1584,
      "Ġcell": 1585,
      "selves": 1586,
      "Ġscient": 1587,
      "view": 1588,
      "Ġcertain": 1589,
      "der": 1590,
      "ason": 1591,
      "Ġlist": 1592,
      "ledge": 1593,
      "Ġtop": 1594,
      "Ġinflu": 1595,
      "Ġproduct": 1596,
      "Ġbro": 1597,
      "here": 1598,
      "cer": 1599,
      "Ġresources": 1600,
      "Ġlanguage": 1601,
      "ray": 1602,
      "'re": 1603,
      "Ġpain": 1604,
      "ĠSh": 1605,
      "Ġseem": 1606,
      "000": 1607,
      "uro": 1608,
      "Ġdesc": 1609,
      "asing": 1610,
      "ots": 1611,
      "Ġfuture": 1612,
      "Ġcontrol": 1613,
      "ĠSe": 1614,
      "Ġorig": 1615,
      "ats": 1616,
      "Ġdra": 1617,
      "aces": 1618,
      "Ġearly": 1619,
      "Ġ.": 1620,
      "Ġter": 1621,
      "Ġemb": 1622,
      "Ġlim": 1623,
      "osed": 1624,
      "Ġjour": 1625,
      "Ġcommunity": 1626,
      "Now": 1627,
      "clusion": 1628,
      "Ġtowards": 1629,
      "Ġprin": 1630,
      "iction": 1631,
      "ĠAt": 1632,
      "ĠPl": 1633,
      "ression": 1634,
      "Ġthroughout": 1635,
      "Ġmaintain": 1636,
      "ney": 1637,
      "This": 1638,
      "ibr": 1639,
      "Ġapplic": 1640,
      "Ġprogram": 1641,
      "pportun": 1642,
      "||": 1643,
      "put": 1644,
      "Ġrele": 1645,
      "ĠThere": 1646,
      "ending": 1647,
      "Ġaspect": 1648,
      "outh": 1649,
      "Ġnatural": 1650,
      "Ġspecies": 1651,
      "Ġrest": 1652,
      "Ġeas": 1653,
      "Ġbest": 1654,
      "Ġbi": 1655,
      "Ġchallenges": 1656,
      "Ġpress": 1657,
      "Ġland": 1658,
      "Ġarea": 1659,
      "idence": 1660,
      "Ġcome": 1661,
      "Ġtoday": 1662,
      "Ġstrong": 1663,
      "hips": 1664,
      "aj": 1665,
      "Ġfore": 1666,
      "Ġbas": 1667,
      "Ġassoci": 1668,
      "ĠOne": 1669,
      "ource": 1670,
      "Ġfew": 1671,
      "Ġareas": 1672,
      "Ġill": 1673,
      "Ġcharacter": 1674,
      "ames": 1675,
      "Ġways": 1676,
      "Ġstory": 1677,
      "ploy": 1678,
      "ext": 1679,
      "ooks": 1680,
      "Ġes": 1681,
      "Ġ8": 1682,
      "br": 1683,
      "me": 1684,
      "Ġissues": 1685,
      "Ġpolit": 1686,
      "sy": 1687,
      "Ġnon": 1688,
      "Ġaffect": 1689,
      "ĠWith": 1690,
      "port": 1691,
      "Ġfollowing": 1692,
      "Ġtry": 1693,
      "Ġmil": 1694,
      "Ġnecess": 1695,
      "Ġbenef": 1696,
      "Ġhy": 1697,
      "Ġprotect": 1698,
      "Ġstories": 1699,
      "Ġself": 1700,
      "Ġactiv": 1701,
      "Ġopportun": 1702,
      "arc": 1703,
      "Ġexist": 1704,
      "Ġintern": 1705,
      "Ġperiod": 1706,
      "Ġeconom": 1707,
      "idd": 1708,
      "ides": 1709,
      "Ġsimilar": 1710,
      "Ġavail": 1711,
      "ibility": 1712,
      "Ġobs": 1713,
      "ĠComm": 1714,
      "Ġfriends": 1715,
      "Ġinvest": 1716,
      "Ġuntil": 1717,
      "inating": 1718,
      "Ġstep": 1719,
      ".âĢĿ": 1720,
      "Ġtimes": 1721,
      "ode": 1722,
      "Ġkey": 1723,
      "man": 1724,
      "ium": 1725,
      "Ġwomen": 1726,
      "Ġmodern": 1727,
      "Ġoccur": 1728,
      "Ġskills": 1729,
      "lection": 1730,
      "ters": 1731,
      "ission": 1732,
      "Ġsecond": 1733,
      "Ġconcern": 1734,
      "Ġbehav": 1735,
      "Ġexperiences": 1736,
      "ified": 1737,
      "side": 1738,
      "Ġrelig": 1739,
      "Ġold": 1740,
      "Ġant": 1741,
      "ĠChrist": 1742,
      "work": 1743,
      "ences": 1744,
      "Ġcal": 1745,
      "ained": 1746,
      "ges": 1747,
      "Ġcollect": 1748,
      "Ġyoung": 1749,
      "aut": 1750,
      "Ġfre": 1751,
      "Ġworks": 1752,
      "oph": 1753,
      "Ġliter": 1754,
      "Ġcoll": 1755,
      "osp": 1756,
      "Ġpolic": 1757,
      "Ġsomeone": 1758,
      "Ġcommunities": 1759,
      "Ġtechniques": 1760,
      "Ġair": 1761,
      "Ġsince": 1762,
      "Ġsound": 1763,
      "orld": 1764,
      "ption": 1765,
      "nderstand": 1766,
      "Ġspace": 1767,
      "Ġbusiness": 1768,
      "Ġtechnology": 1769,
      "Ġeveryone": 1770,
      "Ġprofess": 1771,
      "Ġglob": 1772,
      "Ġpattern": 1773,
      "Ġet": 1774,
      "thing": 1775,
      "ĠOr": 1776,
      "ĠCan": 1777,
      "ope": 1778,
      "lished": 1779,
      "ables": 1780,
      "Ġ$": 1781,
      "ĠWhat": 1782,
      "Ġvalu": 1783,
      "Ġview": 1784,
      "...": 1785,
      "mat": 1786,
      "Ġmov": 1787,
      "for": 1788,
      "Ġdeep": 1789,
      "aps": 1790,
      "Ġexperience": 1791,
      "Ġpast": 1792,
      "ĠCol": 1793,
      "atures": 1794,
      "ately": 1795,
      "Ġfost": 1796,
      "Ġcourse": 1797,
      "ked": 1798,
      "Ġinn": 1799,
      "yn": 1800,
      "eral": 1801,
      "Ġlast": 1802,
      "Ġknowledge": 1803,
      "Ġ199": 1804,
      "Ġgrowth": 1805,
      "Ġrecogn": 1806,
      "20": 1807,
      "porary": 1808,
      "Ġrisk": 1809,
      "II": 1810,
      "lying": 1811,
      "Ġkind": 1812,
      "Ġestab": 1813,
      "Ġ9": 1814,
      "acy": 1815,
      "Ġpersonal": 1816,
      "Ġmind": 1817,
      "Ġrespect": 1818,
      "fully": 1819,
      "by": 1820,
      "Ġinit": 1821,
      "apt": 1822,
      "Ġer": 1823,
      "Ġconditions": 1824,
      "Ġexploring": 1825,
      "Ġregard": 1826,
      "come": 1827,
      "Ġlow": 1828,
      "Ġlittle": 1829,
      "Section": 1830,
      "inary": 1831,
      "anced": 1832,
      "ĠQ": 1833,
      "ĠThrough": 1834,
      ":**": 1835,
      "amp": 1836,
      "Ġhaving": 1837,
      "Ġquestions": 1838,
      "Ġcase": 1839,
      "cient": 1840,
      "To": 1841,
      "pecial": 1842,
      "Ġdeterm": 1843,
      "Ġtype": 1844,
      "Ġpoint": 1845,
      "Ġcr": 1846,
      "ĠCl": 1847,
      "orth": 1848,
      "Ġalways": 1849,
      "Ġsugg": 1850,
      "Ġtri": 1851,
      "Ġeducation": 1852,
      "ĠUnited": 1853,
      "Ġpractices": 1854,
      "Ġfurther": 1855,
      "ĠTe": 1856,
      "oid": 1857,
      "Ġtru": 1858,
      "Ġsay": 1859,
      "Ġfar": 1860,
      "Ġprinci": 1861,
      "Ġnature": 1862,
      "Ġnext": 1863,
      "Ġname": 1864,
      "Ġprevent": 1865,
      "Ġcontinu": 1866,
      "though": 1867,
      "face": 1868,
      "lement": 1869,
      "omes": 1870,
      "Ġblood": 1871,
      "ream": 1872,
      "Ġavailable": 1873,
      "Ġhard": 1874,
      "reci": 1875,
      "ĠSome": 1876,
      "Ġtypes": 1877,
      "Ġcru": 1878,
      "Ġcultural": 1879,
      "ĠPh": 1880,
      "ators": 1881,
      "Ġ[": 1882,
      "Ġrun": 1883,
      "Ġheart": 1884,
      "inking": 1885,
      "Ġreport": 1886,
      "ones": 1887,
      "Ġrece": 1888,
      "Ġpred": 1889,
      "Ġappear": 1890,
      "Ġgroups": 1891,
      "ored": 1892,
      "Ġbegin": 1893,
      "ole": 1894,
      "Ġindust": 1895,
      "Ġlevels": 1896,
      "Ġpossible": 1897,
      "```": 1898,
      "Ġensure": 1899,
      "Ġhistorical": 1900,
      "ires": 1901,
      "of": 1902,
      "Ġvol": 1903,
      "urope": 1904,
      "illed": 1905,
      "ĠBe": 1906,
      "onst": 1907,
      "Ġmill": 1908,
      "Ġtraditional": 1909,
      "Ġcirc": 1910,
      "icult": 1911,
      "elling": 1912,
      "ug": 1913,
      "pts": 1914,
      "Ġinteg": 1915,
      "Ġsometimes": 1916,
      "atch": 1917,
      "ules": 1918,
      "Ġdisease": 1919,
      "Ġemot": 1920,
      "Ġworking": 1921,
      "Ġ0": 1922,
      "ests": 1923,
      "ĠAf": 1924,
      "Ġprop": 1925,
      "'ll": 1926,
      "Ġappreci": 1927,
      "Ġnear": 1928,
      "Ġline": 1929,
      "Ġinstance": 1930,
      "ery": 1931,
      "Ġshare": 1932,
      "ches": 1933,
      "ring": 1934,
      "Ġcost": 1935,
      "isc": 1936,
      "sequ": 1937,
      "ulations": 1938,
      "Ġbir": 1939,
      "Ġwords": 1940,
      "Ġencoura": 1941,
      "Ġunit": 1942,
      "ably": 1943,
      "use": 1944,
      "Ġfasc": 1945,
      "Ġinteract": 1946,
      "10": 1947,
      "ank": 1948,
      "Ġemerg": 1949,
      "plic": 1950,
      "nderstanding": 1951,
      "cap": 1952,
      "nces": 1953,
      "orpor": 1954,
      "utes": 1955,
      "Ġwhether": 1956,
      "ĠInst": 1957,
      "Al": 1958,
      "arl": 1959,
      "ĠGod": 1960,
      "Ġprim": 1961,
      "aches": 1962,
      "Ġproblems": 1963,
      "Ġfund": 1964,
      "Ġmakes": 1965,
      "Ġhead": 1966,
      "ooking": 1967,
      "aries": 1968,
      "emporary": 1969,
      "Ġsing": 1970,
      "Ġmot": 1971,
      "Ġvaluable": 1972,
      "Ġsw": 1973,
      "Ġdig": 1974,
      "Ġenh": 1975,
      "ĠLet": 1976,
      "Ġgr": 1977,
      "Ġfamil": 1978,
      "Ġhig": 1979,
      "ĠEurope": 1980,
      "chie": 1981,
      "Ġaddition": 1982,
      "ended": 1983,
      "Ġparticip": 1984,
      "Ġaway": 1985,
      "fort": 1986,
      "ths": 1987,
      "etic": 1988,
      "ĠUniversity": 1989,
      "Ġsays": 1990,
      "Ġtools": 1991,
      "ik": 1992,
      "Ġcritical": 1993,
      "Ġliving": 1994,
      "Ġhelps": 1995,
      "omm": 1996,
      "Ġneeds": 1997,
      "Ġemp": 1998,
      "Ġfree": 1999,
      "val": 2000,
      "Ġnet": 2001,
      "Ġpie": 2002,
      "erc": 2003,
      "Ġcurrent": 2004,
      "):": 2005,
      "Chapter": 2006,
      "Ġgiven": 2007,
      "Ġteam": 2008,
      "Ġcreating": 2009,
      "Ġscience": 2010,
      "ane": 2011,
      "Ġinnov": 2012,
      "Ġinsp": 2013,
      "ajor": 2014,
      "ints": 2015,
      "Ġlives": 2016,
      "ours": 2017,
      "Ġpercent": 2018,
      "ither": 2019,
      "Ġclose": 2020,
      "ening": 2021,
      "Ġflow": 2022,
      "Ġchanges": 2023,
      "ising": 2024,
      "Ġallows": 2025,
      "gen": 2026,
      "aves": 2027,
      "Ġmusic": 2028,
      "Ġhold": 2029,
      "ging": 2030,
      "aren": 2031,
      "Ġimprove": 2032,
      "An": 2033,
      "avor": 2034,
      "Ġrad": 2035,
      "ĠStates": 2036,
      "sp": 2037,
      "Ġpractice": 2038,
      "roduction": 2039,
      "iver": 2040,
      "ox": 2041,
      "Ġinstead": 2042,
      "###": 2043,
      "Ġassociated": 2044,
      "Ġplant": 2045,
      "ysis": 2046,
      "Ġthought": 2047,
      "Ġmaterials": 2048,
      "thon": 2049,
      "Ġwar": 2050,
      "ĠOn": 2051,
      "ised": 2052,
      "joy": 2053,
      "Ġbook": 2054,
      "aper": 2055,
      "Ġsimple": 2056,
      "pite": 2057,
      "Ġcomes": 2058,
      "Ġsens": 2059,
      "Ġevents": 2060,
      "Ġpost": 2061,
      "Ġconsum": 2062,
      "Ġcrucial": 2063,
      "ales": 2064,
      "Ġground": 2065,
      "Ġbig": 2066,
      "Ġdiverse": 2067,
      "Ġmeet": 2068,
      "ipp": 2069,
      "Ġemploy": 2070,
      "Ġshort": 2071,
      "Im": 2072,
      "Ġactivities": 2073,
      "Ġresearc": 2074,
      "Ġcountry": 2075,
      "Ġcentury": 2076,
      "Ġbuilding": 2077,
      "ator": 2078,
      "Ġgovernment": 2079,
      "Ġproblem": 2080,
      "Ġfour": 2081,
      "chan": 2082,
      "ĠInt": 2083,
      "Ġvalue": 2084,
      "Ġauthor": 2085,
      "Ġfil": 2086,
      "Step": 2087,
      "Ġfactors": 2088,
      "sych": 2089,
      "ĠZ": 2090,
      "aling": 2091,
      "Ġsurround": 2092,
      "ina": 2093,
      "Ġey": 2094,
      "Ġthemselves": 2095,
      "Ġremember": 2096,
      "Ġlater": 2097,
      "Ġgoing": 2098,
      "Ġsitu": 2099,
      "Ġrequire": 2100,
      "Ġage": 2101,
      "Ġsym": 2102,
      "ont": 2103,
      "Ġmodel": 2104,
      "Ġvalues": 2105,
      "oll": 2106,
      "Ġenough": 2107,
      "Ġmethods": 2108,
      "ush": 2109,
      "Ġrather": 2110,
      "aster": 2111,
      "Ġput": 2112,
      "ification": 2113,
      "Ġbecame": 2114,
      "rams": 2115,
      "Ġyet": 2116,
      "Ġmembers": 2117,
      "Ġachie": 2118,
      "Ġexc": 2119,
      "Ġaim": 2120,
      "Ġwind": 2121,
      "icient": 2122,
      "ĠCent": 2123,
      "ĠMed": 2124,
      "Ġresults": 2125,
      "yond": 2126,
      "ĠAll": 2127,
      "Ġonline": 2128,
      "Ġcompon": 2129,
      "Ġelements": 2130,
      "ĠApp": 2131,
      "Ġproject": 2132,
      "inist": 2133,
      "Ġsociety": 2134,
      "Ġphysical": 2135,
      ",âĢĿ": 2136,
      "Ġcause": 2137,
      "Ġfascinating": 2138,
      "Ġlay": 2139,
      "light": 2140,
      "ocu": 2141,
      "Ġjourney": 2142,
      "Ġmanagement": 2143,
      "Ġfig": 2144,
      "wh": 2145,
      "Ġwond": 2146,
      "Ġglobal": 2147,
      "Ġarg": 2148,
      "Ġmen": 2149,
      "ened": 2150,
      "avig": 2151,
      "oney": 2152,
      "Ġanimals": 2153,
      "Ġyourself": 2154,
      "Ġtreatment": 2155,
      "Ġ15": 2156,
      "af": 2157,
      "Ġdetail": 2158,
      "go": 2159,
      "lt": 2160,
      "Ġenjoy": 2161,
      "Ġreflect": 2162,
      "let": 2163,
      "Ġsust": 2164,
      "Ġpopular": 2165,
      "imately": 2166,
      "ee": 2167,
      "Ġmajor": 2168,
      "Ġconcept": 2169,
      "ĠWhile": 2170,
      "overed": 2171,
      "Ġstrategies": 2172,
      "ware": 2173,
      "pecially": 2174,
      "irit": 2175,
      "Ġcommunication": 2176,
      "ohn": 2177,
      "Ġobject": 2178,
      "Ġable": 2179,
      "ises": 2180,
      "One": 2181,
      "Ġlands": 2182,
      "Ġopportunities": 2183,
      "Ġguid": 2184,
      "Ġphot": 2185,
      "Ġcollabor": 2186,
      "Ġgive": 2187,
      "Ġculture": 2188,
      "not": 2189,
      "Ġchapter": 2190,
      "Ġcountries": 2191,
      "**:": 2192,
      "Ġrecord": 2193,
      "Ġfield": 2194,
      "Ġlo": 2195,
      "It": 2196,
      "Ġsuper": 2197,
      "Ġmeaning": 2198,
      "Ġdescrib": 2199,
      "Ġstudies": 2200,
      "Ġcontain": 2201,
      "Ġdifficult": 2202,
      "ged": 2203,
      "mit": 2204,
      "atory": 2205,
      "ios": 2206,
      "duct": 2207,
      "Ġmach": 2208,
      "ured": 2209,
      "ores": 2210,
      "Ġharm": 2211,
      "Ġcust": 2212,
      "Ġincreasing": 2213,
      "ĠAm": 2214,
      "Ġvir": 2215,
      "Ġpatterns": 2216,
      "Ġbeaut": 2217,
      "ĠMay": 2218,
      "atic": 2219,
      "Ġwee": 2220,
      "Ġfull": 2221,
      "Ġnorm": 2222,
      "Ġleft": 2223,
      "aching": 2224,
      "12": 2225,
      "erous": 2226,
      "Ġbal": 2227,
      "Ġ17": 2228,
      "ĠAfric": 2229,
      "Ġoffer": 2230,
      "Ġarch": 2231,
      "reng": 2232,
      "Ġcapt": 2233,
      "ww": 2234,
      "Ġaspects": 2235,
      "Ġincorpor": 2236,
      "ĠâĢĶ": 2237,
      "erence": 2238,
      "lex": 2239,
      "Ġservices": 2240,
      "Ġjo": 2241,
      "ĠDes": 2242,
      "Ġside": 2243,
      "Ġorder": 2244,
      "Ġobserv": 2245,
      "olic": 2246,
      "ann": 2247,
      "Ġarr": 2248,
      "Ġexpress": 2249,
      "Ġresearchers": 2250,
      "Ġnar": 2251,
      "Ġtemper": 2252,
      "ĠShe": 2253,
      "Ġdoct": 2254,
      "Ġnever": 2255,
      "ĠUnderstanding": 2256,
      "ips": 2257,
      "ĠStud": 2258,
      "like": 2259,
      "hern": 2260,
      "Ġplants": 2261,
      "Ġz": 2262,
      "ĠMore": 2263,
      "vious": 2264,
      "Ġanaly": 2265,
      "Ġespecially": 2266,
      "Ġsum": 2267,
      "Ġusually": 2268,
      "Ġreturn": 2269,
      "isions": 2270,
      "izations": 2271,
      "What": 2272,
      "rate": 2273,
      "ĠSy": 2274,
      "Ġ12": 2275,
      "Ġcontemporary": 2276,
      "ĠWorld": 2277,
      "ites": 2278,
      "ctions": 2279,
      "ĠSc": 2280,
      "Ġaccording": 2281,
      "Ġparts": 2282,
      "Ġsure": 2283,
      "Ġimplement": 2284,
      "18": 2285,
      "Ġeth": 2286,
      "Ġsurface": 2287,
      "Ġpolitical": 2288,
      "rel": 2289,
      "Ġexpect": 2290,
      "ivil": 2291,
      "ruction": 2292,
      "Ġhowever": 2293,
      "icle": 2294,
      "Ġquestion": 2295,
      "ĠEm": 2296,
      "Ġlove": 2297,
      "Ġonce": 2298,
      "Ġtransform": 2299,
      "atives": 2300,
      "ĠHist": 2301,
      "Ġprovides": 2302,
      "Ġbeyond": 2303,
      "oon": 2304,
      "Ġevent": 2305,
      "ĠHealth": 2306,
      "urb": 2307,
      "Ġnecessary": 2308,
      "Ġmess": 2309,
      "ĠNational": 2310,
      "augh": 2311,
      "Ġpositive": 2312,
      "ma": 2313,
      "Ġperspect": 2314,
      "Ġenvironmental": 2315,
      "Ġaction": 2316,
      "Ġquick": 2317,
      "ĠCont": 2318,
      "Ġstreng": 2319,
      "Ġbroad": 2320,
      "Ġdom": 2321,
      "Ġtext": 2322,
      "Ġbehavior": 2323,
      "ony": 2324,
      "Ġcomplete": 2325,
      "une": 2326,
      "Ġforms": 2327,
      "ming": 2328,
      "Ġsuggest": 2329,
      "het": 2330,
      "edi": 2331,
      "ologies": 2332,
      "my": 2333,
      "Ġcells": 2334,
      "Ġdam": 2335,
      "ĠWar": 2336,
      "oot": 2337,
      "Ġdemonst": 2338,
      "Ġoverall": 2339,
      "Ġcame": 2340,
      "Ġmom": 2341,
      "Ġengine": 2342,
      "Ġhigher": 2343,
      "cle": 2344,
      "Ġsoft": 2345,
      "Ġmultip": 2346,
      "We": 2347,
      "Ġbar": 2348,
      "Ġimportance": 2349,
      "rict": 2350,
      "Ġcontinue": 2351,
      "Ġsustain": 2352,
      "Ġefforts": 2353,
      "rim": 2354,
      "Ġbrain": 2355,
      "Ġquality": 2356,
      "Ġpromot": 2357,
      "icial": 2358,
      "Ġsun": 2359,
      "Ġsingle": 2360,
      "Ġrange": 2361,
      "Ġcolor": 2362,
      "Ġfa": 2363,
      "Ġleading": 2364,
      "Ġcontext": 2365,
      "pro": 2366,
      "Ġrights": 2367,
      "ze": 2368,
      "aken": 2369,
      "Ġge": 2370,
      "Ġconsist": 2371,
      "Ġscen": 2372,
      "Ġcy": 2373,
      "Ġremain": 2374,
      "alf": 2375,
      "Ġdays": 2376,
      "Ġ16": 2377,
      "Ġdistrib": 2378,
      "Ġfrequ": 2379,
      "Ġcreated": 2380,
      "enn": 2381,
      "more": 2382,
      "Ġdraw": 2383,
      "cies": 2384,
      "sh": 2385,
      "Ġminim": 2386,
      "iation": 2387,
      "ĠMan": 2388,
      "earch": 2389,
      "aving": 2390,
      "Ġneeded": 2391,
      "Ġneg": 2392,
      "inally": 2393,
      "Ġcut": 2394,
      "Ġterm": 2395,
      "oman": 2396,
      "Ġmechan": 2397,
      "ners": 2398,
      "Ġlive": 2399,
      "oday": 2400,
      "erve": 2401,
      "ĠJohn": 2402,
      "Ġcool": 2403,
      "Ġtell": 2404,
      "Ġapproach": 2405,
      "ival": 2406,
      "ilt": 2407,
      "ĠEarth": 2408,
      "ender": 2409,
      "Ġport": 2410,
      "aim": 2411,
      "Ġthera": 2412,
      "How": 2413,
      "Ġcra": 2414,
      "aste": 2415,
      "Ġinsights": 2416,
      "ems": 2417,
      "ĠCons": 2418,
      "Ġrelationships": 2419,
      "ey": 2420,
      "pos": 2421,
      "iment": 2422,
      "Ġbat": 2423,
      "ĠWell": 2424,
      "Ġproduction": 2425,
      "hold": 2426,
      "Ġce": 2427,
      "itud": 2428,
      "Ġred": 2429,
      "eds": 2430,
      "ĠSim": 2431,
      "ley": 2432,
      "ĠGen": 2433,
      "roll": 2434,
      "Ġstat": 2435,
      "Ġmedical": 2436,
      "Ġpressure": 2437,
      "Ġ--": 2438,
      "epend": 2439,
      "For": 2440,
      "Ġvisual": 2441,
      "Ġcomputer": 2442,
      "Ġaud": 2443,
      "igen": 2444,
      "Ġabove": 2445,
      "arents": 2446,
      "fact": 2447,
      "Ġidentify": 2448,
      "arget": 2449,
      "Ġbegan": 2450,
      "Imagine": 2451,
      "Ġentire": 2452,
      "Ġcontribute": 2453,
      "Ġevidence": 2454,
      "Ġbreak": 2455,
      "Ġidea": 2456,
      "Ġsafe": 2457,
      "sw": 2458,
      "Ġsubst": 2459,
      "ĠAfter": 2460,
      "ground": 2461,
      "orks": 2462,
      "Ġcompet": 2463,
      "So": 2464,
      "ĠBl": 2465,
      "Ġeffects": 2466,
      "iol": 2467,
      "ancing": 2468,
      "iet": 2469,
      "Ġvers": 2470,
      "Ġabs": 2471,
      "Ġtravel": 2472,
      "Ġpath": 2473,
      "Ġconnections": 2474,
      "icate": 2475,
      "Ġteac": 2476,
      "iring": 2477,
      "Ġbring": 2478,
      "Ġsat": 2479,
      "ynam": 2480,
      "ler": 2481,
      "Ġdocu": 2482,
      "Ġtaking": 2483,
      "âĢľ": 2484,
      "Ġbehind": 2485,
      "By": 2486,
      "Ġpatients": 2487,
      "Ġseen": 2488,
      "Ġinvolves": 2489,
      "fect": 2490,
      "ends": 2491,
      "ison": 2492,
      "amed": 2493,
      "Ġsympt": 2494,
      "Ġprinciples": 2495,
      "ĠBrit": 2496,
      "Ġattention": 2497,
      "Ġmedic": 2498,
      "based": 2499,
      "eper": 2500,
      "Ġsense": 2501,
      "Ġnut": 2502,
      "ided": 2503,
      "Ġsty": 2504,
      "Ġconce": 2505,
      "care": 2506,
      "ample": 2507,
      "Ġregarding": 2508,
      "lands": 2509,
      "Ġones": 2510,
      "Ġut": 2511,
      "Ġmarket": 2512,
      "Ġnavig": 2513,
      "fs": 2514,
      "phas": 2515,
      "ĠMe": 2516,
      "Ġec": 2517,
      "Ġfem": 2518,
      "Ġmultiple": 2519,
      "know": 2520,
      "ditionally": 2521,
      "50": 2522,
      "Ġdive": 2523,
      "Ġstay": 2524,
      "Con": 2525,
      "Ġanalysis": 2526,
      "Ġpsych": 2527,
      "Ġclear": 2528,
      "Ġcity": 2529,
      "Ġmor": 2530,
      "urs": 2531,
      "Ġexerc": 2532,
      "Ġaltern": 2533,
      "elcome": 2534,
      "ĠUS": 2535,
      "ounter": 2536,
      "rated": 2537,
      "volution": 2538,
      "urity": 2539,
      "leep": 2540,
      "Ġstarted": 2541,
      "isms": 2542,
      "Ġfeatures": 2543,
      "Ġmental": 2544,
      "Ġhumans": 2545,
      "Ġdesigned": 2546,
      "Ġhouse": 2547,
      "ilit": 2548,
      "Ġmatter": 2549,
      "Ġincreased": 2550,
      "Ġideas": 2551,
      "inct": 2552,
      "Ġsmo": 2553,
      "Ġchem": 2554,
      "most": 2555,
      "istance": 2556,
      "Ġshared": 2557,
      "new": 2558,
      "iddle": 2559,
      "Ġoil": 2560,
      "Ġprograms": 2561,
      "ography": 2562,
      "Ġsources": 2563,
      "Ġstru": 2564,
      "ird": 2565,
      "Ġsuff": 2566,
      "ĠYour": 2567,
      "Ġmass": 2568,
      "Ġnational": 2569,
      "Ġheav": 2570,
      "Ġaccount": 2571,
      "alu": 2572,
      "Ġeither": 2573,
      "Ġincrease": 2574,
      "But": 2575,
      "Ġwhole": 2576,
      "Ġeffective": 2577,
      "aily": 2578,
      "Ġtheory": 2579,
      "Ġpriv": 2580,
      "ply": 2581,
      "ulate": 2582,
      "Ġpopulation": 2583,
      "ows": 2584,
      "ĠSu": 2585,
      "emember": 2586,
      "aged": 2587,
      "ĠAmerica": 2588,
      "Ġparticularly": 2589,
      "ancial": 2590,
      "Ġdeeper": 2591,
      "verage": 2592,
      "ĠMar": 2593,
      "Ġreligious": 2594,
      "Ex": 2595,
      "Ġcases": 2596,
      "icro": 2597,
      "osing": 2598,
      "Ġpowerful": 2599,
      "eter": 2600,
      "ĠJust": 2601,
      "pri": 2602,
      "Ġimagine": 2603,
      "Ġdiscover": 2604,
      "hood": 2605,
      "Ġadm": 2606,
      "lo": 2607,
      "pid": 2608,
      "Ġhab": 2609,
      "Ġpaper": 2610,
      "Ġmoney": 2611,
      "Ġcode": 2612,
      "Ġregular": 2613,
      "Ġpolicy": 2614,
      "Ġclimate": 2615,
      "Ġloss": 2616,
      "Ġfavor": 2617,
      "ung": 2618,
      "Ġprocesses": 2619,
      "ott": 2620,
      "Ġdeath": 2621,
      "Ġselect": 2622,
      "Ġcommit": 2623,
      "Ġpict": 2624,
      "Ġdeb": 2625,
      "Ġpref": 2626,
      "hing": 2627,
      "istics": 2628,
      "Ġoffers": 2629,
      "hens": 2630,
      "tt": 2631,
      "Ġled": 2632,
      "Ġsepar": 2633,
      "Ġeverything": 2634,
      "Ġthinking": 2635,
      "Ġwa": 2636,
      "Ġsex": 2637,
      "Ġbooks": 2638,
      "Ġprob": 2639,
      "Ġpub": 2640,
      "ifically": 2641,
      "rug": 2642,
      "Ġoptim": 2643,
      "ĠGerm": 2644,
      "Ġver": 2645,
      "ĠGu": 2646,
      "Ġcancer": 2647,
      "ried": 2648,
      "Ġexact": 2649,
      "cience": 2650,
      "Ġgreater": 2651,
      "Ġtrue": 2652,
      "ura": 2653,
      "Ġtarget": 2654,
      "ask": 2655,
      "Ġproviding": 2656,
      "Ġlower": 2657,
      "ĠRep": 2658,
      "rig": 2659,
      "urch": 2660,
      "ĠTra": 2661,
      "Ġreally": 2662,
      "sc": 2663,
      "Ġface": 2664,
      "ĠCal": 2665,
      "Ġintrodu": 2666,
      "Ġdoing": 2667,
      "Ġ198": 2668,
      "ready": 2669,
      "ule": 2670,
      "'ve": 2671,
      "ĠLe": 2672,
      "vention": 2673,
      "Ġgreen": 2674,
      "Ġsafety": 2675,
      "Ġrelev": 2676,
      "Ġdeg": 2677,
      "Ġability": 2678,
      "ript": 2679,
      "hib": 2680,
      "pes": 2681,
      "Ġgeneral": 2682,
      "ĠEnglish": 2683,
      "Ġbra": 2684,
      "Ġbenefits": 2685,
      "Ġtraining": 2686,
      "ously": 2687,
      "Ġdecision": 2688,
      "Ġperformance": 2689,
      "Ġfarm": 2690,
      "ster": 2691,
      "Ġword": 2692,
      "Ġtook": 2693,
      "pre": 2694,
      "Ġfall": 2695,
      "Ġactivity": 2696,
      "play": 2697,
      "Ġreading": 2698,
      "Ġdigital": 2699,
      "Ġopp": 2700,
      "Ġancient": 2701,
      "ĠDr": 2702,
      "Ġscientists": 2703,
      "elt": 2704,
      "Ġmillion": 2705,
      "ilos": 2706,
      "uth": 2707,
      "Ġproducts": 2708,
      "Ġlandscap": 2709,
      "Ġlearned": 2710,
      "Ġextra": 2711,
      "iar": 2712,
      "Ġadapt": 2713,
      "Ġstates": 2714,
      "Ġregion": 2715,
      "Ġsource": 2716,
      "Ġann": 2717,
      "Ġdest": 2718,
      "Ġreact": 2719,
      "Ġlab": 2720,
      "Ġspirit": 2721,
      "reg": 2722,
      "There": 2723,
      "Ġleast": 2724,
      "Ġterms": 2725,
      "dom": 2726,
      "arent": 2727,
      "Ġappropri": 2728,
      "Ġinvolved": 2729,
      "Ġapplications": 2730,
      "Ġlikely": 2731,
      "Ġsymptoms": 2732,
      "Ġoutside": 2733,
      "Ġleaders": 2734,
      "Ġdynam": 2735,
      "Ġrequires": 2736,
      "ĠX": 2737,
      "Ġgain": 2738,
      "nal": 2739,
      "Ġpay": 2740,
      "Ġprovided": 2741,
      "Ġeconomic": 2742,
      "uel": 2743,
      "Ġproduce": 2744,
      "Ġinside": 2745,
      "Ġaware": 2746,
      "ĠAct": 2747,
      "Ġflu": 2748,
      "ĠGe": 2749,
      "ae": 2750,
      "Ġcharacters": 2751,
      "Ġgrowing": 2752,
      "Ġitself": 2753,
      "--------------------------------": 2754,
      "Ġinitial": 2755,
      "Ġalready": 2756,
      "Ġtakes": 2757,
      "Ġavoid": 2758,
      "Ġprogress": 2759,
      "oles": 2760,
      "Ã©": 2761,
      "Ġsociet": 2762,
      "Ġdaily": 2763,
      "ervation": 2764,
      "Ġmedia": 2765,
      "acks": 2766,
      "oved": 2767,
      "Ġtaken": 2768,
      "Ġdiv": 2769,
      "Ġlibr": 2770,
      "Ġheat": 2771,
      "ops": 2772,
      "ĠAdditionally": 2773,
      "Ġcomponents": 2774,
      "Ġadvent": 2775,
      "Ġschools": 2776,
      "uted": 2777,
      "ĠOver": 2778,
      "ĠIntern": 2779,
      "Ġreve": 2780,
      "Let": 2781,
      "Ġbound": 2782,
      "rast": 2783,
      "Ġshape": 2784,
      "Ġste": 2785,
      "Ġemphas": 2786,
      "arily": 2787,
      "Ġreduce": 2788,
      "__": 2789,
      "ached": 2790,
      "Ġhealthy": 2791,
      "If": 2792,
      "ront": 2793,
      "ched": 2794,
      "med": 2795,
      "Ġrepl": 2796,
      "odies": 2797,
      "ĠCo": 2798,
      "Ġsal": 2799,
      "Ġrecent": 2800,
      "Ġmag": 2801,
      "Ġwide": 2802,
      "Ġfail": 2803,
      "bor": 2804,
      "oint": 2805,
      "nds": 2806,
      "Ġfamilies": 2807,
      "ĠFrom": 2808,
      "Ġfram": 2809,
      "ĠCanad": 2810,
      "Ġargu": 2811,
      "Ġreef": 2812,
      "aced": 2813,
      "Ġreason": 2814,
      "Ġcustom": 2815,
      "Ġwal": 2816,
      "Ġremains": 2817,
      "Ġconcepts": 2818,
      "?\"": 2819,
      "Ġdeveloped": 2820,
      "Ġsurrounding": 2821,
      "Ġwild": 2822,
      "Ġparents": 2823,
      "rect": 2824,
      "Ġsize": 2825,
      "Ġallowing": 2826,
      "rans": 2827,
      "hel": 2828,
      "Ġrelated": 2829,
      "Ġsett": 2830,
      "iful": 2831,
      "ĠDep": 2832,
      "ultural": 2833,
      "rior": 2834,
      "rought": 2835,
      "Ġstructure": 2836,
      "Ġsymb": 2837,
      "lam": 2838,
      "Ġfive": 2839,
      "Ġevalu": 2840,
      "Ġrate": 2841,
      "ĠJew": 2842,
      "Ġdeveloping": 2843,
      "Ġpoints": 2844,
      "Ġstructures": 2845,
      "Ġcele": 2846,
      "igenous": 2847,
      "eed": 2848,
      "Ġwarm": 2849,
      "Ġbecomes": 2850,
      "Ġconvers": 2851,
      "ying": 2852,
      "Ġnumbers": 2853,
      "When": 2854,
      "Ġansw": 2855,
      "ĠPre": 2856,
      "Ġrich": 2857,
      "ĠImagine": 2858,
      "Ġfinancial": 2859,
      "enge": 2860,
      "estern": 2861,
      "Ġstress": 2862,
      "ĠReg": 2863,
      "Ġliterature": 2864,
      "Ġx": 2865,
      "onse": 2866,
      "itle": 2867,
      "Ġdisord": 2868,
      "Ġsteps": 2869,
      "vere": 2870,
      "Ġconflic": 2871,
      "Ġensuring": 2872,
      "way": 2873,
      "Ġstrugg": 2874,
      "ĠToday": 2875,
      "Ġsharing": 2876,
      "Ġmovement": 2877,
      "Ġrules": 2878,
      "Ġassess": 2879,
      "umb": 2880,
      "Ġcompre": 2881,
      "iber": 2882,
      "Ġdiagn": 2883,
      "Ġ|": 2884,
      "ĠNo": 2885,
      "oming": 2886,
      "Ġposition": 2887,
      "oration": 2888,
      "Ġplat": 2889,
      "Ġhalf": 2890,
      "bre": 2891,
      "oes": 2892,
      "ĠMany": 2893,
      "Ġtalk": 2894,
      "ĠSec": 2895,
      "term": 2896,
      "ĠPe": 2897,
      "artment": 2898,
      "adem": 2899,
      "ober": 2900,
      "Ġrou": 2901,
      "ift": 2902,
      "Ġinfluence": 2903,
      "Ġactually": 2904,
      "Ġunc": 2905,
      "Ġearl": 2906,
      "Ġconcerns": 2907,
      "Ġ*": 2908,
      "Ġinternational": 2909,
      "Ġfish": 2910,
      "ounts": 2911,
      "Ġsleep": 2912,
      "Ġlate": 2913,
      "Ġsimply": 2914,
      "Ġfire": 2915,
      "resh": 2916,
      "Ġnovel": 2917,
      "Ġresponsible": 2918,
      "Ġindustry": 2919,
      "Ġ197": 2920,
      "11": 2921,
      "ĠFurther": 2922,
      "amples": 2923,
      "Ġclean": 2924,
      "Ġinvestig": 2925,
      "ĠHis": 2926,
      "ĠâĢĺ": 2927,
      "Ġthreat": 2928,
      "ils": 2929,
      "Ġinstit": 2930,
      "bon": 2931,
      "200": 2932,
      "Ġidentity": 2933,
      "Ġimage": 2934,
      "Ġvisit": 2935,
      "Ġmeasure": 2936,
      "Ġrequired": 2937,
      "overy": 2938,
      "Ġsqu": 2939,
      "Ġconduct": 2940,
      "Ġviol": 2941,
      "ĠNow": 2942,
      "Ġcat": 2943,
      "cious": 2944,
      "mon": 2945,
      "Ġri": 2946,
      "Ġprevious": 2947,
      "rown": 2948,
      "den": 2949,
      "Ġgame": 2950,
      "Ġconclusion": 2951,
      "Ġ14": 2952,
      "ĠResearch": 2953,
      "ields": 2954,
      "Ġnamed": 2955,
      "Ġsea": 2956,
      "Welcome": 2957,
      "Ġsent": 2958,
      "Ġcross": 2959,
      "Ġspread": 2960,
      "Ġprep": 2961,
      "Ġengaging": 2962,
      "Ġdelve": 2963,
      "Ġorganizations": 2964,
      "Ġisn": 2965,
      "Ġestablish": 2966,
      "icles": 2967,
      "Ġshows": 2968,
      "Ġserve": 2969,
      "Ġachieve": 2970,
      "Ġthr": 2971,
      "Ġdoesn": 2972,
      "Ġscientific": 2973,
      "itect": 2974,
      "just": 2975,
      "Ġblack": 2976,
      "Ġdistinct": 2977,
      "Ġslow": 2978,
      "ĠPer": 2979,
      "ĠRec": 2980,
      "AS": 2981,
      "Ġcannot": 2982,
      "Ġsignificantly": 2983,
      "Ġhours": 2984,
      "astic": 2985,
      "Ġnumerous": 2986,
      "iny": 2987,
      "tal": 2988,
      "Ġwritten": 2989,
      "Ġoriginal": 2990,
      ".)": 2991,
      "ai": 2992,
      "Ġlog": 2993,
      "efore": 2994,
      "Ġquickly": 2995,
      "Ġprimary": 2996,
      "wide": 2997,
      "ror": 2998,
      "Ġwhite": 2999,
      "osis": 3000,
      "ĠEach": 3001,
      "uck": 3002,
      "iam": 3003,
      "Ġamount": 3004,
      "idered": 3005,
      "mber": 3006,
      "30": 3007,
      "ourt": 3008,
      "Ġcit": 3009,
      "Ġelse": 3010,
      "anks": 3011,
      "izes": 3012,
      "Ġservice": 3013,
      "Ġjob": 3014,
      "athy": 3015,
      "Ġdrug": 3016,
      "Ġsuccessful": 3017,
      "bo": 3018,
      "ĠSouth": 3019,
      "Ġmonit": 3020,
      "Ġobjects": 3021,
      "Ġbeautiful": 3022,
      "duc": 3023,
      "Ġprote": 3024,
      "Ġtown": 3025,
      "life": 3026,
      "where": 3027,
      "Ġasked": 3028,
      "Ġuses": 3029,
      "Ġindepend": 3030,
      "ĠNorth": 3031,
      "icien": 3032,
      "equ": 3033,
      "Ġsurv": 3034,
      "Ġult": 3035,
      "Ġheard": 3036,
      "Ġcompan": 3037,
      "Ġperfect": 3038,
      "ensive": 3039,
      "haps": 3040,
      "hemat": 3041,
      "Ġfilled": 3042,
      "Ġinstall": 3043,
      "Ġbasic": 3044,
      "Ġcore": 3045,
      "Ġreview": 3046,
      "apan": 3047,
      "Ġincludes": 3048,
      "Ġchallenge": 3049,
      "nection": 3050,
      "inated": 3051,
      "versity": 3052,
      "Ġembra": 3053,
      "ties": 3054,
      "itch": 3055,
      "Ġwin": 3056,
      "Ġbreat": 3057,
      "Ġing": 3058,
      "Ġdone": 3059,
      "Ġevolution": 3060,
      "Ġtrust": 3061,
      "Ġcultures": 3062,
      "Alice": 3063,
      "Ġla": 3064,
      "ĠAb": 3065,
      "ĠHar": 3066,
      "Ġconsidered": 3067,
      "IV": 3068,
      "Ġwood": 3069,
      "Ġbur": 3070,
      "Ġcontinued": 3071,
      "Ġsite": 3072,
      "âĢĵ": 3073,
      "Ġcivil": 3074,
      "ĠPr": 3075,
      "Ġaccept": 3076,
      "Ġskin": 3077,
      "Ġcompared": 3078,
      "rad": 3079,
      "Ġveget": 3080,
      "Ġlines": 3081,
      "Int": 3082,
      "chol": 3083,
      "ĠPart": 3084,
      "Ġago": 3085,
      "ls": 3086,
      "Ġgas": 3087,
      "Ġfeed": 3088,
      "Ġprec": 3089,
      "Ġ30": 3090,
      "Ġdecisions": 3091,
      "Ġbuilt": 3092,
      "ĠHer": 3093,
      "Ġbelieve": 3094,
      "ension": 3095,
      "ĠUs": 3096,
      "Ġtrying": 3097,
      "Ġdecided": 3098,
      "Ġillust": 3099,
      "ese": 3100,
      "Ġplays": 3101,
      "Ġearth": 3102,
      "ades": 3103,
      "Ġvide": 3104,
      "rs": 3105,
      "Ġfostering": 3106,
      "ellow": 3107,
      "su": 3108,
      "ĠComp": 3109,
      "Ġmachine": 3110,
      "//": 3111,
      "Ġund": 3112,
      "Ġcondition": 3113,
      "Ġcolle": 3114,
      "ĠTechn": 3115,
      "ĠAcc": 3116,
      "Ġwriting": 3117,
      "ume": 3118,
      "Ġactive": 3119,
      "Ġweek": 3120,
      "ĠMoreover": 3121,
      "Ġincl": 3122,
      "rating": 3123,
      "head": 3124,
      "Ġfair": 3125,
      "Ġexactly": 3126,
      "Ġrob": 3127,
      "Ġrelative": 3128,
      "ĠArt": 3129,
      "15": 3130,
      "==": 3131,
      "Ġfiction": 3132,
      "Ġartists": 3133,
      "Ġpromote": 3134,
      "illing": 3135,
      "Ġkids": 3136,
      "Ġdifferences": 3137,
      "itable": 3138,
      "NA": 3139,
      "ilarly": 3140,
      "Ġgetting": 3141,
      "17": 3142,
      "Ġthing": 3143,
      "ĠSchool": 3144,
      "Ġneigh": 3145,
      "Ġprojects": 3146,
      "acter": 3147,
      "itary": 3148,
      "Ġcontact": 3149,
      "Ġmaintaining": 3150,
      "encies": 3151,
      "vey": 3152,
      "Ġstandard": 3153,
      "Ġplatform": 3154,
      "ronic": 3155,
      "hy": 3156,
      "Ġmonths": 3157,
      "pret": 3158,
      "Ġadop": 3159,
      "Ġcalc": 3160,
      "itation": 3161,
      "ĠFurthermore": 3162,
      "Ġhands": 3163,
      "Ġbelow": 3164,
      "Ġwebs": 3165,
      "ĠUnit": 3166,
      "Ġchallenging": 3167,
      "ump": 3168,
      "alls": 3169,
      "ĠNe": 3170,
      "Ġestablished": 3171,
      "Ġrefers": 3172,
      "Ġclaim": 3173,
      "Ġfit": 3174,
      "Ġalmost": 3175,
      "Ġrecomm": 3176,
      "ĠState": 3177,
      "Ġresponse": 3178,
      "ĠChristian": 3179,
      "going": 3180,
      "ER": 3181,
      "Ġvo": 3182,
      "Ġsolutions": 3183,
      "16": 3184,
      "ĠAg": 3185,
      "ĠJapan": 3186,
      "Ġperspectives": 3187,
      "13": 3188,
      "Ġreaders": 3189,
      "Ġfru": 3190,
      "Ġrelationship": 3191,
      "aff": 3192,
      "eration": 3193,
      "ĠCar": 3194,
      "Ġphilos": 3195,
      "Ġast": 3196,
      "Ġappl": 3197,
      "Bob": 3198,
      "aly": 3199,
      "ille": 3200,
      "ĠTheir": 3201,
      "etry": 3202,
      "org": 3203,
      "Ġmix": 3204,
      "Ġtraditions": 3205,
      "Ġlessons": 3206,
      "Ġeasy": 3207,
      "ĠYork": 3208,
      "Ġengage": 3209,
      "wise": 3210,
      "Ġcamp": 3211,
      "Ġweight": 3212,
      "Ġ13": 3213,
      "Ġauthors": 3214,
      "ĠWall": 3215,
      "ĠRemember": 3216,
      "Ġinvolve": 3217,
      "Ġrapid": 3218,
      "Ġcelebr": 3219,
      "vest": 3220,
      "Ġsection": 3221,
      "Ġactions": 3222,
      "Ġspecifically": 3223,
      "Ġbalance": 3224,
      "Ġimag": 3225,
      "Ġevol": 3226,
      "Ġeffectively": 3227,
      "Ġtemperature": 3228,
      "Ġimages": 3229,
      "Ġhealthcare": 3230,
      "Ġrefer": 3231,
      "ĠInter": 3232,
      "rench": 3233,
      "inc": 3234,
      "Ġ+": 3235,
      "ĠPy": 3236,
      "Ġlooking": 3237,
      "erson": 3238,
      "uries": 3239,
      "Ġdiet": 3240,
      "reme": 3241,
      "Ġful": 3242,
      "Ġlat": 3243,
      "ĠQu": 3244,
      "plications": 3245,
      "right": 3246,
      "Ġcomfort": 3247,
      "Ġapproaches": 3248,
      "Ġnight": 3249,
      "ĠScience": 3250,
      "Ġcoast": 3251,
      "iciency": 3252,
      "Ġmodels": 3253,
      "Ġcover": 3254,
      "Ġdiscovered": 3255,
      "Ġcaused": 3256,
      "Ġappreciate": 3257,
      "Ġappropriate": 3258,
      "Ġissue": 3259,
      "Ġpatient": 3260,
      "Ġtool": 3261,
      "pping": 3262,
      "Ġarchitect": 3263,
      "urt": 3264,
      "pped": 3265,
      "Ġmemory": 3266,
      "comes": 3267,
      "ĠDevelop": 3268,
      "Ġsoftware": 3269,
      "Ġmagn": 3270,
      "Ġexamples": 3271,
      "Ġseries": 3272,
      "Ġchemical": 3273,
      "Ġpromoting": 3274,
      "Ġstra": 3275,
      "Ġgenerations": 3276,
      "ratives": 3277,
      "ĠBritish": 3278,
      "Ġfresh": 3279,
      "Ġhope": 3280,
      "acc": 3281,
      "Ġcompany": 3282,
      "Ġtechnologies": 3283,
      "ufact": 3284,
      "Ġshaping": 3285,
      "Ġpredict": 3286,
      "Ġadditional": 3287,
      "Ġfavorite": 3288,
      "Ġearlier": 3289,
      "pose": 3290,
      "pper": 3291,
      "ought": 3292,
      "Ġpack": 3293,
      "Ġstudent": 3294,
      "ength": 3295,
      "Ġlegal": 3296,
      "Ġpublished": 3297,
      "Ġofficial": 3298,
      "Ġcop": 3299,
      "Ġcheck": 3300,
      "Ġprofession": 3301,
      "You": 3302,
      "Ġoptions": 3303,
      "Ġintric": 3304,
      "Ġlaws": 3305,
      "Ġpiece": 3306,
      "Ġefficient": 3307,
      "Ġrisks": 3308,
      "set": 3309,
      "erences": 3310,
      "Ġdamage": 3311,
      "ding": 3312,
      "eb": 3313,
      "Ġreach": 3314,
      "Ġindic": 3315,
      "azing": 3316,
      "elines": 3317,
      "ES": 3318,
      "Ġmount": 3319,
      "Ġlif": 3320,
      "idge": 3321,
      "Ġord": 3322,
      "Ġseason": 3323,
      "Ġfunctions": 3324,
      "rew": 3325,
      "ederal": 3326,
      "itude": 3327,
      "At": 3328,
      "Ġquite": 3329,
      "Ġanimal": 3330,
      "ashing": 3331,
      "Ġcam": 3332,
      "itute": 3333,
      "Ġexce": 3334,
      "Ġsoil": 3335,
      "resents": 3336,
      "://": 3337,
      "ĠNot": 3338,
      "Ġlarger": 3339,
      "AC": 3340,
      "ads": 3341,
      "Ġquant": 3342,
      "Have": 3343,
      "ingu": 3344,
      "Ġpoll": 3345,
      "Ġded": 3346,
      "Ġrelevant": 3347,
      "Ġmention": 3348,
      "Ġdetect": 3349,
      "ĠAlthough": 3350,
      "Ġdocument": 3351,
      "Ġplaces": 3352,
      "Ġspeak": 3353,
      "Ġlonger": 3354,
      "Ġdoctor": 3355,
      "Ġhor": 3356,
      "ĠMod": 3357,
      "ĠExpl": 3358,
      "Ġconstruct": 3359,
      "Ġforest": 3360,
      "time": 3361,
      "ĠEuropean": 3362,
      "Ġmis": 3363,
      "Ġforward": 3364,
      "ucle": 3365,
      "Ġadvance": 3366,
      "che": 3367,
      "python": 3368,
      "ok": 3369,
      "oor": 3370,
      "Ġwhose": 3371,
      "ĠKe": 3372,
      "Ġequip": 3373,
      "bit": 3374,
      "Ġi": 3375,
      "Ġlink": 3376,
      "ellig": 3377,
      "Ġsustainable": 3378,
      "Ġask": 3379,
      "ĠAust": 3380,
      "ĠDis": 3381,
      "Ġap": 3382,
      "Ġproced": 3383,
      "Ġfeet": 3384,
      "Ġapplication": 3385,
      "Ġnetwork": 3386,
      "abilities": 3387,
      "Ġvital": 3388,
      "cipl": 3389,
      "Ġfoods": 3390,
      "Ġelectric": 3391,
      "ĠCommun": 3392,
      "Ġsoon": 3393,
      "Ġfundam": 3394,
      "Ġprior": 3395,
      "Conclusion": 3396,
      "uff": 3397,
      "Ġrepresents": 3398,
      "Ġimmedi": 3399,
      "Course": 3400,
      "Ġincred": 3401,
      "Ġexamining": 3402,
      "Ġlimited": 3403,
      "Ġoutcomes": 3404,
      "Ġdespite": 3405,
      "Ġwanted": 3406,
      "Ġrates": 3407,
      "Ġresil": 3408,
      "Ġsix": 3409,
      "ĠFl": 3410,
      "Ġteach": 3411,
      "Ġeyes": 3412,
      "Ġinteresting": 3413,
      "Ġsect": 3414,
      "mental": 3415,
      "Ġagree": 3416,
      "Ġtax": 3417,
      "Ġbrought": 3418,
      "ulated": 3419,
      "Ġplaying": 3420,
      "Ġnarratives": 3421,
      "Ġappe": 3422,
      "gy": 3423,
      "Ġlived": 3424,
      "Ġhon": 3425,
      "Ġsil": 3426,
      "Ġple": 3427,
      "ĠDuring": 3428,
      "Ġpolicies": 3429,
      "Ġnormal": 3430,
      "Ġdevices": 3431,
      "Ġbodies": 3432,
      "Ġgender": 3433,
      "Ġcitiz": 3434,
      "Ġcolon": 3435,
      "Ġir": 3436,
      "inate": 3437,
      "Ġsignificance": 3438,
      "Ġadminist": 3439,
      "zing": 3440,
      "Ġfaith": 3441,
      "Ġdistribution": 3442,
      "mar": 3443,
      "cean": 3444,
      "Ġforce": 3445,
      "Ġtransport": 3446,
      "Ġcorrect": 3447,
      "Ġvirt": 3448,
      "gar": 3449,
      "osure": 3450,
      "ĠFrench": 3451,
      "Ġcontent": 3452,
      "Ġbackground": 3453,
      "Ġsounds": 3454,
      "Ġdial": 3455,
      "Ġroom": 3456,
      "Ġsaw": 3457,
      "\".": 3458,
      "inks": 3459,
      "rial": 3460,
      "iter": 3461,
      "Ġconsequ": 3462,
      "Ġthemes": 3463,
      "Ġattem": 3464,
      "Ġfeelings": 3465,
      "oly": 3466,
      "Ġitems": 3467,
      "Ġsearch": 3468,
      "Ġlanguages": 3469,
      "Ġdetails": 3470,
      "Ġstri": 3471,
      "Ġparam": 3472,
      "Ġfacilit": 3473,
      "Ġtypically": 3474,
      "iforn": 3475,
      "Ġang": 3476,
      "ĠOur": 3477,
      "ief": 3478,
      "Ġconnection": 3479,
      "Ġaverage": 3480,
      "Ġarticle": 3481,
      "Ġcomprehens": 3482,
      "Ġcateg": 3483,
      "Ġdat": 3484,
      "Ġthus": 3485,
      "acity": 3486,
      "Ġmeasures": 3487,
      "Ġiniti": 3488,
      "Ġalg": 3489,
      "Ġaccur": 3490,
      "reed": 3491,
      "ttp": 3492,
      "Ġstar": 3493,
      "Ġresid": 3494,
      "Ġgraph": 3495,
      "AR": 3496,
      "Ġhot": 3497,
      "Ġexamine": 3498,
      "Ġfinding": 3499,
      "Ġsn": 3500,
      "Ġthous": 3501,
      "asks": 3502,
      "imens": 3503,
      "ĠCO": 3504,
      "Ġexcept": 3505,
      "Ġlocation": 3506,
      "Ġmathemat": 3507,
      "Ġfat": 3508,
      "Ġfra": 3509,
      "ĠEduc": 3510,
      "Ġprotection": 3511,
      "Ġwatch": 3512,
      "making": 3513,
      "Ġsac": 3514,
      "Ġfaced": 3515,
      "Ġtotal": 3516,
      "Ġadvanced": 3517,
      "Ġcauses": 3518,
      "Ġetc": 3519,
      "att": 3520,
      "Ġinterpret": 3521,
      "Ġthoughts": 3522,
      "Ġincreasingly": 3523,
      "Ġincorporating": 3524,
      "ulture": 3525,
      "Ġexplain": 3526,
      "Ġgenerally": 3527,
      "oud": 3528,
      "abet": 3529,
      "ĠEast": 3530,
      "Ġep": 3531,
      "asons": 3532,
      "Ġongoing": 3533,
      "ĠPres": 3534,
      "Ġaccom": 3535,
      "Ġchoose": 3536,
      "Ġtable": 3537,
      "Ġnation": 3538,
      "Ġgot": 3539,
      "Ġcreative": 3540,
      "Ġinput": 3541,
      "Ġagric": 3542,
      "Ġinvolving": 3543,
      "Ġmanufact": 3544,
      "Ġdiversity": 3545,
      "Ġschol": 3546,
      "Ġsecurity": 3547,
      "ifornia": 3548,
      "iles": 3549,
      "Ġ11": 3550,
      "Ġ196": 3551,
      "ĠGl": 3552,
      "anging": 3553,
      "Ġtrade": 3554,
      "Ġexpand": 3555,
      "Ġgrad": 3556,
      "Ġexercise": 3557,
      "Ġexch": 3558,
      "Ġdidn": 3559,
      "Ġinj": 3560,
      "Ġmilitary": 3561,
      "ha": 3562,
      "Ġsequ": 3563,
      "Ġincluded": 3564,
      "ĠCenter": 3565,
      "Ġalternative": 3566,
      "And": 3567,
      "Ġdang": 3568,
      "Ġcard": 3569,
      "Ġhar": 3570,
      "Ġexisting": 3571,
      "Ġcollaboration": 3572,
      "Ġbase": 3573,
      "Ġvia": 3574,
      "Ġgoals": 3575,
      "Ġrespond": 3576,
      "cks": 3577,
      "Ġgames": 3578,
      "Ġsolid": 3579,
      "Ġbeliefs": 3580,
      "Ġprofessional": 3581,
      "Ġwent": 3582,
      "Ġdifference": 3583,
      "rong": 3584,
      "Ġadvoc": 3585,
      "Ġbusinesses": 3586,
      "Ġpieces": 3587,
      "uild": 3588,
      "Ġfile": 3589,
      "ounds": 3590,
      "Ġhelping": 3591,
      "iosity": 3592,
      "ĠAfrican": 3593,
      "yl": 3594,
      "Ġfoot": 3595,
      "Ġlot": 3596,
      "Ġgoal": 3597,
      "Ġcarbon": 3598,
      "overn": 3599,
      "Ġtopics": 3600,
      "Ġ194": 3601,
      "ĠCur": 3602,
      "Ġweather": 3603,
      "uman": 3604,
      "Ġadults": 3605,
      "ibilities": 3606,
      "Ġingred": 3607,
      "Ġadded": 3608,
      "son": 3609,
      "Ġfight": 3610,
      "Ġcentral": 3611,
      "axim": 3612,
      "Ġforces": 3613,
      "ager": 3614,
      "Ġtrees": 3615,
      "olec": 3616,
      "back": 3617,
      "Ġ100": 3618,
      "Ġworldwide": 3619,
      "Ġenhance": 3620,
      "Ġphen": 3621,
      "Ġhost": 3622,
      "Ġutil": 3623,
      "Ġgard": 3624,
      "Ġheld": 3625,
      "ĠWill": 3626,
      "Ġpan": 3627,
      "Ġfear": 3628,
      "Ġfelt": 3629,
      "Ġeat": 3630,
      "ĠPar": 3631,
      "osition": 3632,
      "Ġpartners": 3633,
      "Ġ50": 3634,
      "Ġmovements": 3635,
      "works": 3636,
      "Ġusers": 3637,
      "ifying": 3638,
      "ĠHistory": 3639,
      "iance": 3640,
      "Ġseeking": 3641,
      "Ġcenter": 3642,
      "ĠFirst": 3643,
      "Ġawareness": 3644,
      "25": 3645,
      "Ġtree": 3646,
      "lev": 3647,
      "sect": 3648,
      "Ġguide": 3649,
      "Once": 3650,
      "zz": 3651,
      "ĠSm": 3652,
      "Ġcarry": 3653,
      "Ġemotional": 3654,
      "ĠSystem": 3655,
      "Ġmoment": 3656,
      "Ġmut": 3657,
      "irm": 3658,
      "Ġcompanies": 3659,
      "!\"": 3660,
      "14": 3661,
      "Ġdou": 3662,
      "Ġgather": 3663,
      "ĠCath": 3664,
      "ching": 3665,
      "ĠFr": 3666,
      "Ġadvant": 3667,
      "Ġeasily": 3668,
      "Ġhabit": 3669,
      "ĠCalifornia": 3670,
      "Ġbill": 3671,
      "Ġdetermine": 3672,
      "Ġsituation": 3673,
      "Ġsetting": 3674,
      "Ġdog": 3675,
      "ĠDepartment": 3676,
      "Ġpage": 3677,
      "Ġfeature": 3678,
      "Ġaddressing": 3679,
      "Ġsubject": 3680,
      "ev": 3681,
      "Ġcultiv": 3682,
      "Ġ25": 3683,
      "gest": 3684,
      "Ġfields": 3685,
      "ĠFran": 3686,
      "Ġbarri": 3687,
      "ĠSimilarly": 3688,
      "cil": 3689,
      "Ġclin": 3690,
      "Ġproduced": 3691,
      "Ġeducational": 3692,
      "Ġteachers": 3693,
      "eding": 3694,
      "Ġdefin": 3695,
      "Ġinnovative": 3696,
      "Ġsurpr": 3697,
      "ĠProg": 3698,
      "ĠWallace": 3699,
      "onom": 3700,
      "rap": 3701,
      "urg": 3702,
      "Ġstudying": 3703,
      "iveness": 3704,
      "Ġcarefully": 3705,
      "itage": 3706,
      "arian": 3707,
      "Ġmicro": 3708,
      "Ġdemand": 3709,
      "rition": 3710,
      "being": 3711,
      "Ġlibrary": 3712,
      "Ġpossess": 3713,
      "Ġfemale": 3714,
      "iding": 3715,
      "ĠMy": 3716,
      "Ġsolar": 3717,
      "Ġfuel": 3718,
      "Ġourselves": 3719,
      "Ġplanning": 3720,
      "Ġsituations": 3721,
      "xts": 3722,
      "Ġhosp": 3723,
      "Ġ/": 3724,
      "Ġattack": 3725,
      "orith": 3726,
      "Ġclos": 3727,
      "Ġperhaps": 3728,
      "Ġacqu": 3729,
      "Ġder": 3730,
      "Ġequal": 3731,
      "Ġpopulations": 3732,
      "cles": 3733,
      "orthern": 3734,
      "Ġcollection": 3735,
      "Ġdirectly": 3736,
      "aught": 3737,
      "Ġequipment": 3738,
      "ĠOf": 3739,
      "Ġjud": 3740,
      "Ġfoster": 3741,
      "Ġspiritual": 3742,
      "ancy": 3743,
      "ĠEven": 3744,
      "Ġhimself": 3745,
      "Ġemotions": 3746,
      "Ġlandscape": 3747,
      "Ġhear": 3748,
      "Ġbroader": 3749,
      "Ġprofessionals": 3750,
      "IN": 3751,
      "Ġox": 3752,
      "room": 3753,
      "ĠII": 3754,
      "ĠGreat": 3755,
      "Ġnews": 3756,
      "Ġ2008": 3757,
      "Ġminutes": 3758,
      "Ġexpression": 3759,
      "Ġwrite": 3760,
      "iced": 3761,
      "Ġsmaller": 3762,
      "ID": 3763,
      "ĠMus": 3764,
      "orial": 3765,
      "Ġapply": 3766,
      "Ġhighlight": 3767,
      "Ġvideo": 3768,
      "Ġbit": 3769,
      "Ġdry": 3770,
      "Ġdark": 3771,
      "Ġthird": 3772,
      "Ġexec": 3773,
      "hab": 3774,
      "mission": 3775,
      "Ġlack": 3776,
      "Ġsevere": 3777,
      "Ġamazing": 3778,
      "ĠInstead": 3779,
      "Ġmoving": 3780,
      "Ġwonder": 3781,
      "ĠCanada": 3782,
      "ĠDon": 3783,
      "ocks": 3784,
      "Ġpicture": 3785,
      "coh": 3786,
      "Ġworry": 3787,
      "Ġresource": 3788,
      "Ġserious": 3789,
      "Ġalthough": 3790,
      "Ġinfect": 3791,
      "Ġsites": 3792,
      "ether": 3793,
      "eff": 3794,
      "alities": 3795,
      "Ġfront": 3796,
      "ĠHave": 3797,
      "issions": 3798,
      "Ġextreme": 3799,
      "lim": 3800,
      "hem": 3801,
      "Ġcro": 3802,
      "Ġmaybe": 3803,
      "ĠChina": 3804,
      "Ġoperations": 3805,
      "ĠRel": 3806,
      "ino": 3807,
      "Ġwis": 3808,
      "()": 3809,
      "Ġfamous": 3810,
      "Ġcosts": 3811,
      "water": 3812,
      "otic": 3813,
      "Ġexhib": 3814,
      "Ġpreserv": 3815,
      "ĠPython": 3816,
      "Ġcry": 3817,
      "Ġcontroll": 3818,
      "Ġreducing": 3819,
      "Another": 3820,
      "outhern": 3821,
      "ightly": 3822,
      "Ġbecoming": 3823,
      "Ġacadem": 3824,
      "Ġhappens": 3825,
      "Ġlimit": 3826,
      "Ġtail": 3827,
      "ĠTw": 3828,
      "Ġroles": 3829,
      "Ġregions": 3830,
      "ashington": 3831,
      "Ġlabor": 3832,
      "Ġtou": 3833,
      "Ġadjust": 3834,
      "Ġcolors": 3835,
      "Ġbelong": 3836,
      "Ġshown": 3837,
      "Ġfindings": 3838,
      "Ġstandards": 3839,
      "Ġfigure": 3840,
      "Ġintellig": 3841,
      "Ġeye": 3842,
      "Ġrout": 3843,
      "Ġrev": 3844,
      "ĠServ": 3845,
      "exic": 3846,
      "Ġchoices": 3847,
      "Ġstage": 3848,
      "ĠRed": 3849,
      "Ġcommer": 3850,
      "Ġestim": 3851,
      "Ġplanet": 3852,
      "Ġbirds": 3853,
      "Ġfundamental": 3854,
      "Ġphenomen": 3855,
      "eters": 3856,
      "Ġonto": 3857,
      "Ġvariety": 3858,
      "useum": 3859,
      "IS": 3860,
      "Ġswe": 3861,
      "ription": 3862,
      "Ġtexts": 3863,
      "inese": 3864,
      "Ġinfluen": 3865,
      "ndom": 3866,
      "ĠCount": 3867,
      "ĠMon": 3868,
      "Ġnegative": 3869,
      "Ġtherapy": 3870,
      "Ġinterests": 3871,
      "Ġprobably": 3872,
      "tical": 3873,
      "Ġplayed": 3874,
      "undred": 3875,
      "ĠIndian": 3876,
      "Ġcreativity": 3877,
      "idden": 3878,
      "uge": 3879,
      "mosp": 3880,
      "ĠAc": 3881,
      "used": 3882,
      "Ġautom": 3883,
      "Ġfeeling": 3884,
      "Ġappreciation": 3885,
      "Ġphilosoph": 3886,
      "ech": 3887,
      "itution": 3888,
      "Ġpoor": 3889,
      "Ġenvironments": 3890,
      "Ġreality": 3891,
      "ĠPress": 3892,
      "Ġprepar": 3893,
      "Ġjustice": 3894,
      "Ġreceive": 3895,
      "uting": 3896,
      "ĠWest": 3897,
      "pected": 3898,
      "Ġformed": 3899,
      "Ġencourage": 3900,
      "ym": 3901,
      "icated": 3902,
      "Ġalone": 3903,
      "ĠThen": 3904,
      "ĠOther": 3905,
      "formation": 3906,
      "Ġrock": 3907,
      "Ġchanging": 3908,
      "On": 3909,
      "Ġconver": 3910,
      "ĠId": 3911,
      "rices": 3912,
      "Ġanything": 3913,
      "ned": 3914,
      "Ġcred": 3915,
      "ĠEd": 3916,
      "ĠChar": 3917,
      "Ġcapital": 3918,
      "Ġwat": 3919,
      "ana": 3920,
      "Ġexperiment": 3921,
      "Ġspaces": 3922,
      "Ġresilience": 3923,
      "Ġcitizens": 3924,
      "Ġselection": 3925,
      "Ġmiles": 3926,
      "Ġten": 3927,
      "Ġden": 3928,
      "Ġsports": 3929,
      "iers": 3930,
      "ula": 3931,
      "Ġvast": 3932,
      "ĠJu": 3933,
      "Ġtechnique": 3934,
      "Ġinformed": 3935,
      "Ġproperties": 3936,
      "alle": 3937,
      "orical": 3938,
      "usive": 3939,
      "Ġpeace": 3940,
      "appy": 3941,
      "Ġhelped": 3942,
      "Ġremind": 3943,
      "Ġbenefit": 3944,
      "Ġdisplay": 3945,
      "onds": 3946,
      "Ġtiss": 3947,
      "reet": 3948,
      "uses": 3949,
      "osy": 3950,
      "Ġoffering": 3951,
      "Ġempathy": 3952,
      "Ġmaxim": 3953,
      "Ġgenetic": 3954,
      "Ġlocated": 3955,
      "urban": 3956,
      "Ġtap": 3957,
      "ĠOff": 3958,
      "Ġincredible": 3959,
      "Ġtests": 3960,
      "Ġfinal": 3961,
      "Ġmiddle": 3962,
      "Ġteaching": 3963,
      "force": 3964,
      "Ġmother": 3965,
      "Ġdiscussions": 3966,
      "fer": 3967,
      "ĠEl": 3968,
      "Ġ24": 3969,
      "Ġinstru": 3970,
      "Ġcapacity": 3971,
      "Ġ2011": 3972,
      "Ġproperty": 3973,
      "Ġtasks": 3974,
      "ometimes": 3975,
      "rael": 3976,
      "Ġorganization": 3977,
      "Ġresulting": 3978,
      "Ġclosely": 3979,
      "Ġlength": 3980,
      "ĠAfrica": 3981,
      "Ġnucle": 3982,
      "ĠTrans": 3983,
      "ĠMr": 3984,
      "ternal": 3985,
      "Ġ2009": 3986,
      "airs": 3987,
      "Ġaimed": 3988,
      "Ġsettings": 3989,
      "Ġwaste": 3990,
      "rupt": 3991,
      "Ġworked": 3992,
      "Ġexposure": 3993,
      "Ġcapable": 3994,
      "Ġdescribed": 3995,
      "Ġvict": 3996,
      "Ġtim": 3997,
      "Ġ2012": 3998,
      "known": 3999,
      "Ġalgorith": 4000,
      "He": 4001,
      "antly": 4002,
      "Ġcounter": 4003,
      "AT": 4004,
      "Ġleaves": 4005,
      "Ġrecently": 4006,
      "Ġturned": 4007,
      "ĠWashington": 4008,
      "Ġmolec": 4009,
      "resp": 4010,
      "Ġshall": 4011,
      "Un": 4012,
      "iable": 4013,
      "Ġgoes": 4014,
      "Ġcoral": 4015,
      "Ġimproved": 4016,
      "Ġsocietal": 4017,
      "ĠGree": 4018,
      "Ġegg": 4019,
      "rief": 4020,
      "Ġgets": 4021,
      "Ġreduced": 4022,
      "Ġreported": 4023,
      "Ġscenar": 4024,
      "ĠAlex": 4025,
      "ĠJour": 4026,
      "Ġcuriosity": 4027,
      "Introduction": 4028,
      "Ġtend": 4029,
      "Ġhous": 4030,
      "raft": 4031,
      "Ġeffort": 4032,
      "Ġ2010": 4033,
      "Ġmedicine": 4034,
      "Ġsexual": 4035,
      "Ġpen": 4036,
      "amb": 4037,
      "These": 4038,
      "Ġframew": 4039,
      "ira": 4040,
      "icip": 4041,
      "ĠGra": 4042,
      "Ġregional": 4043,
      "Ġsmooth": 4044,
      "ĠMexic": 4045,
      "Ġeating": 4046,
      "ĠInc": 4047,
      "ĠSoci": 4048,
      "ourage": 4049,
      "Ġfast": 4050,
      "ĠConf": 4051,
      "Ġhyp": 4052,
      "ĠGerman": 4053,
      "Ġadventure": 4054,
      "Ġintricate": 4055,
      "Ġaren": 4056,
      "udd": 4057,
      "Ġseems": 4058,
      "ĠJewish": 4059,
      "Ġrise": 4060,
      "ĠAmericans": 4061,
      "rote": 4062,
      "Ġcharacteristics": 4063,
      "ĠMat": 4064,
      "ky": 4065,
      "Ġstore": 4066,
      "Ġice": 4067,
      "Ġju": 4068,
      "Ġserves": 4069,
      "Ġreceived": 4070,
      "Ġprivate": 4071,
      "Ġtold": 4072,
      "Ġreci": 4073,
      "Ġdevice": 4074,
      "Ġreligion": 4075,
      "onic": 4076,
      "amin": 4077,
      "ologists": 4078,
      "ĠChinese": 4079,
      "Ġfigures": 4080,
      "Ġmentioned": 4081,
      "ingly": 4082,
      "Ġmid": 4083,
      "amil": 4084,
      "ibly": 4085,
      "Ġcircum": 4086,
      "abetes": 4087,
      "Ġbad": 4088,
      "Ġlost": 4089,
      "ĠIts": 4090,
      "ĠLear": 4091,
      "Ġhyd": 4092,
      "Ġanswer": 4093,
      "lation": 4094,
      "ĠThink": 4095,
      "Ġunf": 4096,
      "Ġupd": 4097,
      "odes": 4098,
      "Ġcausing": 4099,
      "Ġdead": 4100,
      "Ġensures": 4101,
      "While": 4102,
      "Ġtesting": 4103,
      "rical": 4104,
      "Ġdiseases": 4105,
      "wards": 4106,
      "ĠIsrael": 4107,
      "ĠPol": 4108,
      "ĠOnce": 4109,
      "Ġobtain": 4110,
      "Ġfollowed": 4111,
      "Ġaffected": 4112,
      "Ġbehavi": 4113,
      "Ġhundred": 4114,
      "akers": 4115,
      "ĠAustral": 4116,
      "ON": 4117,
      "Ġbox": 4118,
      "Ġsold": 4119,
      "Ġuser": 4120,
      "Ġplot": 4121,
      "Ġcommand": 4122,
      "Ġfreed": 4123,
      "rative": 4124,
      "Ġatmosp": 4125,
      "Ġmessage": 4126,
      "Ġmanage": 4127,
      "Ġrain": 4128,
      "Ġcreation": 4129,
      "Ġexpert": 4130,
      "ĠRuss": 4131,
      "ogue": 4132,
      "Ġdistance": 4133,
      "gery": 4134,
      "Ġhom": 4135,
      "Ġenab": 4136,
      "ĠJes": 4137,
      "Ġexperienced": 4138,
      "orough": 4139,
      "Ġmere": 4140,
      "ventions": 4141,
      "Ġnavigate": 4142,
      "ĠPeople": 4143,
      "Before": 4144,
      "Ġcou": 4145,
      "Ġtrack": 4146,
      "ĠIndia": 4147,
      "ĠCatholic": 4148,
      "Here": 4149,
      "Ġpow": 4150,
      "Ġanyone": 4151,
      "Ġsupply": 4152,
      "Ġrequirements": 4153,
      "Ġbott": 4154,
      "Ġrace": 4155,
      "Ġconcent": 4156,
      "Ġveh": 4157,
      "www": 4158,
      "Ġready": 4159,
      "Ġpassed": 4160,
      "can": 4161,
      "ĠInternational": 4162,
      "With": 4163,
      "aul": 4164,
      "bal": 4165,
      "ĠOct": 4166,
      "Ġpurpose": 4167,
      "Ġopportunity": 4168,
      "IC": 4169,
      "Ġcook": 4170,
      "anish": 4171,
      "Ġgiving": 4172,
      "ĠDo": 4173,
      "Ġoutput": 4174,
      "anu": 4175,
      "Ġbeginning": 4176,
      "Ġingredients": 4177,
      "co": 4178,
      "Ġenable": 4179,
      "ĠKing": 4180,
      "Ġinstitutions": 4181,
      "Ġconsequences": 4182,
      "ĠSar": 4183,
      "Ġfocused": 4184,
      "Ġfrequently": 4185,
      "gypt": 4186,
      "AN": 4187,
      "Ġvary": 4188,
      "ĠChurch": 4189,
      "Ġtruth": 4190,
      "ĠAccording": 4191,
      "rees": 4192,
      "Ġplatforms": 4193,
      "Â°": 4194,
      "Ġrule": 4195,
      "Ġenter": 4196,
      "ĠArch": 4197,
      "Ġolder": 4198,
      "Ġinnovation": 4199,
      "Ġiron": 4200,
      "icious": 4201,
      "ecause": 4202,
      "Ġstyle": 4203,
      "Ġexcess": 4204,
      "sec": 4205,
      "Ġvibr": 4206,
      "Ġcontains": 4207,
      "Ġrecords": 4208,
      "Ġuseful": 4209,
      "Ġcareful": 4210,
      "ĠConsider": 4211,
      "atur": 4212,
      "Ġpractical": 4213,
      "comp": 4214,
      "Ġhol": 4215,
      "Ġnearly": 4216,
      "Ġapprox": 4217,
      "Ġboundaries": 4218,
      "Ġwon": 4219,
      "ogether": 4220,
      "Ġbirth": 4221,
      "Ġdream": 4222,
      "ĠEducation": 4223,
      "win": 4224,
      "Ġconnected": 4225,
      "Ġcand": 4226,
      "ĠCre": 4227,
      "Ġknows": 4228,
      "Ġexploration": 4229,
      "Ġ40": 4230,
      "Ġethical": 4231,
      "ellect": 4232,
      "---": 4233,
      "Ġscreen": 4234,
      "Ġkeeping": 4235,
      "Ġsand": 4236,
      "Ġpu": 4237,
      "omb": 4238,
      "rog": 4239,
      "Ġlies": 4240,
      "Ġvill": 4241,
      "Ġsolution": 4242,
      "na": 4243,
      "Ġbab": 4244,
      "Ġborn": 4245,
      "ĠPat": 4246,
      "estic": 4247,
      "Ġblue": 4248,
      "First": 4249,
      "ius": 4250,
      "Ġsouth": 4251,
      "ulating": 4252,
      "Ġnothing": 4253,
      "rates": 4254,
      "Ġurban": 4255,
      "rix": 4256,
      "Ġspeed": 4257,
      "Ġstarting": 4258,
      "oses": 4259,
      "asts": 4260,
      "ĠAssoci": 4261,
      "Ġprocessing": 4262,
      "Ġwebsite": 4263,
      "nam": 4264,
      "ĠPract": 4265,
      "Ġspect": 4266,
      "Ġroot": 4267,
      "Ġdecre": 4268,
      "Ġillness": 4269,
      "Ġultimately": 4270,
      "cohol": 4271,
      "osa": 4272,
      "ĠHere": 4273,
      "ĠEngland": 4274,
      "Ġcollective": 4275,
      "iration": 4276,
      "Ġanx": 4277,
      "aint": 4278,
      "ensity": 4279,
      "Ġsigns": 4280,
      "ĠEgypt": 4281,
      "Ġplans": 4282,
      "Ġcold": 4283,
      "ĠChild": 4284,
      "Ġstream": 4285,
      "esty": 4286,
      "Ġassum": 4287,
      "osen": 4288,
      "Ġdiscrim": 4289,
      "Ġguidance": 4290,
      "Ġheight": 4291,
      "Ġcourt": 4292,
      "ĠBoth": 4293,
      "ĠHigh": 4294,
      "Ġallowed": 4295,
      "Ġeasier": 4296,
      "Ġfully": 4297,
      "iant": 4298,
      "ĠHappy": 4299,
      "place": 4300,
      "ias": 4301,
      "Ġsou": 4302,
      "Ġwrong": 4303,
      "Ġunivers": 4304,
      "Ġhighly": 4305,
      "Ġstrengt": 4306,
      "bl": 4307,
      "Ġattrib": 4308,
      "sequently": 4309,
      "Ġstrength": 4310,
      "Ġreveal": 4311,
      "Ġthousands": 4312,
      "ris": 4313,
      "Ġtiny": 4314,
      "Ġdepending": 4315,
      "Ġseparate": 4316,
      "\",": 4317,
      "ĠDef": 4318,
      "ĠRiver": 4319,
      "Ġadding": 4320,
      "Ġfamiliar": 4321,
      "inent": 4322,
      "Ġfederal": 4323,
      "icing": 4324,
      "Ġhttp": 4325,
      "Ġtherefore": 4326,
      "Ġresponsibility": 4327,
      "Ġsummer": 4328,
      "Ġapplied": 4329,
      "ball": 4330,
      "Ġbacter": 4331,
      "amm": 4332,
      "ognitive": 4333,
      "Ġrepe": 4334,
      "Ġattract": 4335,
      "Ġrepresentation": 4336,
      "Ġsatis": 4337,
      "Ġdynamics": 4338,
      "Ġhomes": 4339,
      "abric": 4340,
      "tered": 4341,
      "ĠUnion": 4342,
      "Ġcontinues": 4343,
      "Ġbelieved": 4344,
      "Ġtrends": 4345,
      "Ġprotein": 4346,
      "Ġgir": 4347,
      "Ġstop": 4348,
      "Ġsugar": 4349,
      "Ġrecognize": 4350,
      "see": 4351,
      "Ġengagement": 4352,
      "rie": 4353,
      "ero": 4354,
      "Ġfather": 4355,
      "ĠInstitute": 4356,
      "Ġguidelines": 4357,
      "ĠJesus": 4358,
      "Ġpray": 4359,
      "asp": 4360,
      "Ġleave": 4361,
      "ĠProt": 4362,
      "Ġmonth": 4363,
      "Ġpotentially": 4364,
      "ken": 4365,
      "Ġeast": 4366,
      "Ġresistance": 4367,
      "Ġmotion": 4368,
      "osystem": 4369,
      "antic": 4370,
      "ĠRead": 4371,
      "Ġeventually": 4372,
      "ĠKeep": 4373,
      "Ġnative": 4374,
      "ĠVir": 4375,
      "ĠWilliam": 4376,
      "men": 4377,
      "ceed": 4378,
      "ĠUse": 4379,
      "ĠWho": 4380,
      "Ġhappen": 4381,
      "Ġengineering": 4382,
      "ĠMost": 4383,
      "Ġcontrast": 4384,
      "Ġscale": 4385,
      "Ġsave": 4386,
      "Ġcoord": 4387,
      "Ġrunning": 4388,
      "ĠIntroduction": 4389,
      "Ġreasons": 4390,
      "Ġworth": 4391,
      "Ġrare": 4392,
      "Ġdiscussion": 4393,
      "Ġmeeting": 4394,
      "pan": 4395,
      "ĠAnt": 4396,
      "esson": 4397,
      "Ġcoming": 4398,
      "Ġweak": 4399,
      "Ġburn": 4400,
      "Ġmember": 4401,
      "Ġgold": 4402,
      "Ġwasn": 4403,
      "Ġunex": 4404,
      "Through": 4405,
      "Ġteacher": 4406,
      "Ġcommercial": 4407,
      "Ad": 4408,
      "Ġloved": 4409,
      "ĠAre": 4410,
      "Ġassign": 4411,
      "Ġwrote": 4412,
      "Ġremark": 4413,
      "Ġcloser": 4414,
      "gment": 4415,
      "Ġnorth": 4416,
      "uilding": 4417,
      "ĠEnviron": 4418,
      "Ġattempt": 4419,
      "Ġatoll": 4420,
      "Ġpoly": 4421,
      "icians": 4422,
      "Ġhidden": 4423,
      "Ġindigenous": 4424,
      "Ġamid": 4425,
      "Ġnetworks": 4426,
      "board": 4427,
      "iverse": 4428,
      "inations": 4429,
      "ĠSur": 4430,
      "ĠDisc": 4431,
      "Ġprint": 4432,
      "Ġexperim": 4433,
      "Ġpresented": 4434,
      "Ġlooked": 4435,
      "Ġforeign": 4436,
      "tery": 4437,
      "ĠWrit": 4438,
      "Ġenables": 4439,
      "ĠRef": 4440,
      "ĠLat": 4441,
      "Ġmanaging": 4442,
      "oe": 4443,
      "ued": 4444,
      "herent": 4445,
      "Ġmale": 4446,
      "ĠWestern": 4447,
      "ords": 4448,
      "Ġmig": 4449,
      "Ġalign": 4450,
      "Ġemail": 4451,
      "Ġsets": 4452,
      "Ġoccurs": 4453,
      "Ġtrib": 4454,
      "Ġfant": 4455,
      "Ġpurch": 4456,
      "Ġtruly": 4457,
      "era": 4458,
      "urance": 4459,
      "Ġparty": 4460,
      "Ġprimarily": 4461,
      "ĠGovern": 4462,
      "Ġcompar": 4463,
      "ructure": 4464,
      "Ġcenturies": 4465,
      "Ġinternal": 4466,
      "Ġflex": 4467,
      "Ġinstruct": 4468,
      "ares": 4469,
      "edia": 4470,
      "rence": 4471,
      "Ġseek": 4472,
      "Ġdepend": 4473,
      "Ġstatus": 4474,
      "aign": 4475,
      "Ġleaving": 4476,
      "ĠDec": 4477,
      "Ġcontract": 4478,
      "Ġassist": 4479,
      "Ġstrategy": 4480,
      "Ġreefs": 4481,
      ");": 4482,
      "Ġperiods": 4483,
      "Ġdrawing": 4484,
      "Ġcircumst": 4485,
      "ded": 4486,
      "ees": 4487,
      "Ġshif": 4488,
      "Ġradiation": 4489,
      "uk": 4490,
      "leg": 4491,
      "Ġkn": 4492,
      "Ġrandom": 4493,
      "Ġmessages": 4494,
      "Ġconflict": 4495,
      "iled": 4496,
      "ressive": 4497,
      "Ġglass": 4498,
      "ĠSociety": 4499,
      "gn": 4500,
      "Ġrein": 4501,
      "Ġresolution": 4502,
      "Ġdecl": 4503,
      "Ġgenerate": 4504,
      "while": 4505,
      "Ġscholars": 4506,
      "Ġdivid": 4507,
      "Ġgained": 4508,
      "Ġrot": 4509,
      "Ġbuy": 4510,
      "ta": 4511,
      "ĠLaw": 4512,
      "hetic": 4513,
      "ĠDav": 4514,
      "Ġexplained": 4515,
      "Ġmeaningful": 4516,
      "Ġwisdom": 4517,
      "asion": 4518,
      "ĠSol": 4519,
      "Ġparties": 4520,
      "ĠGo": 4521,
      "Ġalongside": 4522,
      "Ġcomputers": 4523,
      "Ġappears": 4524,
      "Ġexciting": 4525,
      "Ġweeks": 4526,
      "Ġabsor": 4527,
      "house": 4528,
      "Ġmiss": 4529,
      "Ġnames": 4530,
      "ĠSam": 4531,
      "Ġdefined": 4532,
      "Ġheavy": 4533,
      "Ġcooking": 4534,
      "ĠAug": 4535,
      "ĠBar": 4536,
      "unch": 4537,
      "Ġcompletely": 4538,
      "enty": 4539,
      "Ġknew": 4540,
      "Ġnoise": 4541,
      "Ġdemoc": 4542,
      "rich": 4543,
      "ĠBi": 4544,
      "ogen": 4545,
      "Ġconservation": 4546,
      "hent": 4547,
      "iling": 4548,
      "Ġcurious": 4549,
      "Ġimpacts": 4550,
      "ean": 4551,
      "enth": 4552,
      "Ġchance": 4553,
      "Ġcaptiv": 4554,
      "rant": 4555,
      "etric": 4556,
      "Ġintellect": 4557,
      "ĠUsing": 4558,
      "Finally": 4559,
      "Ġnp": 4560,
      "Ġroll": 4561,
      "Ġimproving": 4562,
      "Ġsess": 4563,
      "Ġpul": 4564,
      "Ġball": 4565,
      "Ġbeg": 4566,
      "Ġblock": 4567,
      "Ġrealm": 4568,
      "Ġsuppl": 4569,
      "PA": 4570,
      "ĠThus": 4571,
      "Ġvision": 4572,
      "ĠSee": 4573,
      "irection": 4574,
      "Ġconsumption": 4575,
      "However": 4576,
      "Ġembracing": 4577,
      "Ġmission": 4578,
      "Ġliqu": 4579,
      "Ġbuildings": 4580,
      "Ġsong": 4581,
      "ĠSince": 4582,
      "Ġsecure": 4583,
      "Ġecosystem": 4584,
      "40": 4585,
      "ister": 4586,
      "Ġcreatures": 4587,
      "Ġliterary": 4588,
      "mitted": 4589,
      "cest": 4590,
      "ĠTy": 4591,
      "othes": 4592,
      "ĠSw": 4593,
      "Ġvul": 4594,
      "ĠBra": 4595,
      "Ġactual": 4596,
      "rows": 4597,
      "Ġsupporting": 4598,
      "Ġconstruction": 4599,
      "Ġpros": 4600,
      "Ġalike": 4601,
      "Ġprice": 4602,
      "Ġsuggests": 4603,
      "Ġmechanisms": 4604,
      "year": 4605,
      "Ġcities": 4606,
      "Ġdram": 4607,
      "Ġgives": 4608,
      "Ġisland": 4609,
      "ĠDay": 4610,
      "Ġacademic": 4611,
      "22": 4612,
      "Ġweb": 4613,
      "Ġopin": 4614,
      "Ġoccup": 4615,
      "Ġdisorders": 4616,
      "OR": 4617,
      "Ġfabric": 4618,
      "Ġformer": 4619,
      "acing": 4620,
      "Ġconsid": 4621,
      "Ġworkers": 4622,
      "199": 4623,
      "ĠEnc": 4624,
      "raw": 4625,
      "ams": 4626,
      "Ġdeeply": 4627,
      "related": 4628,
      "inn": 4629,
      "icism": 4630,
      "Ġletters": 4631,
      "iety": 4632,
      "ara": 4633,
      "ĠTim": 4634,
      "Ġknowing": 4635,
      "ĠProf": 4636,
      "Ġbran": 4637,
      "ratic": 4638,
      "Ġinteractions": 4639,
      "Ġparticipants": 4640,
      "aid": 4641,
      "oke": 4642,
      "Ġmer": 4643,
      "Ġislands": 4644,
      "Ġchann": 4645,
      "pril": 4646,
      "Ġemerging": 4647,
      "Ġprepared": 4648,
      "Ġdiscipl": 4649,
      "Ġnote": 4650,
      "Ġcloth": 4651,
      "Ġacknow": 4652,
      "ventional": 4653,
      "Ġgrand": 4654,
      "Ġwoman": 4655,
      "Ġhun": 4656,
      "Ġterrit": 4657,
      "Ġinspired": 4658,
      "Ġcutting": 4659,
      "Des": 4660,
      "Ġimplications": 4661,
      "ĠIdent": 4662,
      "III": 4663,
      "ED": 4664,
      "ĠSometimes": 4665,
      "ama": 4666,
      "Ġplaced": 4667,
      "Ġletter": 4668,
      "Ġcorresp": 4669,
      "ĠMedic": 4670,
      "Ph": 4671,
      "Ġsav": 4672,
      "olute": 4673,
      "ĠAng": 4674,
      "asting": 4675,
      "Ġheritage": 4676,
      "Ġcouldn": 4677,
      "Ġhappened": 4678,
      "Ġpaint": 4679,
      "Ġrecommend": 4680,
      "Ġexchange": 4681,
      "ented": 4682,
      "semb": 4683,
      "ultane": 4684,
      "ishing": 4685,
      "Ġdisorder": 4686,
      "Ġunexpected": 4687,
      "Ġnu": 4688,
      "istry": 4689,
      "ĠMark": 4690,
      "anuary": 4691,
      "ĠCong": 4692,
      "ago": 4693,
      "unately": 4694,
      "Ġextract": 4695,
      "ĠAdd": 4696,
      "Ġchoice": 4697,
      ".'": 4698,
      "uing": 4699,
      "oty": 4700,
      "ĠPal": 4701,
      "Ġfoundation": 4702,
      "Ġidentified": 4703,
      "Ġnutrition": 4704,
      "Ġocean": 4705,
      "ĠSan": 4706,
      "ĠCity": 4707,
      "Ġdiabetes": 4708,
      "ĠAss": 4709,
      "Ġgeneration": 4710,
      "ĠSept": 4711,
      "ĠAmong": 4712,
      "Ġfreedom": 4713,
      "ML": 4714,
      "orge": 4715,
      "ĠSuch": 4716,
      "ĠMarch": 4717,
      "Ġslightly": 4718,
      "Ġpolitics": 4719,
      "Ġpet": 4720,
      "Ġisol": 4721,
      "assion": 4722,
      "Ġefficiency": 4723,
      "Ġsecret": 4724,
      "Ġdesigns": 4725,
      "Ġmatters": 4726,
      "Ġlayer": 4727,
      "Ġbud": 4728,
      "Ġroots": 4729,
      "Ġshowed": 4730,
      "Ġmob": 4731,
      "Ġnotable": 4732,
      "Ġserved": 4733,
      "Ġchanged": 4734,
      "Ġ...": 4735,
      "Ġrevolution": 4736,
      "que": 4737,
      "acific": 4738,
      "ographic": 4739,
      "Ġanti": 4740,
      "',": 4741,
      "cers": 4742,
      "Ġwit": 4743,
      "ĠCor": 4744,
      "Ġsurgery": 4745,
      "ĠDesign": 4746,
      "Ġwinter": 4747,
      "Ġbehaviors": 4748,
      "faces": 4749,
      "Ġfert": 4750,
      "Ġdate": 4751,
      "ĠLife": 4752,
      "Ġreports": 4753,
      "ipped": 4754,
      "rust": 4755,
      "Ġur": 4756,
      "Ġbul": 4757,
      "Ġarray": 4758,
      "ĠJune": 4759,
      "Ġmanip": 4760,
      "Ġaccurate": 4761,
      "Lesson": 4762,
      "Ġtum": 4763,
      "Ġprofound": 4764,
      "Ġclearly": 4765,
      "Ġencourages": 4766,
      "Ġstyles": 4767,
      "Ġexcell": 4768,
      "],": 4769,
      "alt": 4770,
      "Ġspent": 4771,
      "Ġabilities": 4772,
      "Ġunderlying": 4773,
      "Ġrealized": 4774,
      "Ġlayers": 4775,
      "ĠDespite": 4776,
      "Ġviolence": 4777,
      "Ġtour": 4778,
      "Ġwaves": 4779,
      "ĠWhy": 4780,
      "Ġbeauty": 4781,
      "Ġriver": 4782,
      "cking": 4783,
      "ĠPublic": 4784,
      "ovember": 4785,
      "Ġenhancing": 4786,
      "Ġintroduced": 4787,
      "Ġnuclear": 4788,
      "telling": 4789,
      "Ġnations": 4790,
      "ĠWeb": 4791,
      "Ġpresence": 4792,
      "oyal": 4793,
      "Ġelement": 4794,
      "poses": 4795,
      "Ġmap": 4796,
      "Ġexternal": 4797,
      "key": 4798,
      "Ġmetal": 4799,
      "Ġpursu": 4800,
      "Ġperspective": 4801,
      "itor": 4802,
      "Ġmist": 4803,
      "Ġdedicated": 4804,
      "Ġvulner": 4805,
      "book": 4806,
      "ny": 4807,
      "Ġthick": 4808,
      "ĠMc": 4809,
      "Ġtrig": 4810,
      "tee": 4811,
      "Ġsmart": 4812,
      "Why": 4813,
      "Ġmonitoring": 4814,
      "ĠDirect": 4815,
      "ĠUp": 4816,
      "Ġelev": 4817,
      "IT": 4818,
      "off": 4819,
      "Ġmo": 4820,
      "Ġvegetables": 4821,
      "ford": 4822,
      "Ġ\\": 4823,
      "alk": 4824,
      "orage": 4825,
      "Ġfix": 4826,
      "Ġeight": 4827,
      "ĠSer": 4828,
      "iences": 4829,
      "ĠOctober": 4830,
      "Is": 4831,
      "ĠBo": 4832,
      "Ġfactor": 4833,
      "Ġprogramming": 4834,
      "load": 4835,
      "ĠPresident": 4836,
      "80": 4837,
      "dden": 4838,
      "rogen": 4839,
      "Ġ21": 4840,
      "Ġcoop": 4841,
      "Ġspeech": 4842,
      "Ġround": 4843,
      "hest": 4844,
      "Ġsem": 4845,
      "Ġmotiv": 4846,
      "Ġpick": 4847,
      "Ġthorough": 4848,
      "ĠPark": 4849,
      "Ġobserved": 4850,
      "Ġanalyze": 4851,
      "Ġintelligence": 4852,
      "Ġpush": 4853,
      "Ġformation": 4854,
      "Ġexpected": 4855,
      "Ġversion": 4856,
      "hus": 4857,
      "Ġaid": 4858,
      "Ġalcohol": 4859,
      "ĠMiddle": 4860,
      "Ġexperts": 4861,
      "Ġartistic": 4862,
      "Ġemerged": 4863,
      "Ġcomponent": 4864,
      "Ġprefer": 4865,
      "Ġenabling": 4866,
      "Ġapproximately": 4867,
      "omas": 4868,
      "Ġobst": 4869,
      "Ġprices": 4870,
      "umn": 4871,
      "Ġlesson": 4872,
      "Ġrelease": 4873,
      "Ġsymbol": 4874,
      "Ġprecise": 4875,
      "OU": 4876,
      "asure": 4877,
      "Ġcompl": 4878,
      "Ġleads": 4879,
      "Ġfacts": 4880,
      "def": 4881,
      "ald": 4882,
      "ocol": 4883,
      "Ġ60": 4884,
      "Ġneighbor": 4885,
      "Ġcampaign": 4886,
      "Ar": 4887,
      "Ġdirection": 4888,
      "Ġsudden": 4889,
      "Ġ22": 4890,
      "order": 4891,
      "Ġpassion": 4892,
      "Ġembark": 4893,
      "ĠManagement": 4894,
      "Ġoptimal": 4895,
      "Ġcircumstances": 4896,
      "Ġmast": 4897,
      "Ġarm": 4898,
      "ĠSpec": 4899,
      "ĠBlack": 4900,
      "Ġvit": 4901,
      "Ġmeant": 4902,
      "erate": 4903,
      "ĠFood": 4904,
      "Ġspot": 4905,
      "Ġath": 4906,
      "olving": 4907,
      "ĠNum": 4908,
      "Ġcommunicate": 4909,
      "Ġdefine": 4910,
      "Ġfacing": 4911,
      "Ġstronger": 4912,
      "ĠGeneral": 4913,
      "Ġlens": 4914,
      "eline": 4915,
      "rick": 4916,
      "Ġroad": 4917,
      "Ġregulations": 4918,
      "Ġacid": 4919,
      "Ġnearby": 4920,
      "ĠWater": 4921,
      "Ġsubjects": 4922,
      "ĠSocial": 4923,
      "Ġfarmers": 4924,
      "cember": 4925,
      "iest": 4926,
      "ĠPacific": 4927,
      "Ġshapes": 4928,
      "Ġpreferences": 4929,
      "ĠDevelopment": 4930,
      "Ġpreserving": 4931,
      "Ġwet": 4932,
      "Ġchurch": 4933,
      "Ġadult": 4934,
      "Ġpersist": 4935,
      "Ġinfection": 4936,
      "Ġ2007": 4937,
      "Ġdynamic": 4938,
      "Ġindependent": 4939,
      "Ġamidst": 4940,
      "avors": 4941,
      "oving": 4942,
      "Ġdegree": 4943,
      "Ġasking": 4944,
      "roup": 4945,
      "ĠRoman": 4946,
      "Ġlabel": 4947,
      "ĠJournal": 4948,
      "60": 4949,
      "ville": 4950,
      "Ġahead": 4951,
      "ĠSet": 4952,
      "ĠRo": 4953,
      "anguage": 4954,
      "Ġorigin": 4955,
      "Ġfing": 4956,
      "rab": 4957,
      "Ġshowc": 4958,
      "ĠSpanish": 4959,
      "ĠFrance": 4960,
      "Ġstrengthen": 4961,
      "po": 4962,
      "orous": 4963,
      "Ġdeliver": 4964,
      "Ġcomprehensive": 4965,
      "section": 4966,
      "Ġdisp": 4967,
      "ception": 4968,
      "Ġlisten": 4969,
      "Ġcognitive": 4970,
      "ĠGreen": 4971,
      "cont": 4972,
      "Ġbasis": 4973,
      "Ġprocedures": 4974,
      "ĠProgram": 4975,
      "Ġvibrant": 4976,
      "ĠLeg": 4977,
      "Ġwondered": 4978,
      "Ġcraft": 4979,
      "Ġsocieties": 4980,
      "throp": 4981,
      "Ġnoticed": 4982,
      "Ġpret": 4983,
      "Ġtechnological": 4984,
      "Ġauthent": 4985,
      "Ġencounter": 4986,
      "Ġtrou": 4987,
      "Ġreference": 4988,
      "Ġclasses": 4989,
      "Ġeconomy": 4990,
      "ht": 4991,
      "Ġdri": 4992,
      "Ġrenew": 4993,
      "Ġpregn": 4994,
      "Ġenthus": 4995,
      "ĠIndigenous": 4996,
      "ĠJapanese": 4997,
      "Ġvirtual": 4998,
      "ET": 4999,
      "More": 5000,
      "ups": 5001,
      "Ã¡": 5002,
      "ĠAlso": 5003,
      "Ġorganisms": 5004,
      "Ġelectricity": 5005,
      "ĠAugust": 5006,
      "col": 5007,
      "ollow": 5008,
      "Ġchosen": 5009,
      "Ġtalking": 5010,
      "Ġmoments": 5011,
      "ĠAssociation": 5012,
      "ĠSch": 5013,
      "Ġancest": 5014,
      "Ġoffice": 5015,
      "Ġcreates": 5016,
      "cop": 5017,
      "Ġnotice": 5018,
      "arsh": 5019,
      "Ġcomplexity": 5020,
      "ĠIslam": 5021,
      "Ġvoice": 5022,
      "ĠSarah": 5023,
      "rest": 5024,
      "Ġearn": 5025,
      "ament": 5026,
      "ĠOb": 5027,
      "ificial": 5028,
      "Ġspeaking": 5029,
      "Ġimmediately": 5030,
      "Ġclinical": 5031,
      "Ġconversations": 5032,
      "Ġatmosphere": 5033,
      "Ġintrig": 5034,
      "Ġdepth": 5035,
      "Ġcrops": 5036,
      "After": 5037,
      "Ġmit": 5038,
      "omy": 5039,
      "Ġgave": 5040,
      "ĠBen": 5041,
      "Ġdecades": 5042,
      "Ġtemperatures": 5043,
      "Ġfruits": 5044,
      "Ġstraight": 5045,
      "eal": 5046,
      "pen": 5047,
      "ĠTre": 5048,
      "------------": 5049,
      "ĠAdv": 5050,
      "Ġgoods": 5051,
      "Ġcontaining": 5052,
      "Ġadvancements": 5053,
      "xic": 5054,
      "ari": 5055,
      "Ġamb": 5056,
      "uracy": 5057,
      "Ġinherent": 5058,
      "ĠMary": 5059,
      "ibl": 5060,
      "ĠJanuary": 5061,
      "Ġwellbeing": 5062,
      "Ġboard": 5063,
      "Ġpurposes": 5064,
      "Ġdoctors": 5065,
      "21": 5066,
      "Ġpun": 5067,
      "Ġconv": 5068,
      "Ġera": 5069,
      "Ġdialogue": 5070,
      "ste": 5071,
      "ĠAD": 5072,
      "âĢ¢": 5073,
      "Ġuniverse": 5074,
      "Ġdesired": 5075,
      "ĠVis": 5076,
      "Ġdiscovery": 5077,
      "Ġexistence": 5078,
      "crib": 5079,
      "Ġfine": 5080,
      "ĠApril": 5081,
      "ĠStep": 5082,
      "Ġowners": 5083,
      "ĠGreek": 5084,
      "Ġremarkable": 5085,
      "Ġreached": 5086,
      "ĠDNA": 5087,
      "Ġrig": 5088,
      "ĠNovember": 5089,
      "Ġtransfer": 5090,
      "ĠIsland": 5091,
      "Ġimmig": 5092,
      "Ġrelatively": 5093,
      "kes": 5094,
      "essel": 5095,
      "ĠAv": 5096,
      "ĠFound": 5097,
      "ouncil": 5098,
      "Ġmagical": 5099,
      "Ġbottom": 5100,
      "ĠSeptember": 5101,
      "29": 5102,
      "Ġcovered": 5103,
      "Ġpal": 5104,
      "Ġhair": 5105,
      "Ġreson": 5106,
      "Ġplayers": 5107,
      "Ġlargest": 5108,
      "Ġmoved": 5109,
      "ux": 5110,
      "ffect": 5111,
      "Ġrapidly": 5112,
      "Ġinitiatives": 5113,
      "zy": 5114,
      "Ġparent": 5115,
      "Ġmal": 5116,
      "ĠRet": 5117,
      "Ġsimultane": 5118,
      "Ġparalle": 5119,
      "Ġ2013": 5120,
      "Ġfilm": 5121,
      "Ġdocuments": 5122,
      "Ġpictures": 5123,
      "ĠCounty": 5124,
      "Ġconsidering": 5125,
      "Ġdeal": 5126,
      "anges": 5127,
      "Ġmulti": 5128,
      "Ġjournal": 5129,
      "Ġdiscrimination": 5130,
      "oured": 5131,
      "lets": 5132,
      "urd": 5133,
      "ĠTime": 5134,
      "ĠWind": 5135,
      "Ġcommonly": 5136,
      "Ġcombined": 5137,
      "ĠJuly": 5138,
      "ygen": 5139,
      "Ġsamples": 5140,
      "rapy": 5141,
      "tering": 5142,
      "Ġlegis": 5143,
      "Ġlistening": 5144,
      "$$": 5145,
      "'m": 5146,
      "Ġmouth": 5147,
      "empl": 5148,
      "Ġking": 5149,
      "Ġproposed": 5150,
      "23": 5151,
      "Act": 5152,
      "HE": 5153,
      "bing": 5154,
      "Ġcul": 5155,
      "Ġstorm": 5156,
      "Ġdiscussing": 5157,
      "Ġsuggested": 5158,
      "EC": 5159,
      "uration": 5160,
      "Ġsus": 5161,
      "ĠUN": 5162,
      "ĠVal": 5163,
      "Ġeveryday": 5164,
      "Ġseemed": 5165,
      "Ġvolun": 5166,
      "Ġsides": 5167,
      "Ġvent": 5168,
      "Ġmillions": 5169,
      "Ġleadership": 5170,
      "rastructure": 5171,
      "lin": 5172,
      "ĠMount": 5173,
      "Ġhearing": 5174,
      "Ġexamination": 5175,
      "Ġtransp": 5176,
      "Ġmarg": 5177,
      "Ġoperating": 5178,
      "Ġtask": 5179,
      "Ġfellow": 5180,
      "Ġgar": 5181,
      "ĠLibr": 5182,
      "Ġtransl": 5183,
      "Ġnorthern": 5184,
      "Ġstaff": 5185,
      "Ġasp": 5186,
      "Ġinsight": 5187,
      "ĠPlan": 5188,
      "Ġindustrial": 5189,
      "Ġdrugs": 5190,
      "Ġneighb": 5191,
      "24": 5192,
      "lor": 5193,
      "rors": 5194,
      "ifies": 5195,
      "unction": 5196,
      "ĠEvery": 5197,
      "Ġshar": 5198,
      "Ġthereby": 5199,
      "Ġfacilities": 5200,
      "Ġfinally": 5201,
      "Ġarchitecture": 5202,
      "Pro": 5203,
      "Ġlooks": 5204,
      "aph": 5205,
      "ifications": 5206,
      "Ġcris": 5207,
      "====": 5208,
      "asy": 5209,
      "agon": 5210,
      "Ġconsult": 5211,
      "Ġincreases": 5212,
      "Ġpossibilities": 5213,
      "Ġdrive": 5214,
      "Ġnutri": 5215,
      "27": 5216,
      "Key": 5217,
      "Ġrelax": 5218,
      "Ġsaying": 5219,
      "Ġcommitment": 5220,
      "Ġdegrees": 5221,
      "Ġmilk": 5222,
      "Ġconflicts": 5223,
      "Ġbed": 5224,
      "ĠInf": 5225,
      "Ġvalid": 5226,
      "Ġimmune": 5227,
      "Ġconsistent": 5228,
      "Ġdatab": 5229,
      "ĠData": 5230,
      "Ġnotes": 5231,
      "Ġamounts": 5232,
      "Ġsignals": 5233,
      "Ġparticles": 5234,
      "Ġcollege": 5235,
      "ĠHuman": 5236,
      "Ġwriters": 5237,
      "name": 5238,
      "oma": 5239,
      "Ġhop": 5240,
      "ĠPers": 5241,
      "ĠFeb": 5242,
      "Ġpark": 5243,
      "Ġbow": 5244,
      "ĠTogether": 5245,
      "vert": 5246,
      "that": 5247,
      "Ġvacc": 5248,
      "obal": 5249,
      "ĠMaybe": 5250,
      "ĠEmp": 5251,
      "Ġrobust": 5252,
      "ST": 5253,
      "Ġ:": 5254,
      "Ġnor": 5255,
      "Ġstorage": 5256,
      "ĠBr": 5257,
      "Ġstruggle": 5258,
      "Ġintellectual": 5259,
      "AP": 5260,
      "ĠBob": 5261,
      "Ġchain": 5262,
      "Ġdisapp": 5263,
      "Ġsubs": 5264,
      "Ġsubstant": 5265,
      "Ġhabits": 5266,
      "ĠRepublic": 5267,
      "Ġtissue": 5268,
      "Ġmel": 5269,
      "Ġclim": 5270,
      "Ġprompt": 5271,
      "ĠReal": 5272,
      "Ġoperation": 5273,
      "ĠCongress": 5274,
      "aur": 5275,
      "Ġstro": 5276,
      "Ġjoy": 5277,
      "ĠKey": 5278,
      "Ġpractition": 5279,
      "ĠConsequently": 5280,
      "plicated": 5281,
      "ipping": 5282,
      "world": 5283,
      "Ġwarn": 5284,
      "Ġwave": 5285,
      "icit": 5286,
      "Ġmaster": 5287,
      "ĠFinally": 5288,
      "ĠHistorical": 5289,
      "Ġdemonstrate": 5290,
      "Ġcaptivating": 5291,
      "mark": 5292,
      "Ġsouthern": 5293,
      "Ġcrop": 5294,
      "ĠDar": 5295,
      "ĠJames": 5296,
      "Ġ190": 5297,
      "Ġgenes": 5298,
      "Ġdecide": 5299,
      "Ġrecognition": 5300,
      "Ġinspire": 5301,
      "Ġfort": 5302,
      "ulf": 5303,
      "Ġcompassion": 5304,
      "Ġarts": 5305,
      "Ġintervention": 5306,
      "Ġcareer": 5307,
      "Ġbiological": 5308,
      "ĠStudy": 5309,
      "Ġreplace": 5310,
      "rations": 5311,
      "Ġsynt": 5312,
      "Ġagencies": 5313,
      "ĠEnergy": 5314,
      "Ġdestro": 5315,
      "Ġgarden": 5316,
      "Ġlic": 5317,
      "Ġseeds": 5318,
      "ĠLike": 5319,
      "ocal": 5320,
      "Ġincome": 5321,
      "ĠExamples": 5322,
      "Ġwidely": 5323,
      "yd": 5324,
      "Ġgod": 5325,
      "ĠBudd": 5326,
      "Ġremove": 5327,
      "Ġtales": 5328,
      "Ġimplementation": 5329,
      "Example": 5330,
      "Ġhoriz": 5331,
      "Res": 5332,
      "plot": 5333,
      "tenance": 5334,
      "Ġsignal": 5335,
      "Ġtreatments": 5336,
      "Ġelectrical": 5337,
      "apping": 5338,
      "rum": 5339,
      "ĠHol": 5340,
      "Ġseven": 5341,
      "Ġpracticing": 5342,
      "ĠConst": 5343,
      "Ġstorytelling": 5344,
      "Ġauthority": 5345,
      "Ġjoin": 5346,
      "Ġexpectations": 5347,
      "EN": 5348,
      "ĠRober": 5349,
      "ĠOut": 5350,
      "Ġ23": 5351,
      "Ġoffered": 5352,
      "Ġsolve": 5353,
      "ĠMedical": 5354,
      "Ġnavigating": 5355,
      "Ġcopy": 5356,
      "Ġfacilitate": 5357,
      "Throughout": 5358,
      "mic": 5359,
      "mary": 5360,
      "Ġsample": 5361,
      "Ġthin": 5362,
      "Ġrat": 5363,
      "ffic": 5364,
      "Ġinteraction": 5365,
      "Ġincorporate": 5366,
      "Ġfruit": 5367,
      "Ġwaters": 5368,
      "Ġcorrespond": 5369,
      "Ġinsect": 5370,
      "ĠDem": 5371,
      "text": 5372,
      "That": 5373,
      "venile": 5374,
      "Ġcurrently": 5375,
      "Ġregularly": 5376,
      "Ġapart": 5377,
      "ĠMexico": 5378,
      "stood": 5379,
      "igure": 5380,
      "ĠCle": 5381,
      "ĠUlt": 5382,
      "ondon": 5383,
      "ĠVol": 5384,
      "connect": 5385,
      "Ġpainting": 5386,
      "nic": 5387,
      "arr": 5388,
      "ordinary": 5389,
      "Ġremained": 5390,
      "Ġstanding": 5391,
      "Ġbird": 5392,
      "ĠInternet": 5393,
      "eria": 5394,
      "itis": 5395,
      "Ġmort": 5396,
      "ĠCap": 5397,
      "Ġmeals": 5398,
      "Ġagg": 5399,
      "Ġ2006": 5400,
      "Ġhappy": 5401,
      "Ġgovernments": 5402,
      "Ġemployed": 5403,
      "Ġbillion": 5404,
      "Ġeggs": 5405,
      "))": 5406,
      "ixt": 5407,
      "tion": 5408,
      "Ġassistance": 5409,
      "Ġaffecting": 5410,
      "Ġholds": 5411,
      "Ġbank": 5412,
      "ulatory": 5413,
      "Ġadap": 5414,
      "Ġfeat": 5415,
      "Ġskill": 5416,
      "Ġ2000": 5417,
      "Ġmarine": 5418,
      "holders": 5419,
      "AL": 5420,
      "Ġaf": 5421,
      "ician": 5422,
      "ĠChe": 5423,
      "Ġvessel": 5424,
      "ologist": 5425,
      "Ġ2005": 5426,
      "Ġemergency": 5427,
      "aughter": 5428,
      "ait": 5429,
      "Ġtaste": 5430,
      "Ġmic": 5431,
      "ĠHouse": 5432,
      "Ġexplored": 5433,
      "Ġcycle": 5434,
      "itudes": 5435,
      "ĠGeorge": 5436,
      "Ġassessment": 5437,
      "Ġreferred": 5438,
      "Ġbrief": 5439,
      "Ġdro": 5440,
      "Ġwealth": 5441,
      "Ġcorpor": 5442,
      "Ġadvice": 5443,
      "ĠTherefore": 5444,
      "Ġwait": 5445,
      "Ġfailure": 5446,
      "Ġdoub": 5447,
      "Some": 5448,
      "alysis": 5449,
      "Ġpages": 5450,
      "Ġgear": 5451,
      "ĠSub": 5452,
      "ĠDi": 5453,
      "Ġsyn": 5454,
      "Ġconstit": 5455,
      "Ġwaiting": 5456,
      "Ġlandscapes": 5457,
      "Ġhealing": 5458,
      "asses": 5459,
      "Ġphase": 5460,
      "Ġinfrastructure": 5461,
      "Ġarticles": 5462,
      "Ġflat": 5463,
      "ĠModern": 5464,
      "cip": 5465,
      "Ġvariables": 5466,
      "Ġcere": 5467,
      "Ġinterview": 5468,
      "Ġaccuracy": 5469,
      "Ġ195": 5470,
      "Ġopening": 5471,
      "Ġload": 5472,
      "Ġtaught": 5473,
      "utive": 5474,
      "ĠCivil": 5475,
      "ĠPower": 5476,
      "Ġ26": 5477,
      "Ġdied": 5478,
      "Ġsuccessfully": 5479,
      "ĠDecember": 5480,
      "ĠOrgan": 5481,
      "Ġmachines": 5482,
      "makers": 5483,
      "itting": 5484,
      "Ġconcerning": 5485,
      "ctor": 5486,
      "ails": 5487,
      "Ġscript": 5488,
      "Ġreprodu": 5489,
      "Ġproperly": 5490,
      "Ġflowers": 5491,
      "Ġsymbols": 5492,
      "Ġoxygen": 5493,
      "Ġphilosophy": 5494,
      "ĠSal": 5495,
      "riage": 5496,
      "ĠDel": 5497,
      "apers": 5498,
      "Ġwhenever": 5499,
      "ĠStr": 5500,
      "Ġdistingu": 5501,
      "Ġmatrix": 5502,
      "Ġarrange": 5503,
      "Ġhousehold": 5504,
      "Ġanxiety": 5505,
      "atically": 5506,
      "iform": 5507,
      "Ġrepresented": 5508,
      "Ġanalyzing": 5509,
      "____": 5510,
      "ĠCurrent": 5511,
      "Ġsought": 5512,
      "orking": 5513,
      "ressed": 5514,
      "Ġcommunic": 5515,
      "Ġtechnical": 5516,
      "Ġfocuses": 5517,
      "Ġign": 5518,
      "ĠTest": 5519,
      "Ġstrict": 5520,
      "Ġrul": 5521,
      "Ġmyster": 5522,
      "Ġagricultural": 5523,
      "MS": 5524,
      "stract": 5525,
      "Ġstim": 5526,
      "inding": 5527,
      "Ġconstant": 5528,
      "Ġseemingly": 5529,
      "Ġviews": 5530,
      "Ġempower": 5531,
      "ĠStudents": 5532,
      "Ġcraf": 5533,
      "Ġtouch": 5534,
      "Ġbacteria": 5535,
      "Ġstake": 5536,
      "ĠBecause": 5537,
      "ĠOh": 5538,
      "Ġencount": 5539,
      "Ġaccompl": 5540,
      "Ġson": 5541,
      "ĠWhe": 5542,
      "Ġsole": 5543,
      "Ġserving": 5544,
      "Ġdriving": 5545,
      "Ġmorning": 5546,
      "Ġannual": 5547,
      "Ġpreviously": 5548,
      "Ġtransportation": 5549,
      "Ġbarriers": 5550,
      "90": 5551,
      "orrow": 5552,
      "Ġfaster": 5553,
      "ida": 5554,
      "Ġconventional": 5555,
      "Ġhero": 5556,
      "ĠFe": 5557,
      "ĠDiv": 5558,
      "ruary": 5559,
      "Ġresponses": 5560,
      "ĠColle": 5561,
      "Ġnegot": 5562,
      "Ġsalt": 5563,
      "Ġprepare": 5564,
      "acles": 5565,
      "Ġleader": 5566,
      "Ġrequiring": 5567,
      "Ġshowing": 5568,
      "Ġcontributing": 5569,
      "ĠLatin": 5570,
      "Ġmarginal": 5571,
      "Ġspl": 5572,
      "Ġyield": 5573,
      "ĠHIV": 5574,
      "Ġ28": 5575,
      "Ġspecialized": 5576,
      "ĠPhil": 5577,
      "Ġexcellent": 5578,
      "CO": 5579,
      "itors": 5580,
      "Ġlots": 5581,
      "Ġwhom": 5582,
      "Ġinspiration": 5583,
      "Ġimprovement": 5584,
      "Ġaudiences": 5585,
      "Ġselected": 5586,
      "All": 5587,
      "iability": 5588,
      "Ġfib": 5589,
      "ĠSov": 5590,
      "ĠEst": 5591,
      "Ġresist": 5592,
      "Ġkid": 5593,
      "Ġcalls": 5594,
      "Ġfollows": 5595,
      "Ġbrings": 5596,
      "Ġelim": 5597,
      "Ġkinds": 5598,
      "Ġappearance": 5599,
      "Ġwalk": 5600,
      "Ġwalls": 5601,
      "arity": 5602,
      "Ġgun": 5603,
      "eless": 5604,
      "Ġrhy": 5605,
      "active": 5606,
      "ĠCho": 5607,
      "lick": 5608,
      "oves": 5609,
      "ĠKnow": 5610,
      "Ġhospital": 5611,
      "using": 5612,
      "rome": 5613,
      "Ġrecognized": 5614,
      "ĠGermany": 5615,
      "Ġunders": 5616,
      "ii": 5617,
      "tra": 5618,
      "hered": 5619,
      "Ġsnow": 5620,
      "Ġfirm": 5621,
      "Ġreform": 5622,
      "ĠCare": 5623,
      "Ġyouth": 5624,
      "Ġwear": 5625,
      "Ġmanaged": 5626,
      "Ġminor": 5627,
      "fortunately": 5628,
      "Ġentirely": 5629,
      "Ġconversation": 5630,
      "from": 5631,
      "Ġotherwise": 5632,
      "Ġorganic": 5633,
      "ĠSpace": 5634,
      "ographical": 5635,
      "ĠPhys": 5636,
      "ĠExploring": 5637,
      "Ġmutual": 5638,
      "Ġathlet": 5639,
      "ĠBas": 5640,
      "Ġlearners": 5641,
      "Ġcontinuous": 5642,
      "west": 5643,
      "Ġax": 5644,
      "Ġconsists": 5645,
      "Ġbright": 5646,
      "Ġorganized": 5647,
      "rolog": 5648,
      "Ġextraordinary": 5649,
      "ĠMich": 5650,
      "Ġadequ": 5651,
      "Ġproducing": 5652,
      "Ġpollution": 5653,
      ",'": 5654,
      "26": 5655,
      "PS": 5656,
      "fl": 5657,
      "ham": 5658,
      "with": 5659,
      "Ġic": 5660,
      "stream": 5661,
      "Ġgently": 5662,
      "ĠTur": 5663,
      "Ġrice": 5664,
      "Ġgrown": 5665,
      "Ġsensitive": 5666,
      "Ġarrived": 5667,
      "Ġtherap": 5668,
      "ĠProfess": 5669,
      "inter": 5670,
      "ĠUt": 5671,
      "ĠCommon": 5672,
      "Ġradio": 5673,
      "Ġdim": 5674,
      "ĠCam": 5675,
      "Ġconscious": 5676,
      "Ġhumanity": 5677,
      "Ġdescribe": 5678,
      "Ġnorms": 5679,
      "Ġdangerous": 5680,
      "cal": 5681,
      "hand": 5682,
      "Ġlung": 5683,
      "Ġhelpful": 5684,
      "Ġmathematical": 5685,
      "Ġliquid": 5686,
      "Ġsubstantial": 5687,
      "Ġnan": 5688,
      "ague": 5689,
      "ĠPaul": 5690,
      "ptions": 5691,
      "Ġmedication": 5692,
      "Ġmoral": 5693,
      "ĠTwo": 5694,
      "norm": 5695,
      "Ġwise": 5696,
      "ett": 5697,
      "ĠMake": 5698,
      "ĠAnother": 5699,
      "Ġfocusing": 5700,
      "Ġmixed": 5701,
      "well": 5702,
      "Ġtips": 5703,
      "Ġment": 5704,
      "road": 5705,
      "Ġbeings": 5706,
      "aming": 5707,
      "ĠIS": 5708,
      "Ġship": 5709,
      "Ġmedium": 5710,
      "Ġparticipate": 5711,
      "Ġminimize": 5712,
      "Ġthreats": 5713,
      "Ġsquare": 5714,
      "Ġfiber": 5715,
      "Ġgrew": 5716,
      "Ġimpl": 5717,
      "ĠOld": 5718,
      "Ġinstances": 5719,
      "lessly": 5720,
      "iology": 5721,
      "za": 5722,
      "icks": 5723,
      "ander": 5724,
      "Ġimplementing": 5725,
      "Ġfrequency": 5726,
      "Ġconducted": 5727,
      "Ġproteins": 5728,
      "Ġsimultaneously": 5729,
      "70": 5730,
      "Ġstret": 5731,
      "Ġdevelopments": 5732,
      "Ġtreated": 5733,
      "Ġencouraging": 5734,
      "BT": 5735,
      "gl": 5736,
      "iate": 5737,
      "och": 5738,
      "Ġseed": 5739,
      "ĠStand": 5740,
      "Ġinterested": 5741,
      "Ġmarked": 5742,
      "Ġlinked": 5743,
      "Ġmanufacture": 5744,
      "mas": 5745,
      "Ġtens": 5746,
      "Ġwall": 5747,
      "Ġupper": 5748,
      "Ġremote": 5749,
      "Ġformal": 5750,
      "ĠImp": 5751,
      "Ġprotecting": 5752,
      "Ġwitness": 5753,
      "RE": 5754,
      "Ġtit": 5755,
      "heast": 5756,
      "Ġbread": 5757,
      "racy": 5758,
      "ditional": 5759,
      "Ġedge": 5760,
      "Ġconfidence": 5761,
      "Ġclassroom": 5762,
      "Ġconsumers": 5763,
      "inet": 5764,
      "Ġindex": 5765,
      "Ġagreed": 5766,
      "ĠRevolution": 5767,
      "Ġcontributions": 5768,
      "Ġtopic": 5769,
      "Ġhighest": 5770,
      "28": 5771,
      "AD": 5772,
      "gra": 5773,
      "Ġshed": 5774,
      "Ġunderstood": 5775,
      "ĠExper": 5776,
      "Ġoccurred": 5777,
      "which": 5778,
      "SD": 5779,
      "hist": 5780,
      "rants": 5781,
      "Ġ,": 5782,
      "Ġmath": 5783,
      "Ġdance": 5784,
      "idents": 5785,
      "Ġencomp": 5786,
      "Ġemissions": 5787,
      "Ġcarried": 5788,
      "Ġtried": 5789,
      "ĠStudies": 5790,
      "Ġsustainability": 5791,
      "such": 5792,
      "uit": 5793,
      "Ġinner": 5794,
      "ĠTex": 5795,
      "orders": 5796,
      "ĠAsia": 5797,
      "Ġshel": 5798,
      "Ġreleased": 5799,
      "Ġerror": 5800,
      "Ġfiles": 5801,
      "Ġmedications": 5802,
      "Ġheavily": 5803,
      "Ġwalking": 5804,
      "ĠLearning": 5805,
      "Ġauthentic": 5806,
      "wood": 5807,
      "Ġdispar": 5808,
      "Ġsky": 5809,
      "Ġguess": 5810,
      "Ġconsideration": 5811,
      "Ġadvantages": 5812,
      "ĠVirgin": 5813,
      "*:": 5814,
      "atric": 5815,
      "ĠMuseum": 5816,
      "ĠBel": 5817,
      "Ġpatience": 5818,
      "Ġbelief": 5819,
      "Ġinfluences": 5820,
      "Ġaffects": 5821,
      "Ġneighborhood": 5822,
      "ij": 5823,
      "eling": 5824,
      "amily": 5825,
      "Ġforming": 5826,
      "Ġconnecting": 5827,
      "Ġturns": 5828,
      "Ġbattle": 5829,
      "Ġbudget": 5830,
      "rets": 5831,
      "Ġfoss": 5832,
      "arge": 5833,
      "ione": 5834,
      "Ġhuge": 5835,
      "ĠMem": 5836,
      "Ġweap": 5837,
      "Ġinvent": 5838,
      "Ġidentities": 5839,
      "Ġafford": 5840,
      "Ġperformed": 5841,
      "Ġturning": 5842,
      "Ġrecognizing": 5843,
      "Ġexercises": 5844,
      "Ġstarts": 5845,
      "lines": 5846,
      "Ġcos": 5847,
      "Ġrely": 5848,
      "ĠSk": 5849,
      "Ġsimpl": 5850,
      "Ġprominent": 5851,
      "Ġinternet": 5852,
      "Ġexpertise": 5853,
      "ĠDavid": 5854,
      "ĠMal": 5855,
      "ĠMain": 5856,
      "Ġunits": 5857,
      "Ġcombination": 5858,
      "ĠMean": 5859,
      "Ġdebates": 5860,
      "ersonal": 5861,
      "Ġpractitioners": 5862,
      "ĠCollege": 5863,
      "Ġbone": 5864,
      "Ġbio": 5865,
      "ĠLondon": 5866,
      "Ġmeat": 5867,
      "Ġtraffic": 5868,
      "Ġshell": 5869,
      "Ġargument": 5870,
      "ĠSecond": 5871,
      "ĠTechnology": 5872,
      "Ġofficials": 5873,
      "Com": 5874,
      "do": 5875,
      "alled": 5876,
      "Ġspring": 5877,
      "Ġunity": 5878,
      "Ġmaintenance": 5879,
      "sequent": 5880,
      "Ġwildlife": 5881,
      "Ġagriculture": 5882,
      "ĠService": 5883,
      "lights": 5884,
      "uous": 5885,
      "ffee": 5886,
      "Ġsupported": 5887,
      "Ġengineers": 5888,
      "Ġsurvival": 5889,
      "Ġsequence": 5890,
      "Ġderived": 5891,
      "ica": 5892,
      "Ġconvey": 5893,
      "ĠNon": 5894,
      "Ġdishes": 5895,
      "fulness": 5896,
      "Ġraised": 5897,
      "Ġattend": 5898,
      "Ġidentifying": 5899,
      "Ġcomfortable": 5900,
      "aturally": 5901,
      "ĠÂ": 5902,
      "lease": 5903,
      "Ġhour": 5904,
      "emic": 5905,
      "ĠLiter": 5906,
      "Ġharmful": 5907,
      "Ġtransformation": 5908,
      "Ġtailored": 5909,
      "Ġstored": 5910,
      "ĠArab": 5911,
      "Ġdealing": 5912,
      "anted": 5913,
      "Ġshift": 5914,
      "Ġthanks": 5915,
      "Ġminds": 5916,
      "Ġaudience": 5917,
      "Ġreactions": 5918,
      "Ġinitially": 5919,
      "ĠSoviet": 5920,
      "Sh": 5921,
      "Title": 5922,
      "ault": 5923,
      "Ġ#": 5924,
      "Ġinhab": 5925,
      "imal": 5926,
      "celer": 5927,
      "Ġstability": 5928,
      "agues": 5929,
      "ĠHall": 5930,
      "Ġentertain": 5931,
      "Ġvolume": 5932,
      "ĠCentral": 5933,
      "connected": 5934,
      "Be": 5935,
      "Ġsell": 5936,
      "unk": 5937,
      "ĠEmb": 5938,
      "Ġintended": 5939,
      "ĠAtl": 5940,
      "Ġharvest": 5941,
      "Ġadvantage": 5942,
      "agers": 5943,
      "Ġsuitable": 5944,
      "ĠInformation": 5945,
      "Ġflour": 5946,
      "ounced": 5947,
      "Ġantib": 5948,
      "Ġindustries": 5949,
      "Ġanswers": 5950,
      "Ġstages": 5951,
      "Ġforget": 5952,
      "Ġdepression": 5953,
      "Ġdiscussed": 5954,
      "Ġteams": 5955,
      "Ġexpressions": 5956,
      "Ġframework": 5957,
      "mod": 5958,
      "Ġhob": 5959,
      "ĠFin": 5960,
      "ĠNative": 5961,
      "Ġclub": 5962,
      "They": 5963,
      "Ġpoetry": 5964,
      "Ġartificial": 5965,
      "Ġelectronic": 5966,
      "Ġarguments": 5967,
      "Ġclaims": 5968,
      "Ġcredit": 5969,
      "Ġacknowled": 5970,
      "ĠMedicine": 5971,
      "othe": 5972,
      "Ġabuse": 5973,
      "ube": 5974,
      "Ġcapabilities": 5975,
      "Ġpreserve": 5976,
      "Ġobjectives": 5977,
      "Ġtells": 5978,
      "Ġmonitor": 5979,
      "Ġinstructions": 5980,
      "Next": 5981,
      "ressing": 5982,
      "Ġphone": 5983,
      "mal": 5984,
      "uels": 5985,
      "alse": 5986,
      "Ġwest": 5987,
      "Ġdin": 5988,
      "ĠSun": 5989,
      "Ġvot": 5990,
      "Ġoverl": 5991,
      "Ġdelicious": 5992,
      "Ġmaximum": 5993,
      "From": 5994,
      "ND": 5995,
      "nel": 5996,
      "Ġtro": 5997,
      "Ġsick": 5998,
      "Ġban": 5999,
      "rays": 6000,
      "Ġspend": 6001,
      "astly": 6002,
      "Ġinterventions": 6003,
      "Ġchemicals": 6004,
      "Ġmoist": 6005,
      "omin": 6006,
      "Ġstands": 6007,
      "ĠCouncil": 6008,
      "umes": 6009,
      "Ġtransc": 6010,
      "Ġlimits": 6011,
      "Ġalgorithms": 6012,
      "Pl": 6013,
      "dis": 6014,
      "hma": 6015,
      "ĠAir": 6016,
      "Ġexists": 6017,
      "ĠPost": 6018,
      "ĠLou": 6019,
      "ansion": 6020,
      "Ġindicate": 6021,
      "Ġfeels": 6022,
      "Ġexplan": 6023,
      "Ġpositions": 6024,
      "Ġmyst": 6025,
      "Ġfunctional": 6026,
      "Ġstatement": 6027,
      "Ġvariable": 6028,
      "Ġdomin": 6029,
      "ĠAustralia": 6030,
      "Ġdoll": 6031,
      "Ġindeed": 6032,
      "erved": 6033,
      "Ġ193": 6034,
      "Ġexposed": 6035,
      "Ġcombining": 6036,
      "Ġargue": 6037,
      "Ġcamera": 6038,
      "Ġcolonial": 6039,
      "Ġmitig": 6040,
      "acies": 6041,
      "Ġchronic": 6042,
      "Ġcountless": 6043,
      "coming": 6044,
      "Ġmountain": 6045,
      "AM": 6046,
      "Ġcatch": 6047,
      "ĠSaf": 6048,
      "ĠHen": 6049,
      "aks": 6050,
      "aker": 6051,
      "Ġinstruction": 6052,
      "Ġlocations": 6053,
      "Ġrequest": 6054,
      "Ġconclud": 6055,
      "Ġintroduce": 6056,
      "ĠFranc": 6057,
      "Ġroutine": 6058,
      "Ġfeaturing": 6059,
      "down": 6060,
      "writ": 6061,
      "ene": 6062,
      "ania": 6063,
      "Ġnerv": 6064,
      "Ġrow": 6065,
      "Ġacts": 6066,
      "Ġideal": 6067,
      "Ġcapture": 6068,
      "Ġimmediate": 6069,
      "Ġvictim": 6070,
      "Ġbaby": 6071,
      "Ġpretty": 6072,
      "bed": 6073,
      "uls": 6074,
      "ĠCourt": 6075,
      "ocation": 6076,
      "Ġnoted": 6077,
      "Ġperce": 6078,
      "Ġstring": 6079,
      "Ġ2003": 6080,
      "ommod": 6081,
      "Ġremaining": 6082,
      "Ġcandid": 6083,
      "Ġbegins": 6084,
      "unning": 6085,
      "Ġusage": 6086,
      "Ġmeal": 6087,
      "Ġseeing": 6088,
      "ĠAlice": 6089,
      "Ġhandle": 6090,
      "Ġfeedback": 6091,
      "ĠFebruary": 6092,
      "gu": 6093,
      "pread": 6094,
      "whel": 6095,
      "omic": 6096,
      "Ġran": 6097,
      "Ġorigins": 6098,
      "Ġscene": 6099,
      "Ġabsolute": 6100,
      "Despite": 6101,
      "Ġtheore": 6102,
      "Ġcup": 6103,
      "Ġenem": 6104,
      "Ġsurve": 6105,
      "Ġcenters": 6106,
      "Ġhyper": 6107,
      "Ġprinciple": 6108,
      "Ġmassive": 6109,
      "Ġsusp": 6110,
      "Ġapplying": 6111,
      "Ġhappening": 6112,
      "Ġevaluate": 6113,
      "Ġslowly": 6114,
      "ĠGlobal": 6115,
      "rin": 6116,
      "Ġaest": 6117,
      "Ġdimens": 6118,
      "Ġreb": 6119,
      "Ġkept": 6120,
      "ictionary": 6121,
      "Ġcharacterized": 6122,
      "Ġcustoms": 6123,
      "Ġscenarios": 6124,
      "Our": 6125,
      "min": 6126,
      "ĠHel": 6127,
      "Ġdemands": 6128,
      "Ġregardless": 6129,
      "Ġdetermined": 6130,
      "ĠJews": 6131,
      "Ġcategories": 6132,
      "Ġsacr": 6133,
      "ĠGovernment": 6134,
      "Cont": 6135,
      "bles": 6136,
      "eenth": 6137,
      "mp": 6138,
      "Ġretain": 6139,
      "ostic": 6140,
      "Ġkit": 6141,
      "Ġcars": 6142,
      "Ġeducators": 6143,
      "cast": 6144,
      "des": 6145,
      "Ġimper": 6146,
      "ĠThomas": 6147,
      "Ġreduction": 6148,
      "Ġfluid": 6149,
      "Ġinstitution": 6150,
      "Ġlatest": 6151,
      "Ġefficiently": 6152,
      "ĠEnvironmental": 6153,
      "eath": 6154,
      "uis": 6155,
      "uine": 6156,
      "rete": 6157,
      "ĠST": 6158,
      "ava": 6159,
      "Ġstrange": 6160,
      "Ġmemories": 6161,
      "Ġcritically": 6162,
      "Ġshaped": 6163,
      "Ġsupports": 6164,
      "ĠControl": 6165,
      "Ġdestroy": 6166,
      "bra": 6167,
      "lers": 6168,
      "Ġwants": 6169,
      "quality": 6170,
      "Ġ27": 6171,
      "Ġuns": 6172,
      "Ġtransition": 6173,
      "Ġproviders": 6174,
      "Ġsufficient": 6175,
      "Ġparameters": 6176,
      "Ġgradually": 6177,
      "Ġod": 6178,
      "ĠWomen": 6179,
      "ĠNet": 6180,
      "Ġmagic": 6181,
      "fit": 6182,
      "Ġcards": 6183,
      "ishes": 6184,
      "Ġ29": 6185,
      "anged": 6186,
      "Ġqualities": 6187,
      "ĠExp": 6188,
      "Ġmuscles": 6189,
      "Ġsweet": 6190,
      "estyle": 6191,
      "SA": 6192,
      "lig": 6193,
      "eterm": 6194,
      "ags": 6195,
      "Ġinterconnected": 6196,
      "Ġphr": 6197,
      "Ġsolving": 6198,
      "arant": 6199,
      "Ġstars": 6200,
      "ĠSpirit": 6201,
      "Ġmuscle": 6202,
      "Ġcontributes": 6203,
      "ĠCommit": 6204,
      "Ġlinear": 6205,
      "Ġdemonstrated": 6206,
      "ĠBritain": 6207,
      "Ġearthqu": 6208,
      "Ġdatas": 6209,
      "ĠStrateg": 6210,
      "part": 6211,
      "Ġforth": 6212,
      "ĠMicro": 6213,
      "usions": 6214,
      "ĠEconom": 6215,
      "ĠLa": 6216,
      "Ġactively": 6217,
      "Ġmyth": 6218,
      "ĠProject": 6219,
      "idespread": 6220,
      "ĠCommission": 6221,
      "Ġparticipation": 6222,
      "Ġwindow": 6223,
      "Ġreturns": 6224,
      "Ġcompetition": 6225,
      "Activity": 6226,
      "ĠDarwin": 6227,
      "En": 6228,
      "free": 6229,
      "isher": 6230,
      "ctu": 6231,
      "Ġrural": 6232,
      "Ġabund": 6233,
      "Ġcompos": 6234,
      "Ġdiss": 6235,
      "arness": 6236,
      "ashion": 6237,
      "Ġemotion": 6238,
      "Ġdiagnosis": 6239,
      "Ġpuzz": 6240,
      "ndrome": 6241,
      "Ġmanif": 6242,
      "Ġtrain": 6243,
      "Ġaccounts": 6244,
      "Ġsubsequent": 6245,
      "cape": 6246,
      "Ġvoices": 6247,
      "Ġinterpretation": 6248,
      "ĠLibrary": 6249,
      "Ġcrisis": 6250,
      "ĠUltimately": 6251,
      "een": 6252,
      "found": 6253,
      "Ġsort": 6254,
      "itals": 6255,
      "Ġwestern": 6256,
      "ĠFore": 6257,
      "asty": 6258,
      "Ġsche": 6259,
      "Ġformat": 6260,
      "Ġmusical": 6261,
      "Ġintegration": 6262,
      "Ġbreathing": 6263,
      "Ġfrag": 6264,
      "Ġpowers": 6265,
      "pet": 6266,
      "Ġsed": 6267,
      "itical": 6268,
      "Ġbond": 6269,
      "otal": 6270,
      "eles": 6271,
      "oples": 6272,
      "ĠBay": 6273,
      "Ġgene": 6274,
      "Ġsurvey": 6275,
      "Ġflo": 6276,
      "Ġmajority": 6277,
      "()`": 6278,
      "Ġobstacles": 6279,
      "Ġwid": 6280,
      "Ġdiving": 6281,
      "rovers": 6282,
      "ĠMiss": 6283,
      "Ġapparent": 6284,
      "Ġqual": 6285,
      "Ġstudied": 6286,
      "Ġaccident": 6287,
      "exts": 6288,
      "Ġmarkets": 6289,
      "Ġswitch": 6290,
      "Sp": 6291,
      "oral": 6292,
      "orph": 6293,
      "Ġcomment": 6294,
      "Ġplastic": 6295,
      "neys": 6296,
      "Ġsurfaces": 6297,
      "Ġcharge": 6298,
      "Ġcurric": 6299,
      "Ġpassage": 6300,
      "Ġnarrow": 6301,
      "Ġprivacy": 6302,
      "Ġuncertain": 6303,
      "ss": 6304,
      "test": 6305,
      "ĠAccess": 6306,
      "ĠScient": 6307,
      "ĠEv": 6308,
      "berg": 6309,
      "Ġagency": 6310,
      "Ġflood": 6311,
      "Ġflavor": 6312,
      "Ġsettle": 6313,
      "Ġholding": 6314,
      "Ġcollaborative": 6315,
      "Ġevolved": 6316,
      "Ġphenomena": 6317,
      "Ġinfluenced": 6318,
      "ĠPractice": 6319,
      "Ġexperiments": 6320,
      "Ġstakeholders": 6321,
      "\")": 6322,
      "New": 6323,
      "ao": 6324,
      "Ġpip": 6325,
      "Ġbanks": 6326,
      "import": 6327,
      "Ġgent": 6328,
      "ado": 6329,
      "ĠBefore": 6330,
      "ĠForm": 6331,
      "Ġranging": 6332,
      "ĠLand": 6333,
      "Ġcontexts": 6334,
      "Ġcoffee": 6335,
      "Ġgreatest": 6336,
      "Ġ80": 6337,
      "Ġintegrating": 6338,
      "Ġfunding": 6339,
      "Ġnovels": 6340,
      "Ġsend": 6341,
      "ĠCub": 6342,
      "ĠPort": 6343,
      "Ġchick": 6344,
      "ropical": 6345,
      "oxide": 6346,
      "Ġcustomers": 6347,
      "Ġestimated": 6348,
      "ya": 6349,
      "Ġrough": 6350,
      "Ġsales": 6351,
      "Ġbonds": 6352,
      "add": 6353,
      "ĠElect": 6354,
      "ĠRich": 6355,
      "enses": 6356,
      "ossible": 6357,
      "Ġtrip": 6358,
      "ĠApplic": 6359,
      "Ġvirus": 6360,
      "ĠCompany": 6361,
      "Ġplease": 6362,
      "75": 6363,
      "rid": 6364,
      "Ġther": 6365,
      "ĠConclusion": 6366,
      "ĠReview": 6367,
      "Ġprevention": 6368,
      "Ġwidespread": 6369,
      "Ġnaturally": 6370,
      "ĠMac": 6371,
      "Ġdecor": 6372,
      "Ġdifferently": 6373,
      "Ġdrink": 6374,
      "ĠClass": 6375,
      "Ġreflecting": 6376,
      "Ġlimitations": 6377,
      "long": 6378,
      "Ġtheories": 6379,
      "Ġpair": 6380,
      "Ġcomplicated": 6381,
      "Ġfriendly": 6382,
      "Ġrestrict": 6383,
      "Ġfunds": 6384,
      "Ġexcite": 6385,
      "Ġvehicles": 6386,
      "Ġchannels": 6387,
      "point": 6388,
      "Ġâ": 6389,
      "itual": 6390,
      "lements": 6391,
      "ĠAI": 6392,
      "ĠGroup": 6393,
      "Ġracial": 6394,
      "Ġraise": 6395,
      "Ġhandling": 6396,
      "Ġpsychological": 6397,
      "Ġdefinition": 6398,
      "ĠMuslim": 6399,
      "Ġhouses": 6400,
      "Ġundersc": 6401,
      "ĠWork": 6402,
      "ĠLanguage": 6403,
      "Ġunlike": 6404,
      "Ġprev": 6405,
      "Ġphysics": 6406,
      "Ġvariations": 6407,
      "Ġillum": 6408,
      "Ġbreath": 6409,
      "Ġcelebrate": 6410,
      "Ġsacred": 6411,
      "ĠChildren": 6412,
      "Ġvolunte": 6413,
      "RI": 6414,
      "ael": 6415,
      "nes": 6416,
      "Ġrom": 6417,
      "Ġsoph": 6418,
      "itivity": 6419,
      "ĠCase": 6420,
      "Ġcertainly": 6421,
      "Ġdetermination": 6422,
      "ĠCanadian": 6423,
      "Ġillustrate": 6424,
      "Ġastron": 6425,
      "65": 6426,
      "Many": 6427,
      "ena": 6428,
      "Ġtele": 6429,
      "Ġaccommod": 6430,
      "Ġrecovery": 6431,
      "Ġoption": 6432,
      "Ġrepresenting": 6433,
      "Ġphotograph": 6434,
      "Ġlibraries": 6435,
      "Ġevolving": 6436,
      "Ġbarrier": 6437,
      "ras": 6438,
      "Ġtall": 6439,
      "Ġvs": 6440,
      "ĠPo": 6441,
      "Ġartist": 6442,
      "Ġbeneath": 6443,
      "Ġcollected": 6444,
      "Ġforests": 6445,
      "Ġcontrolled": 6446,
      "Ġmerely": 6447,
      "Ġclothing": 6448,
      "Acc": 6449,
      "Remember": 6450,
      "pat": 6451,
      "Ġpil": 6452,
      "arter": 6453,
      "Ġhit": 6454,
      "ulum": 6455,
      "ĠJer": 6456,
      "Ġobservations": 6457,
      "Ġresidents": 6458,
      "Ġhighlighting": 6459,
      "Ġextremely": 6460,
      "Ġmolecules": 6461,
      "ĠRobert": 6462,
      "ĠTexas": 6463,
      "Ġdimensions": 6464,
      "ora": 6465,
      "Ġtow": 6466,
      "Ġlingu": 6467,
      "ĠBat": 6468,
      "Ġunus": 6469,
      "Ġcream": 6470,
      "Ġdesigning": 6471,
      "Ġtypical": 6472,
      "Ġdescription": 6473,
      "Ġexcited": 6474,
      "Ġharmony": 6475,
      "Ġdouble": 6476,
      "Ġhabitat": 6477,
      "forcement": 6478,
      "Ġintriguing": 6479,
      "iot": 6480,
      "isp": 6481,
      "etics": 6482,
      "Ġgenerated": 6483,
      "Ġ70": 6484,
      "Ġprofessor": 6485,
      "Ġinclusive": 6486,
      "Ġadopted": 6487,
      "Cl": 6488,
      "Ġband": 6489,
      "Ġfloor": 6490,
      "ounsel": 6491,
      "Ġcomplexities": 6492,
      "Ġstrategic": 6493,
      "Ġinvestment": 6494,
      "Ġgrasp": 6495,
      "Ġinjury": 6496,
      "rem": 6497,
      "Ġdut": 6498,
      "ĠTreat": 6499,
      "ĠNav": 6500,
      "Ġexplo": 6501,
      "Ġbreast": 6502,
      "Ġdrawn": 6503,
      "EM": 6504,
      "Ġbones": 6505,
      "rian": 6506,
      "Ġoverwhel": 6507,
      "ĠYet": 6508,
      "Ġwhereas": 6509,
      "Ġequality": 6510,
      "levision": 6511,
      "Ġcryst": 6512,
      "Ġsupplies": 6513,
      "35": 6514,
      "89": 6515,
      "Americ": 6516,
      "erative": 6517,
      "Ġfif": 6518,
      "Ġfold": 6519,
      "anes": 6520,
      "ĠPsych": 6521,
      "Ġ2002": 6522,
      "Ġ2004": 6523,
      "Ġnecessit": 6524,
      "Ġerrors": 6525,
      "Ġfighting": 6526,
      "Ġatolls": 6527,
      "During": 6528,
      "vis": 6529,
      "roph": 6530,
      "ulpt": 6531,
      "ĠMag": 6532,
      "Ġwouldn": 6533,
      "Ġcorner": 6534,
      "Ġconfident": 6535,
      "Ġaims": 6536,
      "enny": 6537,
      "scale": 6538,
      "Ġcoastal": 6539,
      "ĠTV": 6540,
      "ĠTem": 6541,
      "utic": 6542,
      "ading": 6543,
      "Ġenhanced": 6544,
      "ĠCarol": 6545,
      "Ġhundreds": 6546,
      "Ġdivided": 6547,
      "Re": 6548,
      "Ġtun": 6549,
      "atever": 6550,
      "ĠDise": 6551,
      "ĠNature": 6552,
      "Ġresol": 6553,
      "Ġmarketing": 6554,
      "Ġprocedure": 6555,
      "rieved": 6556,
      "Ġecosystems": 6557,
      "Ġmaps": 6558,
      "ĠCy": 6559,
      "ighter": 6560,
      "ensus": 6561,
      "Ġacceler": 6562,
      "Ġcriteria": 6563,
      "ĠAtt": 6564,
      "what": 6565,
      "Ġreturned": 6566,
      "pie": 6567,
      "vity": 6568,
      "Ġtack": 6569,
      "itz": 6570,
      "edge": 6571,
      "ĠTitle": 6572,
      "Ġattacks": 6573,
      "Ġrelevance": 6574,
      "Ġindependence": 6575,
      "Ġordinary": 6576,
      "Ġsatisf": 6577,
      "?**": 6578,
      "Ġtoxic": 6579,
      "Ġnurs": 6580,
      "Ġstone": 6581,
      "Ġyellow": 6582,
      "ĠBet": 6583,
      "ĠDist": 6584,
      "Ġunw": 6585,
      "Ġarise": 6586,
      "Ġchildhood": 6587,
      "Ġdetailed": 6588,
      "Ġdomestic": 6589,
      "uh": 6590,
      "Ġsto": 6591,
      "acts": 6592,
      "Ġmanner": 6593,
      "Ġbutter": 6594,
      "ĠAdm": 6595,
      "Ġpressing": 6596,
      "Ġstaying": 6597,
      "Ġwatching": 6598,
      "amiliar": 6599,
      "45": 6600,
      "Dr": 6601,
      "VI": 6602,
      "chers": 6603,
      "flow": 6604,
      "Ġinequ": 6605,
      "Ġassemb": 6606,
      "Ġintent": 6607,
      "Ġcomprom": 6608,
      "Ġarms": 6609,
      "ecess": 6610,
      "Ġextensive": 6611,
      "Ġengaged": 6612,
      "Ġpresident": 6613,
      "ASA": 6614,
      "Ġcultivate": 6615,
      "Ġnutrients": 6616,
      "Ġexcitement": 6617,
      "`,": 6618,
      "asive": 6619,
      "etime": 6620,
      "Ġexcl": 6621,
      "ĠEarly": 6622,
      "ĠDig": 6623,
      "oston": 6624,
      "Ġcloud": 6625,
      "Ġtraits": 6626,
      "Ġinvestigation": 6627,
      "ĠLouis": 6628,
      "CC": 6629,
      "Us": 6630,
      "ye": 6631,
      "Ġfly": 6632,
      "Ġgenuine": 6633,
      "Ġeffectiveness": 6634,
      "ĠPlus": 6635,
      "ĠColl": 6636,
      "Ġcrim": 6637,
      "onomic": 6638,
      "Ġpreparation": 6639,
      "Ġtitle": 6640,
      "ograp": 6641,
      "Ġcompelling": 6642,
      "Ġcolumn": 6643,
      "class": 6644,
      "Ġmotor": 6645,
      "Ġvillage": 6646,
      "Ġcooperation": 6647,
      "ĠWindows": 6648,
      "data": 6649,
      "Ġlib": 6650,
      "plt": 6651,
      "Ġabstract": 6652,
      "Ġallerg": 6653,
      "Ġdoor": 6654,
      "Ġregist": 6655,
      "Ġwriter": 6656,
      "Ġadventures": 6657,
      "Ġevaluation": 6658,
      "Ġjobs": 6659,
      "ĠOffice": 6660,
      "Ġstroke": 6661,
      "Ġadequate": 6662,
      "Ġsam": 6663,
      "ĠMin": 6664,
      "Ġflavors": 6665,
      "Ġadvances": 6666,
      "ĠSea": 6667,
      "Ġfewer": 6668,
      "Ġemployees": 6669,
      "Ġdogs": 6670,
      "32": 6671,
      "wing": 6672,
      "Ġeld": 6673,
      "stone": 6674,
      "Ġclients": 6675,
      "Ġelectron": 6676,
      "Ġtemple": 6677,
      "Ġbroken": 6678,
      "Ġconsumer": 6679,
      "Ġsubstances": 6680,
      "Ġdivine": 6681,
      "Ġsoldiers": 6682,
      "Ġparallel": 6683,
      "Ġproport": 6684,
      "ĠPolic": 6685,
      "pling": 6686,
      "Ġcontrovers": 6687,
      "Ġherself": 6688,
      "Ġreflection": 6689,
      "Ġcomputing": 6690,
      "Ġsubstance": 6691,
      "Ġinfections": 6692,
      "Ġfibers": 6693,
      "ek": 6694,
      "Ġorient": 6695,
      "ĠBuilding": 6696,
      "ĠGold": 6697,
      "Ġteen": 6698,
      "ĠQue": 6699,
      "Ġdifficulties": 6700,
      "Ġstruggles": 6701,
      "Ġcardi": 6702,
      "Ġgirls": 6703,
      "Ġsessions": 6704,
      "ship": 6705,
      "hend": 6706,
      "Ġbiod": 6707,
      "Ġdu": 6708,
      "Ġgro": 6709,
      "verty": 6710,
      "Ġforced": 6711,
      "Ġpoverty": 6712,
      "Ġperforming": 6713,
      "print": 6714,
      "Ġdirector": 6715,
      "Ġpreventing": 6716,
      "Ġpositively": 6717,
      "Ġdiscoveries": 6718,
      "].": 6719,
      "rey": 6720,
      "Ġstere": 6721,
      "ĠMet": 6722,
      "osh": 6723,
      "ĠLord": 6724,
      "ocking": 6725,
      "Ġjump": 6726,
      "Ġraw": 6727,
      "Ġremoved": 6728,
      "Ġblocks": 6729,
      "ĠSpain": 6730,
      "Ġauthorities": 6731,
      "Ġethnic": 6732,
      "Ġsolely": 6733,
      "ĠVirginia": 6734,
      "gal": 6735,
      "Ġinher": 6736,
      "iday": 6737,
      "Ġstem": 6738,
      "Ġhaz": 6739,
      "Ġinches": 6740,
      "erent": 6741,
      "Ġpersonality": 6742,
      "valu": 6743,
      "Ġselecting": 6744,
      "Ġdebate": 6745,
      "Ġscenario": 6746,
      "ĠEncourage": 6747,
      "Ġmuseum": 6748,
      "Ġdie": 6749,
      "ette": 6750,
      "ĠTer": 6751,
      "ĠSum": 6752,
      "Ġconven": 6753,
      "Ġneuro": 6754,
      "ĠRights": 6755,
      "Ġkilled": 6756,
      "Ġtea": 6757,
      "Ġgrab": 6758,
      "Ġgrapp": 6759,
      "ĠProv": 6760,
      "Ġopened": 6761,
      "Ġjoint": 6762,
      "Ġbatt": 6763,
      "Ġcolleagues": 6764,
      "Ġphenomenon": 6765,
      "Ġjuvenile": 6766,
      "CE": 6767,
      "born": 6768,
      "action": 6769,
      "Ġattitudes": 6770,
      "Ġhighlights": 6771,
      "Ġexperiencing": 6772,
      "Ġimmers": 6773,
      "Ġreaction": 6774,
      "ĠSecret": 6775,
      "Ġsections": 6776,
      "Ġappeared": 6777,
      "Ġpreparing": 6778,
      "Ġrhyth": 6779,
      "ĠMeanwhile": 6780,
      "Ġmamm": 6781,
      "urrent": 6782,
      "ĠSen": 6783,
      "ria": 6784,
      "Ġclassic": 6785,
      "ĠContin": 6786,
      "ĠEmbra": 6787,
      "gers": 6788,
      "ittle": 6789,
      "ala": 6790,
      "anning": 6791,
      "Ġlinks": 6792,
      "ĠMart": 6793,
      "Ġvig": 6794,
      "Ġtraum": 6795,
      "Ġpreval": 6796,
      "Ġreliable": 6797,
      "Ġinsurance": 6798,
      "Ġconsiderations": 6799,
      "Ġmarriage": 6800,
      "ĠAbout": 6801,
      "Ġcomprehension": 6802,
      "Ġinstruments": 6803,
      "Ġvarying": 6804,
      "Ġcert": 6805,
      "Ġnest": 6806,
      "ota": 6807,
      "Ġspark": 6808,
      "ĠLong": 6809,
      "Ġdisturb": 6810,
      "Ġbrid": 6811,
      "Ġinnovations": 6812,
      "Ġtargeted": 6813,
      "`.": 6814,
      "cription": 6815,
      "mun": 6816,
      "Ġ<": 6817,
      "Ġtur": 6818,
      "Ġsod": 6819,
      "Ġske": 6820,
      "iche": 6821,
      "Ġlas": 6822,
      "Ġneu": 6823,
      "Ġoutl": 6824,
      "Ġtransmission": 6825,
      "Ġdepends": 6826,
      "Ġreduces": 6827,
      "Ġoperate": 6828,
      "Ġaccessible": 6829,
      "ĠInteg": 6830,
      "Ġsector": 6831,
      "Ġmood": 6832,
      "ĠEth": 6833,
      "ĠLook": 6834,
      "Ġcompleted": 6835,
      "Ġzero": 6836,
      "Ġgeom": 6837,
      "riptions": 6838,
      "Ġembrace": 6839,
      "Ġenthusi": 6840,
      "alian": 6841,
      "Ġpp": 6842,
      "Ġharness": 6843,
      "ĠIll": 6844,
      "ĠHy": 6845,
      "ĠRem": 6846,
      "Ġextended": 6847,
      "ierarch": 6848,
      "ĠNews": 6849,
      "Ġfemales": 6850,
      "ĠTimmy": 6851,
      "BN": 6852,
      "OT": 6853,
      "ua": 6854,
      "Ġtact": 6855,
      "ĠDiff": 6856,
      "Ġcomposition": 6857,
      "uality": 6858,
      "Ġuniform": 6859,
      "Ġclick": 6860,
      "Ġmostly": 6861,
      "Ġmainly": 6862,
      "Ġgoverning": 6863,
      "Ġlegacy": 6864,
      "Ġdrinking": 6865,
      "ascular": 6866,
      "Ġvolcan": 6867,
      "Ġasthma": 6868,
      "Ġappeal": 6869,
      "Ġcarrying": 6870,
      "Ġflexibility": 6871,
      "'d": 6872,
      "gans": 6873,
      "zil": 6874,
      "inf": 6875,
      "Ġcats": 6876,
      "Ġwife": 6877,
      "Ġfle": 6878,
      "level": 6879,
      "idential": 6880,
      "ĠIr": 6881,
      "ĠMass": 6882,
      "Ġprecious": 6883,
      "Ġmemor": 6884,
      "Ġclassical": 6885,
      "Ġachieving": 6886,
      "Ġwebsites": 6887,
      "Ġteachings": 6888,
      "ivery": 6889,
      "onents": 6890,
      "erge": 6891,
      "Ġlik": 6892,
      "raq": 6893,
      "uris": 6894,
      "ĠAut": 6895,
      "ĠSci": 6896,
      "Ġinterf": 6897,
      "Ġrecy": 6898,
      "Ġworlds": 6899,
      "everal": 6900,
      "Ġplayer": 6901,
      "Ġtreating": 6902,
      "Ġsecondary": 6903,
      "ourses": 6904,
      "Ġgraphic": 6905,
      "Ġmanufacturing": 6906,
      "ĠAcadem": 6907,
      "ĠTrends": 6908,
      "Ġthread": 6909,
      "ĠMad": 6910,
      "anda": 6911,
      "Ġdelves": 6912,
      "Ġequally": 6913,
      "Ġsummary": 6914,
      "Ġrecommended": 6915,
      "Ġagreement": 6916,
      "Ġadministration": 6917,
      "36": 6918,
      "Qu": 6919,
      "craft": 6920,
      "Ġsin": 6921,
      "Ġdish": 6922,
      "Ġattached": 6923,
      "Ġinflam": 6924,
      "Ġpromise": 6925,
      "Ġexpressed": 6926,
      "Ġcommitted": 6927,
      "ĠCharles": 6928,
      "Ġdatabase": 6929,
      "ĠCommittee": 6930,
      "'.": 6931,
      "Ġsen": 6932,
      "Ġlose": 6933,
      "istan": 6934,
      "Ġsuc": 6935,
      "Ġcha": 6936,
      "ĠFollow": 6937,
      "Ġunknown": 6938,
      "ĠUnder": 6939,
      "bert": 6940,
      "Ġ2001": 6941,
      "overing": 6942,
      "Ġvisiting": 6943,
      "Ġbrother": 6944,
      "Ġsuffering": 6945,
      "ĠServices": 6946,
      "ĠRussia": 6947,
      "OS": 6948,
      "rons": 6949,
      "Ġreaching": 6950,
      "ĠBer": 6951,
      "Ġchief": 6952,
      "ĠLake": 6953,
      "Ġexplicit": 6954,
      "Ġfolk": 6955,
      "Ġoccasion": 6956,
      "ĠFoundation": 6957,
      "No": 6958,
      "Ġsan": 6959,
      "Ġtoys": 6960,
      "ĠBoston": 6961,
      "Ġritual": 6962,
      "ĠOpen": 6963,
      "Ġdisrupt": 6964,
      "Ġscat": 6965,
      "Ġsched": 6966,
      "Ġgenre": 6967,
      "ĠWhite": 6968,
      "Ġinspiring": 6969,
      "Ġexhibit": 6970,
      "met": 6971,
      "pal": 6972,
      "athered": 6973,
      "Ġpure": 6974,
      "Ġreven": 6975,
      "cell": 6976,
      "istical": 6977,
      "ĠHaw": 6978,
      "Ġintense": 6979,
      "ĠJam": 6980,
      "peutic": 6981,
      "ĠViet": 6982,
      "Although": 6983,
      "Ġvulnerable": 6984,
      "DA": 6985,
      "Understanding": 6986,
      "Ġcher": 6987,
      "Ġalt": 6988,
      "ĠBook": 6989,
      "Ġseam": 6990,
      "ĠConvention": 6991,
      "ĠColumb": 6992,
      "Ġdescribes": 6993,
      "Ġscenes": 6994,
      "Ġinstalled": 6995,
      "Ġquantum": 6996,
      "Ġaccurately": 6997,
      "ĠCreate": 6998,
      "field": 6999,
      "ugg": 7000,
      "vision": 7001,
      "Ġ>": 7002,
      "Ġtension": 7003,
      "Ġtoler": 7004,
      "olf": 7005,
      "imer": 7006,
      "Ġstuff": 7007,
      "oding": 7008,
      "teries": 7009,
      "quis": 7010,
      "ĠWild": 7011,
      "Ġsho": 7012,
      "Ġshore": 7013,
      "Ġsculpt": 7014,
      "ĠEngine": 7015,
      "ĠOrig": 7016,
      "Ġrivers": 7017,
      "Ġtrouble": 7018,
      "Se": 7019,
      "Te": 7020,
      "ca": 7021,
      "fall": 7022,
      "Ġpra": 7023,
      "Ġdust": 7024,
      "Ġgall": 7025,
      "ĠMD": 7026,
      "ĠOF": 7027,
      "Ġreput": 7028,
      "ĠAppro": 7029,
      "Ġminimum": 7030,
      "Ġminimizing": 7031,
      "Ġportion": 7032,
      "Ġframeworks": 7033,
      "htm": 7034,
      "37": 7035,
      "da": 7036,
      "fish": 7037,
      "isk": 7038,
      "Ġfest": 7039,
      "outs": 7040,
      "Ġbrown": 7041,
      "icking": 7042,
      "Ġforg": 7043,
      "ĠIraq": 7044,
      "Ġpharm": 7045,
      "Ġextent": 7046,
      "Ġcombat": 7047,
      "Ġmoves": 7048,
      "Ġalternatives": 7049,
      "ĠRegular": 7050,
      "ĠFlor": 7051,
      "Ġinjuries": 7052,
      "Ġfell": 7053,
      "oted": 7054,
      "ĠPan": 7055,
      "ĠBank": 7056,
      "ĠNatural": 7057,
      "ĠGood": 7058,
      "ĠJud": 7059,
      "Ġtheme": 7060,
      "Ġperman": 7061,
      "Ġvisible": 7062,
      "Ġchest": 7063,
      "pring": 7064,
      "Ġobserve": 7065,
      "Ġaccordingly": 7066,
      "Ġhypothes": 7067,
      "Ġexcessive": 7068,
      "See": 7069,
      "itches": 7070,
      "Ġbear": 7071,
      "Ġprove": 7072,
      "Ġcentered": 7073,
      "Ġdelicate": 7074,
      "ĠImport": 7075,
      "Ġ1990": 7076,
      "Ġfulf": 7077,
      "Ġsurprise": 7078,
      "Ġvehicle": 7079,
      "Ġsuddenly": 7080,
      "OC": 7081,
      "Rec": 7082,
      "Ġsad": 7083,
      "Ġcart": 7084,
      "Ġstores": 7085,
      "ami": 7086,
      "usiness": 7087,
      "Ġcompr": 7088,
      "ishment": 7089,
      "Ġoffic": 7090,
      "cycl": 7091,
      "Ġnecessarily": 7092,
      "ĠWhether": 7093,
      "AA": 7094,
      "inity": 7095,
      "Ġcour": 7096,
      "Ġlights": 7097,
      "Ġleaf": 7098,
      "soft": 7099,
      "Ġemerge": 7100,
      "luding": 7101,
      "lishing": 7102,
      "Ġ90": 7103,
      "Ġtrial": 7104,
      "otypes": 7105,
      "SP": 7106,
      "ÃŃ": 7107,
      "repre": 7108,
      "orter": 7109,
      "Ġda": 7110,
      "ilation": 7111,
      "asures": 7112,
      "urric": 7113,
      "Ġvac": 7114,
      "Ġvoc": 7115,
      "unt": 7116,
      "ĠList": 7117,
      "Ġplate": 7118,
      "ĠAnalysis": 7119,
      "Ġcontributed": 7120,
      "Ġreceiving": 7121,
      "Ġlifestyle": 7122,
      "Ġgentle": 7123,
      "reprene": 7124,
      "Ind": 7125,
      "Ġfashion": 7126,
      "Ġhorm": 7127,
      "Ġstick": 7128,
      "ĠFuture": 7129,
      "ĠFamily": 7130,
      "Ġpartner": 7131,
      "Ġsubtle": 7132,
      "ĠConnect": 7133,
      "Ġmeasured": 7134,
      "Ġbiology": 7135,
      "Ġ1999": 7136,
      "Ġzone": 7137,
      "Ġaudio": 7138,
      "Ġemphasizing": 7139,
      "Ġsurvive": 7140,
      "Ġmagnetic": 7141,
      "Ġmathematics": 7142,
      "Ġinstrument": 7143,
      "Ġmanifest": 7144,
      "My": 7145,
      "Ġeager": 7146,
      "Ġheating": 7147,
      "usc": 7148,
      "ĠBible": 7149,
      "Ġfosters": 7150,
      "Ġcrime": 7151,
      "Ġuniversal": 7152,
      "Ġsizes": 7153,
      "cho": 7154,
      "Ġstre": 7155,
      "Ġneither": 7156,
      "ape": 7157,
      "Ġadoles": 7158,
      "Ġdisag": 7159,
      "ears": 7160,
      "Ġclosed": 7161,
      "ĠInit": 7162,
      "ĠChall": 7163,
      "Ġnewly": 7164,
      "Ġnewsp": 7165,
      "Ġcoal": 7166,
      "Ġpersons": 7167,
      "Ġexpansion": 7168,
      "Ġgradu": 7169,
      "Ġcorn": 7170,
      "Ġchoosing": 7171,
      "isticated": 7172,
      "Ġdistributed": 7173,
      "Ġwonderful": 7174,
      "Ġmarginalized": 7175,
      "EL": 7176,
      "oric": 7177,
      "Ġpaid": 7178,
      "Ġmoon": 7179,
      "Ġstead": 7180,
      "Ġalive": 7181,
      "ache": 7182,
      "Ġchart": 7183,
      "anta": 7184,
      "ogle": 7185,
      "ĠNations": 7186,
      "Ġpeoples": 7187,
      "Ġtwice": 7188,
      "Ġ35": 7189,
      "Ġgrade": 7190,
      "Ġboost": 7191,
      "Ġinteractive": 7192,
      "Ġadaptation": 7193,
      "ĠChristianity": 7194,
      "Ġbackgrounds": 7195,
      "ĠFort": 7196,
      "Ġclust": 7197,
      "Ġwilling": 7198,
      "Ġinspect": 7199,
      "theless": 7200,
      "Ġrepeated": 7201,
      "ixture": 7202,
      "De": 7203,
      "ihood": 7204,
      "ns": 7205,
      "eday": 7206,
      "irt": 7207,
      "illa": 7208,
      "Ġintroduction": 7209,
      "Ġspending": 7210,
      "ĠNever": 7211,
      "Ġadj": 7212,
      "eck": 7213,
      "Ġintersection": 7214,
      "Ġregulatory": 7215,
      "ceptions": 7216,
      "ĠProcess": 7217,
      "Ġconcerned": 7218,
      "Ġlasting": 7219,
      "Ġtrials": 7220,
      "Ġinclus": 7221,
      "Ġcategory": 7222,
      "Ġfossil": 7223,
      "ĠHenry": 7224,
      "Ġunusual": 7225,
      "hav": 7226,
      "mates": 7227,
      "state": 7228,
      "otes": 7229,
      "Ġanthrop": 7230,
      "Ġimpossible": 7231,
      "Ġsecrets": 7232,
      "Ġpresents": 7233,
      "Ġjoined": 7234,
      "Ġimplemented": 7235,
      "ION": 7236,
      "tes": 7237,
      "itative": 7238,
      "Ġpump": 7239,
      "Ġnone": 7240,
      "ĠEqu": 7241,
      "ĠOcean": 7242,
      "ĠInvest": 7243,
      "Ġpeak": 7244,
      "oven": 7245,
      "ictions": 7246,
      "Ġdistrict": 7247,
      "ĠShare": 7248,
      "Ġpropos": 7249,
      "Ġgrass": 7250,
      "Ġrecipes": 7251,
      "Ab": 7252,
      "inates": 7253,
      "sem": 7254,
      "Ġstreet": 7255,
      "ĠSpecial": 7256,
      "roud": 7257,
      "ĠEffect": 7258,
      "ieval": 7259,
      "Ġdesigners": 7260,
      "ĠArmy": 7261,
      "Ġlighting": 7262,
      "Ġmovies": 7263,
      "arency": 7264,
      "Ġsafely": 7265,
      "Ġwarming": 7266,
      "ĠTechniques": 7267,
      "Py": 7268,
      "Ġcast": 7269,
      "Ġmales": 7270,
      "Ġcompare": 7271,
      "Ġequipped": 7272,
      "ĠNewton": 7273,
      "Ġminimal": 7274,
      "Ġpsychology": 7275,
      "Ġvisitors": 7276,
      "Ġcalculate": 7277,
      "ĠEastern": 7278,
      "ĠSmith": 7279,
      "ĠSystems": 7280,
      "PD": 7281,
      "nut": 7282,
      "rity": 7283,
      "ĠThose": 7284,
      "rue": 7285,
      "Ġaccum": 7286,
      "Ġsomeday": 7287,
      "Ġ189": 7288,
      "Ġbreaking": 7289,
      "Ġobjective": 7290,
      "ĠSupport": 7291,
      "ĠPrin": 7292,
      "Ġalgorithm": 7293,
      "Ġsophisticated": 7294,
      "According": 7295,
      "78": 7296,
      "SS": 7297,
      "cons": 7298,
      "Ġwel": 7299,
      "ĠJose": 7300,
      "ĠSte": 7301,
      "Ġparks": 7302,
      "Ġgreatly": 7303,
      "Ġsocio": 7304,
      "Ġmeasuring": 7305,
      "Ġmechanical": 7306,
      "ĠRussian": 7307,
      "Ġshifts": 7308,
      "Ġopinions": 7309,
      "Ġtheoretical": 7310,
      "net": 7311,
      "inction": 7312,
      "Ġcounsel": 7313,
      "rooms": 7314,
      "ĠSl": 7315,
      "umin": 7316,
      "ĠDoes": 7317,
      "Ġunless": 7318,
      "Ġages": 7319,
      "Ġobvious": 7320,
      "cling": 7321,
      "Ġyounger": 7322,
      "Ġcolorful": 7323,
      "Ġ1980": 7324,
      "Ġbrand": 7325,
      "Ġhonor": 7326,
      "ocolate": 7327,
      "ĠFlorida": 7328,
      ")**": 7329,
      "rep": 7330,
      "reens": 7331,
      "Ġhierarch": 7332,
      "opy": 7333,
      "ĠNASA": 7334,
      "Ġlargely": 7335,
      "ircraft": 7336,
      "Ġlatter": 7337,
      "Ġcorrectly": 7338,
      "Ġfantastic": 7339,
      "Ġsharp": 7340,
      "Ġinhabit": 7341,
      "39": 7342,
      "band": 7343,
      "Ġble": 7344,
      "ctive": 7345,
      "ĠTHE": 7346,
      "Ġoral": 7347,
      "ĠMach": 7348,
      "ĠBal": 7349,
      "ĠUnfortunately": 7350,
      "Ġessence": 7351,
      "Ġserver": 7352,
      "Ġimmun": 7353,
      "Ġworksh": 7354,
      "Ġecological": 7355,
      "body": 7356,
      "inning": 7357,
      "organ": 7358,
      "ĠSign": 7359,
      "Ġorgans": 7360,
      "ĠPeter": 7361,
      "Ġrub": 7362,
      "ĠLabor": 7363,
      "ustain": 7364,
      "Ġtelevision": 7365,
      "Ġrelation": 7366,
      "Ġhealthier": 7367,
      "Ġdelivery": 7368,
      "Ġconsiderable": 7369,
      "Ġindicates": 7370,
      "ĠFrank": 7371,
      "Ġhousing": 7372,
      "Ġdreams": 7373,
      "Ġsatisfact": 7374,
      "48": 7375,
      "zen": 7376,
      "eness": 7377,
      "Ġfill": 7378,
      "Ġfav": 7379,
      "Ġgathered": 7380,
      "ĠMax": 7381,
      "ums": 7382,
      "ĠIns": 7383,
      "Ġbridge": 7384,
      "Ġpresentation": 7385,
      "Ġprotected": 7386,
      "spec": 7387,
      "IDS": 7388,
      "car": 7389,
      "friend": 7390,
      "Ġmir": 7391,
      "omach": 7392,
      "eties": 7393,
      "igious": 7394,
      "ĠBro": 7395,
      "ĠRad": 7396,
      "weight": 7397,
      "Ġovercome": 7398,
      "ĠYOU": 7399,
      "Ġresulted": 7400,
      "Ġinfluential": 7401,
      "Ġdifficulty": 7402,
      "Ġnarrative": 7403,
      "Ġoppos": 7404,
      "Ġestablishing": 7405,
      "Ġaccepted": 7406,
      "Ġrevealed": 7407,
      "Ġrecommendations": 7408,
      "Ġathletes": 7409,
      "Ġatoms": 7410,
      "Ġkill": 7411,
      "Ġroof": 7412,
      "Ġcoloured": 7413,
      "Ġdesire": 7414,
      "Ġdevelopers": 7415,
      "Ġadds": 7416,
      "Ġ186": 7417,
      "Ġintegrated": 7418,
      "isco": 7419,
      "Ġfarming": 7420,
      "Ġframe": 7421,
      "Ġvessels": 7422,
      "iated": 7423,
      "atal": 7424,
      "ĠPot": 7425,
      "Ġperm": 7426,
      "Ġrocks": 7427,
      "Ġrecre": 7428,
      "Ġrecon": 7429,
      "egu": 7430,
      "Ġveter": 7431,
      "Ġcontrols": 7432,
      "Ġavoiding": 7433,
      "ĠVisual": 7434,
      "SC": 7435,
      "bi": 7436,
      "eat": 7437,
      "how": 7438,
      "indu": 7439,
      "atial": 7440,
      "Ġproud": 7441,
      "Ġstation": 7442,
      "ĠGal": 7443,
      "Ġexpensive": 7444,
      "Ġequation": 7445,
      "Ġpossibly": 7446,
      "Ġtrend": 7447,
      "Ġphotos": 7448,
      "Ġsunlight": 7449,
      "Ġrenewable": 7450,
      "ĠIslamic": 7451,
      "ĠEmpire": 7452,
      "Ġdoubt": 7453,
      "kin": 7454,
      "Ġtut": 7455,
      "inch": 7456,
      "Ġselling": 7457,
      "cture": 7458,
      "ĠAge": 7459,
      "Ġyes": 7460,
      "terol": 7461,
      "ĠTheory": 7462,
      "Ġneut": 7463,
      "Ġbutton": 7464,
      "Ġprison": 7465,
      "Ġedges": 7466,
      "Ġcurren": 7467,
      "Ġequitable": 7468,
      "Ġcombine": 7469,
      "Moreover": 7470,
      "ĠImpact": 7471,
      "100": 7472,
      "DE": 7473,
      "chen": 7474,
      "ka": 7475,
      "pred": 7476,
      "Ġcaught": 7477,
      "Ġmining": 7478,
      "ĠFact": 7479,
      "Ġdoors": 7480,
      "Ġconserv": 7481,
      "Ġregulation": 7482,
      "Ġgovernance": 7483,
      "Ġmovie": 7484,
      "Ġkindness": 7485,
      "Ġachieved": 7486,
      "Ġimagination": 7487,
      "Ġpartnerships": 7488,
      ".|": 7489,
      "dem": 7490,
      "spring": 7491,
      "Ġtang": 7492,
      "Ġfurn": 7493,
      "Ġindu": 7494,
      "Ġdil": 7495,
      "ĠPop": 7496,
      "ĠBre": 7497,
      "ĠFind": 7498,
      "Ġprem": 7499,
      "....": 7500,
      "ĠComput": 7501,
      "Ġguarant": 7502,
      "Ġmodeling": 7503,
      "Ġcomprehend": 7504,
      "Ġcouple": 7505,
      "38": 7506,
      "Today": 7507,
      "war": 7508,
      "Ġtough": 7509,
      "irds": 7510,
      "abul": 7511,
      "ĠPC": 7512,
      "ĠPub": 7513,
      "ĠFocus": 7514,
      "Ġrealize": 7515,
      "Ġoriginally": 7516,
      "Ġrobot": 7517,
      "ĠCommunity": 7518,
      "Ġgirl": 7519,
      "Ġopinion": 7520,
      "stein": 7521,
      "Ġculinary": 7522,
      "Ġmortality": 7523,
      "Ġpione": 7524,
      "ĠCrit": 7525,
      "Ġspir": 7526,
      "Ġquiet": 7527,
      "ĠPlay": 7528,
      "ĠContemporary": 7529,
      "Ġdeaths": 7530,
      "Ġmountains": 7531,
      "Ġobtained": 7532,
      "Ġdemocracy": 7533,
      "oir": 7534,
      "Ġbust": 7535,
      "idity": 7536,
      "Ġdispl": 7537,
      "ĠThanks": 7538,
      "Ġagents": 7539,
      "Ġtwenty": 7540,
      "Ġentities": 7541,
      "Ġimprovements": 7542,
      "Ġlaid": 7543,
      "Ġeastern": 7544,
      "Ġsongs": 7545,
      "Ġbranches": 7546,
      "urisd": 7547,
      "tw": 7548,
      "top": 7549,
      "vol": 7550,
      "Ġstock": 7551,
      "ĠMont": 7552,
      "ĠNorthern": 7553,
      "Ġsyndrome": 7554,
      "ailing": 7555,
      "Ġscar": 7556,
      "Ġfinds": 7557,
      "Ġequations": 7558,
      "Ġhappiness": 7559,
      "Ġrecorded": 7560,
      "Ġexplaining": 7561,
      "Ġhabitats": 7562,
      "Ġhospitals": 7563,
      "Ġcontrolling": 7564,
      "500": 7565,
      "RT": 7566,
      "Ġton": 7567,
      "otton": 7568,
      "ĠSing": 7569,
      "izer": 7570,
      "actions": 7571,
      "Ġguard": 7572,
      "Ġfarms": 7573,
      "Ġpropag": 7574,
      "ĠSupp": 7575,
      "breaking": 7576,
      "Ġnuanced": 7577,
      "Ġinsects": 7578,
      "Ġweapons": 7579,
      "Ġmoisture": 7580,
      "ĠDisease": 7581,
      "Ġinclusivity": 7582,
      "44": 7583,
      "LE": 7584,
      "Most": 7585,
      "nov": 7586,
      "Ġtale": 7587,
      "Ġturb": 7588,
      "ĠNor": 7589,
      "Ġappoint": 7590,
      "Ġmode": 7591,
      "Ġgrains": 7592,
      "Ġentry": 7593,
      "Ġparticipating": 7594,
      "Ġbringing": 7595,
      "Ġlaun": 7596,
      "ĠRetrieved": 7597,
      "GBT": 7598,
      "Ġdrop": 7599,
      "storm": 7600,
      "ĠExt": 7601,
      "ĠDan": 7602,
      "Ġdetection": 7603,
      "Ġmyself": 7604,
      "Ġdownload": 7605,
      "Ġglobe": 7606,
      "Ġbigger": 7607,
      "Ġpopularity": 7608,
      "Ġtexture": 7609,
      "ĠJohnson": 7610,
      "imensional": 7611,
      "kins": 7612,
      "Ġaircraft": 7613,
      "ona": 7614,
      "sts": 7615,
      "Ġrect": 7616,
      "Ġnurt": 7617,
      "Ġouter": 7618,
      "teen": 7619,
      "Ġdiam": 7620,
      "Ġsitting": 7621,
      "Ġcollecting": 7622,
      "matic": 7623,
      "Ġreflects": 7624,
      "Ġobservation": 7625,
      "Ġbattery": 7626,
      "olesterol": 7627,
      "Ġprayer": 7628,
      "no": 7629,
      "ato": 7630,
      "Ġboy": 7631,
      "Ġstable": 7632,
      "ulates": 7633,
      "ĠCultural": 7634,
      "ects": 7635,
      "Ġdisaster": 7636,
      "Ġrac": 7637,
      "Ġdecline": 7638,
      "Ġgrace": 7639,
      "Ġsmoke": 7640,
      "ĠBrazil": 7641,
      "Ġsucceed": 7642,
      "HO": 7643,
      "cope": 7644,
      "mation": 7645,
      "otion": 7646,
      "ĠPu": 7647,
      "umps": 7648,
      "Ġneural": 7649,
      "ĠDid": 7650,
      "Ġspok": 7651,
      "ĠOper": 7652,
      "Ġrelief": 7653,
      "Ġrising": 7654,
      "Ġstructural": 7655,
      "Ġpregnancy": 7656,
      "Ġancestors": 7657,
      "Just": 7658,
      "aud": 7659,
      "Ġid": 7660,
      "Ġaer": 7661,
      "Ġcourage": 7662,
      "Ġthy": 7663,
      "ĠCD": 7664,
      "andon": 7665,
      "ĠHome": 7666,
      "ĠEmer": 7667,
      "Ġintensity": 7668,
      "Ġsport": 7669,
      "ĠStart": 7670,
      "ĠAsian": 7671,
      "Ġdelight": 7672,
      "ĠIndust": 7673,
      "Ġpassing": 7674,
      "Ġhistoric": 7675,
      "Ġavailability": 7676,
      "ophy": 7677,
      "ĠOnline": 7678,
      "Ġtherapeutic": 7679,
      "Ġgreenhouse": 7680,
      "')": 7681,
      "Me": 7682,
      "burg": 7683,
      "gs": 7684,
      "aled": 7685,
      "utch": 7686,
      "ĠSil": 7687,
      "ĠMo": 7688,
      "Ġenrich": 7689,
      "ĠRome": 7690,
      "Ġcreations": 7691,
      "airy": 7692,
      "Ġfaces": 7693,
      "Ġruns": 7694,
      "Ġsoul": 7695,
      "ĠLiterature": 7696,
      "American": 7697,
      "ĠAdminist": 7698,
      "Ġbiodiversity": 7699,
      "Ġsight": 7700,
      "Ġcater": 7701,
      "Ġwww": 7702,
      "Ġfalse": 7703,
      "Ġliver": 7704,
      "ĠTake": 7705,
      "Ġproof": 7706,
      "ĠMove": 7707,
      "ĠRom": 7708,
      "Ġpolice": 7709,
      "ports": 7710,
      "Ġcorrel": 7711,
      "Ġconfig": 7712,
      "ĠResources": 7713,
      "Ġemphasis": 7714,
      "Ġmeasurements": 7715,
      "cyclop": 7716,
      "49": 7717,
      "working": 7718,
      "Ġbeach": 7719,
      "Ġstomach": 7720,
      "Ġclient": 7721,
      "lecting": 7722,
      "Ġhumor": 7723,
      "Ġconstitution": 7724,
      "Ġmarks": 7725,
      "bridge": 7726,
      "Ġtransparency": 7727,
      "Ġencompass": 7728,
      "App": 7729,
      "onia": 7730,
      "erb": 7731,
      "Ġfro": 7732,
      "acon": 7733,
      "Ġempt": 7734,
      "roscop": 7735,
      "----------------------------": 7736,
      "Ġdepos": 7737,
      "ĠExam": 7738,
      "Ġsafegu": 7739,
      "ĠResp": 7740,
      "Ġanticip": 7741,
      "Ġsatell": 7742,
      "Ġdivision": 7743,
      "Ġacceptance": 7744,
      ".âĢĶ": 7745,
      "CD": 7746,
      "Gu": 7747,
      "Med": 7748,
      "night": 7749,
      "igma": 7750,
      "ĠTom": 7751,
      "isted": 7752,
      "ĠItalian": 7753,
      "Ġaddresses": 7754,
      "Ġliteracy": 7755,
      "Ġachievements": 7756,
      "Ġexpanding": 7757,
      "Ġdisagree": 7758,
      "Ġopposite": 7759,
      "Hist": 7760,
      "box": 7761,
      "Ġlag": 7762,
      "raction": 7763,
      "urches": 7764,
      "ĠSouthern": 7765,
      "Ġwhatever": 7766,
      "plement": 7767,
      "Ġoblig": 7768,
      "Ġstrive": 7769,
      "Ġflight": 7770,
      "Ġ45": 7771,
      "Ġcriticism": 7772,
      "Ġaccessibility": 7773,
      "Ġcalm": 7774,
      "Ġcustomer": 7775,
      "Ġadopt": 7776,
      "Ġreinfor": 7777,
      "Ġcorresponding": 7778,
      "ĠDigital": 7779,
      "Ġbattles": 7780,
      "31": 7781,
      "Ġped": 7782,
      "oust": 7783,
      "Ġreject": 7784,
      "eting": 7785,
      "Ġgone": 7786,
      "ada": 7787,
      "rier": 7788,
      "ĠDraw": 7789,
      "Ġkil": 7790,
      "Ġunl": 7791,
      "ĠStory": 7792,
      "Ġresponsibilities": 7793,
      "ĠThroughout": 7794,
      "Ġsurrounded": 7795,
      "Ġdemonstrates": 7796,
      "points": 7797,
      "ĠProfessor": 7798,
      "PR": 7799,
      "host": 7800,
      "iations": 7801,
      "jud": 7802,
      "Ġsaving": 7803,
      "ĠBack": 7804,
      "ially": 7805,
      "ĠThough": 7806,
      "Ġdistances": 7807,
      "Ġreader": 7808,
      "Ġbasics": 7809,
      "ĠColor": 7810,
      "Ġintegrity": 7811,
      "Ġmechanics": 7812,
      "Ġconvert": 7813,
      "Ġassumptions": 7814,
      "Ġmigration": 7815,
      "?âĢĿ": 7816,
      "Over": 7817,
      "avery": 7818,
      "herence": 7819,
      "Ġsau": 7820,
      "Ġinject": 7821,
      "Ġnit": 7822,
      "ĠAp": 7823,
      "ĠFreed": 7824,
      "ells": 7825,
      "Ġimmense": 7826,
      "Ġrepresentations": 7827,
      "Ġencouraged": 7828,
      "Ġtransformed": 7829,
      "Ġdanger": 7830,
      "Ġtapest": 7831,
      "Ġconsciousness": 7832,
      "uisine": 7833,
      "Ġlinguistic": 7834,
      "eem": 7835,
      "icy": 7836,
      "ĠAND": 7837,
      "Ġhem": 7838,
      "ĠUnlike": 7839,
      "Ġformula": 7840,
      "issance": 7841,
      "Ġcombines": 7842,
      "Ġintegral": 7843,
      "Ġdigest": 7844,
      "Ġstrengths": 7845,
      "Ġdomain": 7846,
      "Ġmechanism": 7847,
      "Ġportray": 7848,
      "Ġthrive": 7849,
      "Ġthrilling": 7850,
      "Ġaccompan": 7851,
      "Ġterritory": 7852,
      "76": 7853,
      "BC": 7854,
      "Ġcrow": 7855,
      "Ġmixture": 7856,
      "outheast": 7857,
      "Ġblog": 7858,
      "Ġenjoying": 7859,
      "Ġbalanced": 7860,
      "Ġconsistently": 7861,
      "Ġ1970": 7862,
      "Ġattempts": 7863,
      "Ġgathering": 7864,
      "Ġcurriculum": 7865,
      "called": 7866,
      "Ġmac": 7867,
      "Ġreward": 7868,
      "ĠFiction": 7869,
      "ĠFederal": 7870,
      "ĠRoyal": 7871,
      "Ġteeth": 7872,
      "Ġevil": 7873,
      "Ġpermission": 7874,
      "itely": 7875,
      "ĠChange": 7876,
      "ĠYes": 7877,
      "Ġhistories": 7878,
      "Ġemployment": 7879,
      "Ġrevealing": 7880,
      "ĠParty": 7881,
      "ciplinary": 7882,
      "Ġprospect": 7883,
      "ĠChoose": 7884,
      "Gen": 7885,
      "lib": 7886,
      "heimer": 7887,
      "Ġfring": 7888,
      "Ġbibl": 7889,
      "Ġlosing": 7890,
      "ĠSpe": 7891,
      "Ġexempl": 7892,
      "Ġends": 7893,
      "Ġ31": 7894,
      "Ġattach": 7895,
      "Ġcurve": 7896,
      "Ġclassification": 7897,
      "Ġconstantly": 7898,
      "raints": 7899,
      "Ġkeeps": 7900,
      "Ġdetermining": 7901,
      "Ġepis": 7902,
      "ĠApplications": 7903,
      "Your": 7904,
      "aired": 7905,
      "rary": 7906,
      "Ġcoc": 7907,
      "Ġtoy": 7908,
      "pled": 7909,
      "Ġships": 7910,
      "ĠUK": 7911,
      "Ġtrained": 7912,
      "ĠStat": 7913,
      "Ġrail": 7914,
      "ĠVict": 7915,
      "Ġdipl": 7916,
      "Ġcomplement": 7917,
      "Ġendless": 7918,
      "Ġanalys": 7919,
      "ĠOnly": 7920,
      "Ġsurroundings": 7921,
      "Ġestimates": 7922,
      "Ġfrust": 7923,
      "edy": 7924,
      "Ġlie": 7925,
      "ĠMult": 7926,
      "ĠMinist": 7927,
      "ĠLily": 7928,
      "Ġpeers": 7929,
      "pha": 7930,
      "enges": 7931,
      "Ġextend": 7932,
      "Ġmatch": 7933,
      "Ġdefense": 7934,
      "azz": 7935,
      "Ġillnesses": 7936,
      "Ġrigorous": 7937,
      "atile": 7938,
      "Ġwine": 7939,
      "Ġitem": 7940,
      "Ġ(\"": 7941,
      "Ġseg": 7942,
      "Ġoutd": 7943,
      "rowing": 7944,
      "Ġenduring": 7945,
      "ropri": 7946,
      "ĠDev": 7947,
      "Ġvarieties": 7948,
      "Ġbeneficial": 7949,
      "Ġcyber": 7950,
      "Ġversions": 7951,
      "ĠGuide": 7952,
      "Ġpaying": 7953,
      "ĠGeorg": 7954,
      "Ġtissues": 7955,
      "Ġconcentration": 7956,
      "Ġdecrease": 7957,
      "Ġlegislation": 7958,
      "otherapy": 7959,
      "cul": 7960,
      "mes": 7961,
      "zed": 7962,
      "abel": 7963,
      "ĠLGBT": 7964,
      "ĠGet": 7965,
      "Ġcontam": 7966,
      "Ġoutcome": 7967,
      "Ġbless": 7968,
      "Ġparad": 7969,
      "ĠProp": 7970,
      "Ġbreeding": 7971,
      "Ġlisted": 7972,
      "Ġarchae": 7973,
      "umbled": 7974,
      "Ġdominant": 7975,
      "Other": 7976,
      "erts": 7977,
      "Ġear": 7978,
      "Ġhoney": 7979,
      "Ġlemon": 7980,
      "Ġcomposed": 7981,
      "Ġactors": 7982,
      "Ġattending": 7983,
      "Ġdelay": 7984,
      "Ġpossibility": 7985,
      "Ġestimate": 7986,
      "Ġharmon": 7987,
      "ĠParis": 7988,
      "Ġvitamin": 7989,
      "Ġbustling": 7990,
      "natural": 7991,
      "amps": 7992,
      "Ġdeals": 7993,
      "Ġowner": 7994,
      "Ġ500": 7995,
      "ĠIslands": 7996,
      "Ġ1998": 7997,
      "ĠPhot": 7998,
      "Ġdemonstrating": 7999,
      "tic": 8000,
      "trans": 8001,
      "zheimer": 8002,
      "health": 8003,
      "ref": 8004,
      "Ġfur": 8005,
      "Ġcomplications": 8006,
      "ĠGard": 8007,
      "aval": 8008,
      "phone": 8009,
      "Ġacting": 8010,
      "Ġoffspring": 8011,
      "Ġnumer": 8012,
      "Ġentreprene": 8013,
      "ĠComb": 8014,
      "Ġpromising": 8015,
      "Ġfinished": 8016,
      "Ġmarvel": 8017,
      "Ġputting": 8018,
      "Ġpaths": 8019,
      "Ġstriking": 8020,
      "Ġattributes": 8021,
      "Ġpurchase": 8022,
      "ĠGoogle": 8023,
      "ĠConstitution": 8024,
      "Ġtensions": 8025,
      "abulary": 8026,
      "but": 8027,
      "Ġease": 8028,
      "ĠMor": 8029,
      "osion": 8030,
      "ĠHoly": 8031,
      "Ġadvert": 8032,
      "Ġdisabilities": 8033,
      "Ġnotion": 8034,
      "ruption": 8035,
      "earing": 8036,
      "earchers": 8037,
      "erves": 8038,
      "Ġ300": 8039,
      "Ġplanned": 8040,
      "ediatric": 8041,
      "Ġreplied": 8042,
      "ĠCoast": 8043,
      "Ġmobile": 8044,
      "Ġmistakes": 8045,
      "ĠISBN": 8046,
      "Ġvel": 8047,
      "isation": 8048,
      "roid": 8049,
      "olar": 8050,
      "ĠIde": 8051,
      "Ġabandon": 8052,
      "Ġcompounds": 8053,
      "dule": 8054,
      "Ġinterpre": 8055,
      "ĠKore": 8056,
      "Ġmini": 8057,
      "Ġcooling": 8058,
      "Ġreplaced": 8059,
      "Ġutilize": 8060,
      "Ġrooted": 8061,
      "cribed": 8062,
      "33": 8063,
      "itt": 8064,
      "Ġbol": 8065,
      "rag": 8066,
      "Ġstunning": 8067,
      "Ġimpair": 8068,
      "Ġinterface": 8069,
      "Ġartwork": 8070,
      "ĠAnn": 8071,
      "Ġessay": 8072,
      "Ġprotective": 8073,
      "Ġdistinctive": 8074,
      "Ġdietary": 8075,
      "cultural": 8076,
      "dimensional": 8077,
      "Â®": 8078,
      "Ġhus": 8079,
      "Ġgri": 8080,
      "Ġgiant": 8081,
      "irty": 8082,
      "abil": 8083,
      "emb": 8084,
      "ĠNavig": 8085,
      "Ġdisput": 8086,
      "Ġdispos": 8087,
      "Ġevening": 8088,
      "Ġfounded": 8089,
      "####": 8090,
      "Ġende": 8091,
      "ĠRev": 8092,
      "Ġtempor": 8093,
      "Ġtested": 8094,
      "Ġreporting": 8095,
      "Ġinterpretations": 8096,
      "Ġsurprising": 8097,
      "Ġisolated": 8098,
      "Ġcriminal": 8099,
      "Well": 8100,
      "ban": 8101,
      "oons": 8102,
      "eries": 8103,
      "Ġwish": 8104,
      "icting": 8105,
      "Ġmand": 8106,
      "Ġliber": 8107,
      "uten": 8108,
      "ĠAP": 8109,
      "Ġworship": 8110,
      "arding": 8111,
      "Ġampl": 8112,
      "oval": 8113,
      "Ġconfusion": 8114,
      "ĠAnaly": 8115,
      "Ġhybr": 8116,
      "Ġhardware": 8117,
      "Ġconsistency": 8118,
      "Ġstatistics": 8119,
      "47": 8120,
      "Ref": 8121,
      "solving": 8122,
      "tage": 8123,
      "Ġille": 8124,
      "Ġaqu": 8125,
      "requ": 8126,
      "Ġstew": 8127,
      "ĠOx": 8128,
      "Ġdiffer": 8129,
      "exp": 8130,
      "Ġevolutionary": 8131,
      "Ġphilosop": 8132,
      "Ġexperimental": 8133,
      "Ġtapestry": 8134,
      "Ġtelling": 8135,
      "learn": 8136,
      "idation": 8137,
      "Ġusual": 8138,
      "Ġplenty": 8139,
      "example": 8140,
      "Ġconcrete": 8141,
      "Ġseconds": 8142,
      "Ġfrequent": 8143,
      "Ġinfected": 8144,
      "Ġbelonging": 8145,
      "Ġfinger": 8146,
      "Ġcrafting": 8147,
      "ecessary": 8148,
      "Of": 8149,
      "Ġpapers": 8150,
      "Ġborders": 8151,
      "Ġworse": 8152,
      "ĠThree": 8153,
      "ĠJo": 8154,
      "Ġperpet": 8155,
      "ĠChic": 8156,
      "Ġrab": 8157,
      "Ġstatements": 8158,
      "Stud": 8159,
      "Expl": 8160,
      "Ġvertical": 8161,
      "Ġbrave": 8162,
      "Ġemphasize": 8163,
      "Ġdiscipline": 8164,
      "Ġfertile": 8165,
      "Ġfixed": 8166,
      "ĠFrancisco": 8167,
      "HD": 8168,
      "])": 8169,
      "ga": 8170,
      "iological": 8171,
      "Ġtone": 8172,
      "ano": 8173,
      "Ġcholesterol": 8174,
      "Ġwheat": 8175,
      "ĠOl": 8176,
      "Ġdism": 8177,
      "Ġcolour": 8178,
      "Ġraising": 8179,
      "Ġmedieval": 8180,
      "ĠAlways": 8181,
      "rators": 8182,
      "Ġswim": 8183,
      "Ġgrant": 8184,
      "Ġsensors": 8185,
      "Ġpromotes": 8186,
      "ĠHarry": 8187,
      "Ġupdated": 8188,
      "ĠPalest": 8189,
      "Ġcourts": 8190,
      "IP": 8191,
      "aah": 8192,
      "Ġmild": 8193,
      "Ġdensity": 8194,
      "ola": 8195,
      "ĠTry": 8196,
      "ulin": 8197,
      "ripts": 8198,
      "ĠLow": 8199,
      "inder": 8200,
      "Ġdioxide": 8201,
      "ĠAlzheimer": 8202,
      "Ġdepart": 8203,
      "ĠYoung": 8204,
      "Ġessentially": 8205,
      "Ġlegs": 8206,
      "Ġmeetings": 8207,
      "Ġdamaged": 8208,
      "Ġbabies": 8209,
      "Ġdisciplines": 8210,
      "Ġadapted": 8211,
      "Ġexplanation": 8212,
      "Ġmystery": 8213,
      "Ġperceived": 8214,
      "ĠSciences": 8215,
      "np": 8216,
      "Ġpand": 8217,
      "Ġbull": 8218,
      "Ġgest": 8219,
      "elve": 8220,
      "ĠMa": 8221,
      "Ġdeploy": 8222,
      "Ġchocolate": 8223,
      "ĠRole": 8224,
      "Ġuncom": 8225,
      "Ġgenres": 8226,
      "Ġcombinations": 8227,
      "ĠWithin": 8228,
      "Ġgeographical": 8229,
      "Ġmolecular": 8230,
      "ĠAustralian": 8231,
      "normal": 8232,
      "ĠCarolina": 8233,
      "Ġstereotypes": 8234,
      "rine": 8235,
      "ita": 8236,
      "anz": 8237,
      "Ġbrows": 8238,
      "Ġnod": 8239,
      "ĠCreat": 8240,
      "ĠBeg": 8241,
      "Ġshad": 8242,
      "Ġdisability": 8243,
      "ella": 8244,
      "hesis": 8245,
      "Ġrefuge": 8246,
      "Ġgrain": 8247,
      "Ġidentification": 8248,
      "Ġ185": 8249,
      "Ġrespectively": 8250,
      "ĠGuid": 8251,
      "Ġdestruction": 8252,
      "Ġvideos": 8253,
      "Ġthoroughly": 8254,
      "Ġpushing": 8255,
      "iture": 8256,
      "Ġbub": 8257,
      "Ġnob": 8258,
      "Ġcong": 8259,
      "Ġcomments": 8260,
      "Ġchose": 8261,
      "Ġenforcement": 8262,
      "Ġoutbre": 8263,
      "ĠItaly": 8264,
      "Ġmetric": 8265,
      "Ġbreaks": 8266,
      "Ġfailed": 8267,
      "Ġfishing": 8268,
      "Ġlaboratory": 8269,
      "ĠDiscuss": 8270,
      "ĠSpecifically": 8271,
      "Ġinflammation": 8272,
      "Do": 8273,
      "Ġwire": 8274,
      "Ġbot": 8275,
      "Ġharsh": 8276,
      "ĠEvolution": 8277,
      "ĠFour": 8278,
      "ogy": 8279,
      "ictional": 8280,
      "Ġskilled": 8281,
      "Ġapproached": 8282,
      "bean": 8283,
      "Ġsuffer": 8284,
      "ĠAgric": 8285,
      "Ġchicken": 8286,
      "Ġinequality": 8287,
      "friendly": 8288,
      "hor": 8289,
      "onial": 8290,
      "icul": 8291,
      "step": 8292,
      "ĠTips": 8293,
      "Ġstated": 8294,
      "ĠSand": 8295,
      "Ġchances": 8296,
      "ĠLo": 8297,
      "ĠNext": 8298,
      "angle": 8299,
      "Ġequival": 8300,
      "agnetic": 8301,
      "Ġcaptured": 8302,
      "Ġobserving": 8303,
      "Ġcompetitive": 8304,
      "Ġversus": 8305,
      "Ġinclusion": 8306,
      "Ġflexible": 8307,
      "ĠUtil": 8308,
      "Ġnervous": 8309,
      "Ġenemy": 8310,
      "CT": 8311,
      "OP": 8312,
      "math": 8313,
      "hero": 8314,
      "Ġhurt": 8315,
      "sever": 8316,
      "rac": 8317,
      "ĠBusiness": 8318,
      "ĠWhere": 8319,
      "rous": 8320,
      "Ġadverse": 8321,
      "iana": 8322,
      "Ġdistant": 8323,
      "Ġautonom": 8324,
      "Ġconfir": 8325,
      "aterials": 8326,
      "Ġ75": 8327,
      "Ġmusicians": 8328,
      "Ġsensitivity": 8329,
      "Ġfilms": 8330,
      "Ġwindows": 8331,
      "Ġphotography": 8332,
      "Ġcycles": 8333,
      "Ġtargets": 8334,
      "Ġlabels": 8335,
      "Ġinvestigate": 8336,
      "ĠOften": 8337,
      "Ġjudgment": 8338,
      "Ġweakness": 8339,
      "Ġvictims": 8340,
      "lar": 8341,
      "word": 8342,
      "yle": 8343,
      "Ġbomb": 8344,
      "illance": 8345,
      "Ġexplores": 8346,
      "Ġcovers": 8347,
      "oyage": 8348,
      "Ġsupplement": 8349,
      "Ġcircle": 8350,
      "Ġagreements": 8351,
      "Ġratio": 8352,
      "ĠAtlantic": 8353,
      "Ġphotographs": 8354,
      "Ġcm": 8355,
      "icide": 8356,
      "oln": 8357,
      "ĠIII": 8358,
      "ĠDou": 8359,
      "Ġshot": 8360,
      "Ġshares": 8361,
      "Ġroads": 8362,
      "Ġpreservation": 8363,
      "Ġmetab": 8364,
      "Ġreligions": 8365,
      "Ġphoto": 8366,
      "ĠReport": 8367,
      "Ġroute": 8368,
      "Ġuncertainty": 8369,
      "Ġblow": 8370,
      "Ġdrain": 8371,
      "ĠCapt": 8372,
      "ĠIre": 8373,
      "ĠMil": 8374,
      "ĠMethod": 8375,
      "ĠFund": 8376,
      "Ġexplains": 8377,
      "Ġscores": 8378,
      "Ġcoverage": 8379,
      "Ġpoem": 8380,
      "Ġdirections": 8381,
      "Ġdirectory": 8382,
      "Ġproductivity": 8383,
      "Ġapplicable": 8384,
      "Ġrestaur": 8385,
      "ĠMaya": 8386,
      "Ġfitness": 8387,
      "Ġangle": 8388,
      "haust": 8389,
      "Ġmissing": 8390,
      "Ġstreets": 8391,
      "41": 8392,
      "rus": 8393,
      "Ġtip": 8394,
      "Ġcourses": 8395,
      "Ġdates": 8396,
      "Ġproceed": 8397,
      "Ġvan": 8398,
      "ĠWood": 8399,
      "ĠRock": 8400,
      "aked": 8401,
      "orses": 8402,
      "Ġproved": 8403,
      "taining": 8404,
      "return": 8405,
      "Ġsafer": 8406,
      "Ġbask": 8407,
      "Ġargued": 8408,
      "Ġlegisl": 8409,
      "Ġwarning": 8410,
      "RA": 8411,
      "Ġcas": 8412,
      "ĠMill": 8413,
      "exist": 8414,
      "Ġconstraints": 8415,
      "Ġstrongly": 8416,
      "Ġcollections": 8417,
      "onym": 8418,
      "Ġsession": 8419,
      "ĠCollabor": 8420,
      "IA": 8421,
      "Mod": 8422,
      "eous": 8423,
      "fe": 8424,
      "ieth": 8425,
      "array": 8426,
      "ethe": 8427,
      "Ġcontained": 8428,
      "ĠOpt": 8429,
      "ovascular": 8430,
      "Ġentered": 8431,
      "Ġgenerating": 8432,
      "ĠPlace": 8433,
      "Ġloop": 8434,
      "Ġaccountability": 8435,
      "Ġlosses": 8436,
      "Ġprobability": 8437,
      "ĠSecurity": 8438,
      "ING": 8439,
      "Ġprosper": 8440,
      "ĠMichael": 8441,
      "RS": 8442,
      "date": 8443,
      "hi": 8444,
      "oys": 8445,
      "onal": 8446,
      "Ġhole": 8447,
      "ĠAh": 8448,
      "geon": 8449,
      "Ġarmy": 8450,
      "Ġarbit": 8451,
      "ĠJack": 8452,
      "economic": 8453,
      "standing": 8454,
      "Ġproduces": 8455,
      "Ġmeditation": 8456,
      "ĠContext": 8457,
      "Ġdriven": 8458,
      "Ġ1997": 8459,
      "Ġrespective": 8460,
      "Ġadaptability": 8461,
      "Ġsmoothly": 8462,
      "Ġbranch": 8463,
      "Ġmastering": 8464,
      "04": 8465,
      "cher": 8466,
      "real": 8467,
      "Ġfath": 8468,
      "Ġbath": 8469,
      "aria": 8470,
      "Ġgram": 8471,
      "ĠMars": 8472,
      "Ġsuit": 8473,
      "ĠRob": 8474,
      "apse": 8475,
      "Ġhaven": 8476,
      "Ġunn": 8477,
      "Ġjurisd": 8478,
      "Ġrefine": 8479,
      "Ġequity": 8480,
      "Ġ188": 8481,
      "Ġboys": 8482,
      "Ġprincipal": 8483,
      "Ġcontainer": 8484,
      "Ġexpressing": 8485,
      "Ġfairly": 8486,
      "Ġownership": 8487,
      "dr": 8488,
      "fast": 8489,
      "sk": 8490,
      "sue": 8491,
      "ĠÃ": 8492,
      "Ġpiv": 8493,
      "Ġdictionary": 8494,
      "etary": 8495,
      "Ġstood": 8496,
      "ĠAst": 8497,
      "Ġseat": 8498,
      "Ġreliability": 8499,
      "Ġbreed": 8500,
      "Ġbiom": 8501,
      "ĠChristians": 8502,
      "Ġpolicymakers": 8503,
      "Ġspreading": 8504,
      "Ġtribes": 8505,
      "Ġtroops": 8506,
      "ĠAcademy": 8507,
      "Ġsatisfaction": 8508,
      "MA": 8509,
      "alo": 8510,
      "Ġfer": 8511,
      "olph": 8512,
      "ureau": 8513,
      "ĠDu": 8514,
      "Ġrid": 8515,
      "ĠLittle": 8516,
      "Ġunable": 8517,
      "Ġdiagnostic": 8518,
      "Ġinfluencing": 8519,
      "Ġassigned": 8520,
      "plotlib": 8521,
      "Ġcommunications": 8522,
      "Ġmysteries": 8523,
      "Ġacknowledging": 8524,
      "ĠMicrosoft": 8525,
      "Ġtrauma": 8526,
      "Ġpermanent": 8527,
      "Ġspoken": 8528,
      ":||": 8529,
      "PC": 8530,
      "bur": 8531,
      "itan": 8532,
      "Ġpig": 8533,
      "Ġfract": 8534,
      "ctors": 8535,
      "ĠTimes": 8536,
      "ĠCamp": 8537,
      "usal": 8538,
      "ĠDet": 8539,
      "Ġkm": 8540,
      "ulty": 8541,
      "ĠJac": 8542,
      "iously": 8543,
      "Ġelectro": 8544,
      "elfare": 8545,
      "Ġvector": 8546,
      "Ġaddressed": 8547,
      "Ġcircuit": 8548,
      "ocument": 8549,
      "Ġsentence": 8550,
      "Ġperfectly": 8551,
      "Ġinvolvement": 8552,
      "Ġparameter": 8553,
      "ĠMusic": 8554,
      "ĠCheck": 8555,
      "ĠPolicy": 8556,
      "havior": 8557,
      "ĠJoseph": 8558,
      "ĠLGBTQ": 8559,
      "77": 8560,
      "Sc": 8561,
      "US": 8562,
      "fare": 8563,
      "http": 8564,
      "yal": 8565,
      "inting": 8566,
      "Ġaward": 8567,
      "erals": 8568,
      "ĠCarl": 8569,
      "ushed": 8570,
      "ĠBrown": 8571,
      "Ġchrom": 8572,
      "ĠEc": 8573,
      "Ġuniversity": 8574,
      "Ġnewfound": 8575,
      "Ġartif": 8576,
      "------------------------": 8577,
      "Ġbeloved": 8578,
      "Ġgrid": 8579,
      "ĠSuper": 8580,
      "Ġdiscovering": 8581,
      "Ġevaluating": 8582,
      "Ġdemocratic": 8583,
      "ĠAssess": 8584,
      "Ġhorizont": 8585,
      "ineteenth": 8586,
      "Ġanalyses": 8587,
      "34": 8588,
      "Not": 8589,
      "She": 8590,
      "bes": 8591,
      "Ġcodes": 8592,
      "Ġflying": 8593,
      "anol": 8594,
      "Ġnine": 8595,
      "ession": 8596,
      "ĠMel": 8597,
      "Ġhes": 8598,
      "aped": 8599,
      "Ġclothes": 8600,
      "Ġresemb": 8601,
      "Ġvisually": 8602,
      "ussian": 8603,
      "Ġdepict": 8604,
      "Ġelection": 8605,
      "Ġfunctioning": 8606,
      "Ġmetaph": 8607,
      "198": 8608,
      "Ġscientist": 8609,
      "Ġtraveling": 8610,
      "Ġlogic": 8611,
      "Ġquantities": 8612,
      "Ġhorse": 8613,
      "Ġneighbors": 8614,
      "Ġvocabulary": 8615,
      "Comm": 8616,
      "Ġpose": 8617,
      "arks": 8618,
      "Ġ36": 8619,
      "aware": 8620,
      "Ġextension": 8621,
      "ĠAny": 8622,
      "Ġforever": 8623,
      "iki": 8624,
      "Ġpercentage": 8625,
      "Ġdedication": 8626,
      "ĠWrite": 8627,
      "Ġencountered": 8628,
      "ĠStrategies": 8629,
      "ĠChallenges": 8630,
      "01": 8631,
      "05": 8632,
      "QL": 8633,
      "under": 8634,
      "Ġtub": 8635,
      "ini": 8636,
      "enced": 8637,
      "Ġpit": 8638,
      "eted": 8639,
      "Ġgast": 8640,
      "ĠTop": 8641,
      "ĠLim": 8642,
      "Ġevident": 8643,
      "Ġpeer": 8644,
      "Ġmodes": 8645,
      "ĠAsk": 8646,
      "Ġmeters": 8647,
      "Ġtemporary": 8648,
      "Ġsuperior": 8649,
      "Ġbrains": 8650,
      "Ġannounced": 8651,
      "Ġexception": 8652,
      "ĠSmall": 8653,
      "Ġdramatic": 8654,
      "Ġresonate": 8655,
      "ĠDemoc": 8656,
      "Ġaftern": 8657,
      "Ġaccomplish": 8658,
      "ĠRichard": 8659,
      "sey": 8660,
      "ĠCode": 8661,
      "unting": 8662,
      "Ġspoke": 8663,
      "ĠNut": 8664,
      "Ġperception": 8665,
      "Ġacids": 8666,
      "Ġexamined": 8667,
      "Ġdecade": 8668,
      "Ġexped": 8669,
      "Ġflows": 8670,
      "Ġutility": 8671,
      "aska": 8672,
      "uthor": 8673,
      "Ġcovering": 8674,
      "Ġaspiring": 8675,
      "Ġcorporate": 8676,
      "Can": 8677,
      "Life": 8678,
      "gence": 8679,
      "Ġholes": 8680,
      "cel": 8681,
      "ĠFil": 8682,
      "Ġimaging": 8683,
      "Ġclar": 8684,
      "Ġpreced": 8685,
      "atively": 8686,
      "Ġbuying": 8687,
      "Ġoccas": 8688,
      "Ġphysically": 8689,
      "Ġenjoyed": 8690,
      "ĠScot": 8691,
      "Ġbehavioral": 8692,
      "hetics": 8693,
      "Ġfalls": 8694,
      "Ġtowns": 8695,
      "Ġthousand": 8696,
      "Ġ1960": 8697,
      "Ġpaintings": 8698,
      "Ġdistinguish": 8699,
      "Ġarrangements": 8700,
      "Ġorientation": 8701,
      "Ġlagoon": 8702,
      "Since": 8703,
      "oil": 8704,
      "ping": 8705,
      "sm": 8706,
      "itarian": 8707,
      "Ġtom": 8708,
      "Ġlists": 8709,
      "owers": 8710,
      "umber": 8711,
      "Ġlever": 8712,
      "ĠFram": 8713,
      "Ġshut": 8714,
      "Ġcompens": 8715,
      "Ġundert": 8716,
      "Ġsomewhat": 8717,
      "Ġpron": 8718,
      "Ġdiscourse": 8719,
      "Ġimagery": 8720,
      "Ġintricacies": 8721,
      "Ġspeakers": 8722,
      "ĠMexican": 8723,
      "Ġentertainment": 8724,
      "Ġtackle": 8725,
      "Ġfathoms": 8726,
      "May": 8727,
      "disc": 8728,
      "mers": 8729,
      "mail": 8730,
      "made": 8731,
      "erted": 8732,
      "cium": 8733,
      "Ġwearing": 8734,
      "Ġring": 8735,
      "gebra": 8736,
      "Ġmanual": 8737,
      "Ġtrail": 8738,
      "ĠAncient": 8739,
      "Ġsupportive": 8740,
      "ĠIndeed": 8741,
      "Ġslavery": 8742,
      "Ġ1996": 8743,
      "Ġoptimization": 8744,
      "Ġcultivating": 8745,
      "ĠGrand": 8746,
      "Ġhydrogen": 8747,
      "Ġcomparison": 8748,
      "ĠNumPy": 8749,
      "========": 8750,
      "Ġlicens": 8751,
      "Ġlungs": 8752,
      "cyclopedia": 8753,
      "Figure": 8754,
      "giving": 8755,
      "range": 8756,
      "Ġborder": 8757,
      "ctic": 8758,
      "owered": 8759,
      "ĠTor": 8760,
      "ĠSat": 8761,
      "ĠCE": 8762,
      "ĠPope": 8763,
      "ĠHum": 8764,
      "oga": 8765,
      "Ġgrows": 8766,
      "Ġended": 8767,
      "azine": 8768,
      "Ġsupposed": 8769,
      "Ġeconomics": 8770,
      "Ġpredators": 8771,
      "Ġheads": 8772,
      "Ġsteel": 8773,
      "Ġdelivering": 8774,
      "Ġbiof": 8775,
      "Ġhypothesis": 8776,
      "Ġdisplays": 8777,
      "la": 8778,
      "Ġbold": 8779,
      "ĠCro": 8780,
      "heric": 8781,
      "ĠWorks": 8782,
      "elled": 8783,
      "ysical": 8784,
      "Ġblend": 8785,
      "Ġcalling": 8786,
      "Ġdeter": 8787,
      "Ġentering": 8788,
      "Ġinvesting": 8789,
      "Ġfreely": 8790,
      "position": 8791,
      "Ġemphasizes": 8792,
      "Ġuncover": 8793,
      "ĠHeritage": 8794,
      "Ġcalculated": 8795,
      "Ġsampling": 8796,
      "html": 8797,
      "Ġinhabitants": 8798,
      "Ġtutorial": 8799,
      "ĠAdministration": 8800,
      "OM": 8801,
      "you": 8802,
      "Ġdress": 8803,
      "Ġdaughter": 8804,
      "Ġepid": 8805,
      "Ġstones": 8806,
      "ective": 8807,
      "ĠMah": 8808,
      "Ġdear": 8809,
      "Ġchurches": 8810,
      "Ġspatial": 8811,
      "ĠLab": 8812,
      "Ġherbs": 8813,
      "Ġpoison": 8814,
      "Ġpersonnel": 8815,
      "Ġcarb": 8816,
      "azon": 8817,
      "ĠClimate": 8818,
      "Ġdisparities": 8819,
      "Ġdollars": 8820,
      "Ġsediment": 8821,
      "Ġelder": 8822,
      "Col": 8823,
      "Part": 8824,
      "medi": 8825,
      "rison": 8826,
      "Ġcel": 8827,
      "omer": 8828,
      "arters": 8829,
      "ĠLog": 8830,
      "ĠObs": 8831,
      "ruit": 8832,
      "Ġeverywhere": 8833,
      "Ġdefining": 8834,
      "ĠArts": 8835,
      "Ġelected": 8836,
      "Ġvariation": 8837,
      "Ġevolve": 8838,
      "Ġtumors": 8839,
      "Ġconstitutes": 8840,
      "Ġencounters": 8841,
      "Cons": 8842,
      "Pe": 8843,
      "cut": 8844,
      "cence": 8845,
      "Ġfet": 8846,
      "Ġmeth": 8847,
      "uther": 8848,
      "through": 8849,
      "ĠMer": 8850,
      "Ġshoot": 8851,
      "Ġoptical": 8852,
      "Ġphysician": 8853,
      "Ġescape": 8854,
      "Ġethics": 8855,
      "Ġsmoking": 8856,
      "Ġestablishment": 8857,
      "ĠRecogn": 8858,
      "Ġelsewhere": 8859,
      "Ġvegetation": 8860,
      "Ġfeeding": 8861,
      "Ġutilizing": 8862,
      "Ġexecution": 8863,
      "Ġphilosophical": 8864,
      "Ġprecisely": 8865,
      "Ġpersistent": 8866,
      "Ġdataset": 8867,
      "ĠTemple": 8868,
      "ĠÎ": 8869,
      "Ġtight": 8870,
      "Ġcuisine": 8871,
      "Ġpin": 8872,
      "Ġniche": 8873,
      "chant": 8874,
      "ĠGa": 8875,
      "ĠOk": 8876,
      "enders": 8877,
      "Ġtracking": 8878,
      "Ġassets": 8879,
      "Ġsunny": 8880,
      "ĠPrevention": 8881,
      "ucky": 8882,
      "Ġorders": 8883,
      "Ġpartnership": 8884,
      "ĠEnvironment": 8885,
      "Ġcompliance": 8886,
      "Ġsuscept": 8887,
      "Ġearthquake": 8888,
      "Ġbridges": 8889,
      "Ġlaser": 8890,
      "Ġworkshops": 8891,
      "Ġdiplom": 8892,
      "%)": 8893,
      "PT": 8894,
      "Per": 8895,
      "bel": 8896,
      "Ġtables": 8897,
      "Ġtropical": 8898,
      "Ġcotton": 8899,
      "Ġpace": 8900,
      "ulative": 8901,
      "ĠCook": 8902,
      "ĠIN": 8903,
      "Ġexhaust": 8904,
      "ĠProm": 8905,
      "ĠBig": 8906,
      "orted": 8907,
      "Ġ32": 8908,
      "Ġprovider": 8909,
      "parts": 8910,
      "ardship": 8911,
      "Ġfriendship": 8912,
      "ĠBeing": 8913,
      "Ġzones": 8914,
      "Ġstruggling": 8915,
      "ĠQuest": 8916,
      "ĠReading": 8917,
      "Ġhunting": 8918,
      "Ġtumor": 8919,
      "Ġcampaigns": 8920,
      "list": 8921,
      "mm": 8922,
      "Ġdating": 8923,
      "ceans": 8924,
      "ĠEr": 8925,
      "ĠFree": 8926,
      "ocate": 8927,
      "eren": 8928,
      "Ġvaried": 8929,
      "icultural": 8930,
      "Ġviruses": 8931,
      "Ġseparated": 8932,
      "ĠAgency": 8933,
      "ĠCommunication": 8934,
      "Ġadvocating": 8935,
      "Art": 8936,
      "Ġdestroyed": 8937,
      "enaissance": 8938,
      "Ġoutdoor": 8939,
      "Ġafternoon": 8940,
      "fiction": 8941,
      "gent": 8942,
      "gien": 8943,
      "sun": 8944,
      "size": 8945,
      "Ġloud": 8946,
      "irical": 8947,
      "ĠFather": 8948,
      "ĠLead": 8949,
      "ocols": 8950,
      "reefs": 8951,
      "angered": 8952,
      "Ġnumpy": 8953,
      "Ġfoundational": 8954,
      "ĠProper": 8955,
      "Ġpublication": 8956,
      "Ġcollaborate": 8957,
      "including": 8958,
      "!)": 8959,
      ".).": 8960,
      "Pre": 8961,
      "sen": 8962,
      "Ġtor": 8963,
      "Ġbinding": 8964,
      "Ġdense": 8965,
      "ĠSud": 8966,
      "ĠWal": 8967,
      "Ġchair": 8968,
      "occer": 8969,
      "Ġrose": 8970,
      "Ġrelate": 8971,
      "iants": 8972,
      "Ġsigned": 8973,
      "Ġconference": 8974,
      "Ġprofit": 8975,
      "Ġgroundbreaking": 8976,
      "Ġsuggesting": 8977,
      "Ġmeasurement": 8978,
      "Ġprinted": 8979,
      "ĠIdentify": 8980,
      "Ġheroes": 8981,
      "Ġrestrictions": 8982,
      "Ġoccasionally": 8983,
      "ðŁ": 8984,
      "ani": 8985,
      "Ġtooth": 8986,
      "ila": 8987,
      "olk": 8988,
      "olitical": 8989,
      "Ġgases": 8990,
      "ĠCard": 8991,
      "ifice": 8992,
      "allow": 8993,
      "Ġplacing": 8994,
      "Ġspecified": 8995,
      "Ġorganiz": 8996,
      "Ġorganizing": 8997,
      "Ġhistorians": 8998,
      "Ġprinting": 8999,
      "ĠNavy": 9000,
      "Ġstopped": 9001,
      "ustainable": 9002,
      "Ġempty": 9003,
      "ĠIreland": 9004,
      "Bl": 9005,
      "HA": 9006,
      "Sim": 9007,
      "cre": 9008,
      "ped": 9009,
      "Ġpill": 9010,
      "Ġdrought": 9011,
      "entieth": 9012,
      "char": 9013,
      "Ġconve": 9014,
      "ĠMind": 9015,
      "ivered": 9016,
      "oca": 9017,
      "Ġcompound": 9018,
      "Ġimpressive": 9019,
      "Ġarmed": 9020,
      "Ġcommission": 9021,
      "ricts": 9022,
      "ĠStay": 9023,
      "Ġmoderate": 9024,
      "arming": 9025,
      "Ġfacility": 9026,
      "Ġvoltage": 9027,
      "Ġwondering": 9028,
      "Ġdiagnosed": 9029,
      "Ġmanipulation": 9030,
      "Ġmotivation": 9031,
      "ĠOhio": 9032,
      "Ġroughly": 9033,
      "Ġsodium": 9034,
      "Ġexplicitly": 9035,
      "Ġaccompanied": 9036,
      "Ġdisputes": 9037,
      "severance": 9038,
      "Ġunnecessary": 9039,
      "(\"": 9040,
      "books": 9041,
      "nom": 9042,
      "Äģ": 9043,
      "inism": 9044,
      "Ġov": 9045,
      "Ġnice": 9046,
      "Ġgaps": 9047,
      "ĠBenny": 9048,
      "ĠHand": 9049,
      "ĠRam": 9050,
      "ortion": 9051,
      "Ġshop": 9052,
[...]
